{"version":"1.0","truncation":null,"padding":null,"added_tokens":[{"id":0,"special":true,"content":"[UNK]","single_word":false,"lstrip":false,"rstrip":false,"normalized":false},{"id":1,"special":true,"content":"[CLS]","single_word":false,"lstrip":false,"rstrip":false,"normalized":false},{"id":2,"special":true,"content":"[SEP]","single_word":false,"lstrip":false,"rstrip":false,"normalized":false},{"id":3,"special":true,"content":"[PAD]","single_word":false,"lstrip":false,"rstrip":false,"normalized":false},{"id":4,"special":true,"content":"[MASK]","single_word":false,"lstrip":false,"rstrip":false,"normalized":false}],"normalizer":{"type":"Sequence","normalizers":[{"type":"NFD"},{"type":"Lowercase"},{"type":"StripAccents"}]},"pre_tokenizer":{"type":"Sequence","pretokenizers":[{"type":"Whitespace"},{"type":"Digits","individual_digits":true}]},"post_processor":{"type":"TemplateProcessing","single":[{"SpecialToken":{"id":"[CLS]","type_id":0}},{"Sequence":{"id":"A","type_id":0}},{"SpecialToken":{"id":"[SEP]","type_id":0}}],"pair":[{"SpecialToken":{"id":"[CLS]","type_id":0}},{"Sequence":{"id":"A","type_id":0}},{"SpecialToken":{"id":"[SEP]","type_id":0}},{"Sequence":{"id":"B","type_id":1}},{"SpecialToken":{"id":"[SEP]","type_id":1}}],"special_tokens":{"[CLS]":{"id":"[CLS]","ids":[1],"tokens":["[CLS]"]},"[SEP]":{"id":"[SEP]","ids":[2],"tokens":["[SEP]"]}}},"decoder":null,"model":{"type":"WordPiece","unk_token":"[UNK]","continuing_subword_prefix":"##","max_input_chars_per_word":100,"vocab":{"[UNK]":0,"[CLS]":1,"[SEP]":2,"[PAD]":3,"[MASK]":4,"!":5,"#":6,"$":7,"%":8,"&":9,"(":10,")":11,"*":12,"+":13,",":14,"-":15,".":16,"/":17,"0":18,"1":19,"2":20,"3":21,"4":22,"5":23,"6":24,"7":25,"8":26,"9":27,":":28,";":29,"<":30,"=":31,"?":32,"@":33,"[":34,"\\":35,"]":36,"^":37,"_":38,"`":39,"a":40,"b":41,"c":42,"d":43,"e":44,"f":45,"g":46,"h":47,"i":48,"j":49,"k":50,"l":51,"m":52,"n":53,"o":54,"p":55,"q":56,"r":57,"s":58,"t":59,"u":60,"v":61,"w":62,"x":63,"y":64,"z":65,"{":66,"|":67,"}":68,"~":69,"¡":70,"¢":71,"£":72,"¤":73,"¥":74,"¦":75,"§":76,"¨":77,"©":78,"«":79,"¬":80,"­":81,"®":82,"¯":83,"°":84,"±":85,"²":86,"³":87,"´":88,"µ":89,"¶":90,"·":91,"¹":92,"º":93,"»":94,"¼":95,"½":96,"¾":97,"×":98,"ß":99,"æ":100,"÷":101,"ø":102,"ı":103,"œ":104,"ƒ":105,"ɛ":106,"ʹ":107,"ˆ":108,"˘":109,"˚":110,"˜":111,"˝":112,"α":113,"β":114,"γ":115,"δ":116,"ε":117,"ζ":118,"η":119,"θ":120,"ι":121,"κ":122,"λ":123,"μ":124,"ν":125,"ξ":126,"ο":127,"π":128,"ρ":129,"ς":130,"σ":131,"τ":132,"υ":133,"φ":134,"χ":135,"ψ":136,"ω":137,"ϑ":138,"ϒ":139,"ϕ":140,"ϖ":141,"ϛ":142,"ϰ":143,"а":144,"б":145,"в":146,"г":147,"д":148,"е":149,"ж":150,"з":151,"и":152,"л":153,"н":154,"о":155,"п":156,"р":157,"с":158,"т":159,"у":160,"ч":161,"ш":162,"щ":163,"я":164,"ᄀ":165,"ᄂ":166,"ᄃ":167,"ᄄ":168,"ᄅ":169,"ᄆ":170,"ᄇ":171,"ᄉ":172,"ᄋ":173,"ᄌ":174,"ᄎ":175,"ᄏ":176,"ᄐ":177,"ᄑ":178,"ᄒ":179,"ᅡ":180,"ᅢ":181,"ᅣ":182,"ᅥ":183,"ᅦ":184,"ᅧ":185,"ᅨ":186,"ᅩ":187,"ᅪ":188,"ᅬ":189,"ᅭ":190,"ᅮ":191,"ᅱ":192,"ᅲ":193,"ᅳ":194,"ᅴ":195,"ᅵ":196,"ᆨ":197,"ᆩ":198,"ᆫ":199,"ᆯ":200,"ᆷ":201,"ᆸ":202,"ᆹ":203,"ᆺ":204,"ᆻ":205,"ᆼ":206,"ᆽ":207,"​":208,"‐":209,"–":210,"—":211,"―":212,"‖":213,"‘":214,"’":215,"“":216,"”":217,"„":218,"†":219,"‡":220,"•":221,"‥":222,"…":223,"‰":224,"′":225,"″":226,"‴":227,"‵":228,"‾":229,"⁄":230,"⁡":231,"⁢":232,"⁣":233,"⁰":234,"⁴":235,"⁵":236,"⁶":237,"⁷":238,"⁸":239,"⁹":240,"⁺":241,"⁻":242,"₀":243,"₁":244,"₂":245,"₃":246,"₄":247,"₅":248,"₆":249,"₇":250,"₈":251,"₉":252,"₋":253,"₧":254,"€":255,"℃":256,"ℋ":257,"ℏ":258,"ℐ":259,"ℑ":260,"ℒ":261,"ℓ":262,"ℜ":263,"™":264,"ℤ":265,"ℬ":266,"ℱ":267,"ℳ":268,"ⅆ":269,"ⅇ":270,"ⅈ":271,"⅓":272,"⅔":273,"⅕":274,"⅖":275,"⅗":276,"⅘":277,"⅙":278,"⅚":279,"⅛":280,"⅜":281,"⅝":282,"⅞":283,"ⅱ":284,"←":285,"↑":286,"→":287,"↓":288,"↔":289,"↦":290,"↽":291,"⇀":292,"⇄":293,"⇅":294,"⇒":295,"⇓":296,"⇔":297,"∀":298,"∂":299,"∃":300,"∅":301,"∇":302,"∈":303,"∋":304,"∏":305,"∑":306,"−":307,"∓":308,"∖":309,"∗":310,"∘":311,"√":312,"∝":313,"∞":314,"∟":315,"∠":316,"∥":317,"∧":318,"∩":319,"∪":320,"∫":321,"∮":322,"∴":323,"∷":324,"∼":325,"≃":326,"≅":327,"≈":328,"≐":329,"≒":330,"≙":331,"≡":332,"≤":333,"≥":334,"≦":335,"≧":336,"≲":337,"≳":338,"≺":339,"≻":340,"⊂":341,"⊃":342,"⊆":343,"⊑":344,"⊕":345,"⊖":346,"⊗":347,"⊙":348,"⊚":349,"⊝":350,"⊥":351,"⊳":352,"⋀":353,"⋁":354,"⋂":355,"⋃":356,"⋄":357,"⋅":358,"⋆":359,"⋐":360,"⋒":361,"⋓":362,"⋮":363,"⋯":364,"⋰":365,"⋱":366,"⌀":367,"⌈":368,"⌉":369,"⌊":370,"⌋":371,"␣":372,"①":373,"②":374,"ⓐ":375,"│":376,"┌":377,"┐":378,"└":379,"┘":380,"├":381,"┣":382,"┤":383,"┬":384,"═":385,"╗":386,"╣":387,"╧":388,"╬":389,"░":390,"▒":391,"▓":392,"■":393,"□":394,"▪":395,"▲":396,"△":397,"▴":398,"►":399,"▽":400,"○":401,"●":402,"◦":403,"◯":404,"★":405,"☆":406,"♣":407,"♦":408,"♪":409,"♭":410,"♯":411,"✓":412,"❖":413,"❘":414,"⨯":415,"⫬":416,"、":417,"。":418,"々":419,"〇":420,"〈":421,"〉":422,"〜":423,"あ":424,"い":425,"う":426,"え":427,"お":428,"か":429,"き":430,"く":431,"け":432,"こ":433,"さ":434,"し":435,"す":436,"せ":437,"そ":438,"た":439,"ち":440,"っ":441,"つ":442,"て":443,"と":444,"な":445,"に":446,"ね":447,"の":448,"は":449,"ひ":450,"ふ":451,"へ":452,"ほ":453,"ま":454,"み":455,"む":456,"め":457,"も":458,"や":459,"ゅ":460,"ゆ":461,"ょ":462,"よ":463,"ら":464,"り":465,"る":466,"れ":467,"ろ":468,"わ":469,"を":470,"ん":471,"ゝ":472,"ァ":473,"ア":474,"ィ":475,"イ":476,"ゥ":477,"ウ":478,"ェ":479,"エ":480,"ォ":481,"オ":482,"カ":483,"キ":484,"ク":485,"ケ":486,"コ":487,"サ":488,"シ":489,"ス":490,"セ":491,"ソ":492,"タ":493,"チ":494,"ッ":495,"ツ":496,"テ":497,"ト":498,"ナ":499,"ニ":500,"ヌ":501,"ネ":502,"ノ":503,"ハ":504,"ヒ":505,"フ":506,"ヘ":507,"ホ":508,"マ":509,"ミ":510,"ム":511,"メ":512,"モ":513,"ャ":514,"ヤ":515,"ュ":516,"ユ":517,"ョ":518,"ヨ":519,"ラ":520,"リ":521,"ル":522,"レ":523,"ロ":524,"ヮ":525,"ワ":526,"ン":527,"・":528,"ー":529,"ヽ":530,"ㅧ":531,"㎚":532,"㎛":533,"㎜":534,"㎝":535,"㏄":536,"一":537,"丁":538,"三":539,"上":540,"下":541,"不":542,"与":543,"且":544,"丘":545,"両":546,"並":547,"丫":548,"中":549,"丸":550,"丹":551,"主":552,"乃":553,"乏":554,"乗":555,"乳":556,"乾":557,"了":558,"予":559,"事":560,"二":561,"互":562,"井":563,"亘":564,"亜":565,"交":566,"人":567,"仁":568,"介":569,"仔":570,"仕":571,"付":572,"仙":573,"代":574,"令":575,"以":576,"仮":577,"仰":578,"仲":579,"件":580,"伏":581,"伐":582,"伝":583,"伴":584,"伸":585,"伹":586,"似":587,"位":588,"低":589,"体":590,"何":591,"余":592,"作":593,"併":594,"使":595,"供":596,"価":597,"侵":598,"便":599,"係":600,"保":601,"信":602,"俣":603,"修":604,"俯":605,"俵":606,"個":607,"倍":608,"倒":609,"倚":610,"借":611,"値":612,"假":613,"偏":614,"停":615,"側":616,"偶":617,"偽":618,"傘":619,"備":620,"傷":621,"傾":622,"働":623,"像":624,"優":625,"元":626,"充":627,"先":628,"光":629,"児":630,"入":631,"全":632,"六":633,"共":634,"具":635,"内":636,"円":637,"再":638,"写":639,"冠":640,"冨":641,"冬":642,"冶":643,"冷":644,"凍":645,"凝":646,"凡":647,"処":648,"凸":649,"凹":650,"出":651,"函":652,"刃":653,"分":654,"切":655,"刈":656,"列":657,"初":658,"判":659,"別":660,"利":661,"刳":662,"制":663,"刷":664,"券":665,"刺":666,"刻":667,"削":668,"前":669,"剛":670,"剤":671,"剥":672,"割":673,"創":674,"劈":675,"力":676,"加":677,"助":678,"励":679,"効":680,"勒":681,"動":682,"勘":683,"勢":684,"勾":685,"包":686,"化":687,"匪":688,"区":689,"升":690,"午":691,"半":692,"卑":693,"協":694,"南":695,"単":696,"卜":697,"卦":698,"印":699,"即":700,"却":701,"卵":702,"厚":703,"原":704,"去":705,"参":706,"又":707,"叉":708,"及":709,"双":710,"反":711,"収":712,"取":713,"受":714,"口":715,"叩":716,"可":717,"台":718,"右":719,"号":720,"各":721,"合":722,"吊":723,"吋":724,"同":725,"吐":726,"向":727,"君":728,"否":729,"含":730,"吸":731,"吹":732,"呈":733,"呉":734,"周":735,"味":736,"呼":737,"和":738,"品":739,"員":740,"哥":741,"唐":742,"唾":743,"啓":744,"喉":745,"喚":746,"嗣":747,"嗽":748,"噛":749,"器":750,"噴":751,"嚢":752,"四":753,"回":754,"囲":755,"図":756,"固":757,"土":758,"圧":759,"在":760,"地":761,"均":762,"坦":763,"垂":764,"型":765,"垸":766,"埋":767,"域":768,"培":769,"基":770,"堅":771,"堤":772,"堯":773,"堰":774,"報":775,"場":776,"塊":777,"塍":778,"塑":779,"塔":780,"塗":781,"塞":782,"塩":783,"填":784,"塵":785,"境":786,"増":787,"壁":788,"壊":789,"壜":790,"壞":791,"士":792,"声":793,"売":794,"変":795,"夏":796,"外":797,"多":798,"大":799,"天":800,"太":801,"夫":802,"央":803,"夷":804,"夾":805,"奇":806,"奈":807,"奏":808,"套":809,"奥":810,"奧":811,"如":812,"妻":813,"始":814,"委":815,"姜":816,"姿":817,"威":818,"婢":819,"媒":820,"子":821,"孔":822,"字":823,"存":824,"孤":825,"学":826,"孩":827,"宙":828,"定":829,"宛":830,"実":831,"室":832,"害":833,"容":834,"寄":835,"密":836,"富":837,"實":838,"寸":839,"対":840,"封":841,"射":842,"導":843,"小":844,"少":845,"尖":846,"尤":847,"尺":848,"尾":849,"尿":850,"局":851,"屈":852,"屋":853,"展":854,"属":855,"屠":856,"層":857,"履":858,"山":859,"岐":860,"峰":861,"島":862,"峻":863,"崩":864,"嵌":865,"嵩":866,"川":867,"巡":868,"工":869,"左":870,"差":871,"己":872,"已":873,"巻":874,"布":875,"希":876,"帛":877,"帯":878,"帰":879,"帳":880,"常":881,"帽":882,"幅":883,"幕":884,"幟":885,"幣":886,"干":887,"平":888,"年":889,"幼":890,"広":891,"庇":892,"床":893,"序":894,"底":895,"度":896,"座":897,"庫":898,"廃":899,"延":900,"廷":901,"建":902,"廻":903,"弁":904,"式":905,"引":906,"弛":907,"弦":908,"弧":909,"弯":910,"張":911,"強":912,"弾":913,"当":914,"形":915,"影":916,"役":917,"往":918,"径":919,"待":920,"律":921,"後":922,"徐":923,"従":924,"得":925,"御":926,"復":927,"微":928,"徳":929,"徴":930,"心":931,"忍":932,"応":933,"快":934,"性":935,"恒":936,"情":937,"惰":938,"感":939,"態":940,"憶":941,"懸":942,"成":943,"或":944,"截":945,"戴":946,"戸":947,"戻":948,"房":949,"所":950,"扉":951,"手":952,"打":953,"払":954,"承":955,"抄":956,"把":957,"抑":958,"投":959,"抗":960,"折":961,"抜":962,"択":963,"抱":964,"抵":965,"抹":966,"押":967,"抽":968,"担":969,"拍":970,"拡":971,"拭":972,"持":973,"指":974,"挟":975,"振":976,"挾":977,"挿":978,"捏":979,"捕":980,"捨":981,"捩":982,"据":983,"捲":984,"捻":985,"掃":986,"掌":987,"排":988,"掘":989,"掛":990,"採":991,"探":992,"接":993,"推":994,"掬":995,"掻":996,"揃":997,"揉":998,"描":999,"揚":1000,"換":1001,"握":1002,"揮":1003,"揺":1004,"損":1005,"搖":1006,"搬":1007,"搭":1008,"搾":1009,"摘":1010,"摩":1011,"摺":1012,"撒":1013,"撓":1014,"撚":1015,"撥":1016,"撮":1017,"撲":1018,"操":1019,"擢":1020,"擦":1021,"擺":1022,"支":1023,"收":1024,"改":1025,"放":1026,"故":1027,"敗":1028,"散":1029,"数":1030,"整":1031,"敷":1032,"文":1033,"斉":1034,"斗":1035,"料":1036,"斜":1037,"断":1038,"方":1039,"施":1040,"旋":1041,"族":1042,"旨":1043,"早":1044,"昇":1045,"明":1046,"易":1047,"星":1048,"映":1049,"春":1050,"昼":1051,"時":1052,"晋":1053,"晒":1054,"晶":1055,"暈":1056,"暑":1057,"暖":1058,"曇":1059,"曝":1060,"曲":1061,"書":1062,"曹":1063,"替":1064,"最":1065,"月":1066,"有":1067,"望":1068,"期":1069,"木":1070,"未":1071,"末":1072,"本":1073,"札":1074,"朮":1075,"朴":1076,"杆":1077,"杉":1078,"杏":1079,"材":1080,"杜":1081,"束":1082,"条":1083,"来":1084,"杭":1085,"松":1086,"板":1087,"析":1088,"枚":1089,"果":1090,"枝":1091,"枠":1092,"枡":1093,"枢":1094,"架":1095,"柄":1096,"柏":1097,"染":1098,"柔":1099,"柱":1100,"柴":1101,"査":1102,"柿":1103,"栄":1104,"栓":1105,"栗":1106,"株":1107,"核":1108,"根":1109,"格":1110,"桁":1111,"桂":1112,"桃":1113,"框":1114,"案":1115,"桑":1116,"桔":1117,"桜":1118,"桝":1119,"桟":1120,"桿":1121,"梁":1122,"梅":1123,"梗":1124,"條":1125,"梨":1126,"梳":1127,"棒":1128,"棗":1129,"棘":1130,"棚":1131,"棧":1132,"椀":1133,"植":1134,"椒":1135,"検":1136,"楊":1137,"楝":1138,"業":1139,"極":1140,"概":1141,"榔":1142,"構":1143,"槌":1144,"槲":1145,"槽":1146,"樋":1147,"標":1148,"樟":1149,"模":1150,"横":1151,"樹":1152,"橋":1153,"橘":1154,"橙":1155,"機":1156,"橡":1157,"檗":1158,"檳":1159,"櫛":1160,"櫟":1161,"櫻":1162,"欠":1163,"次":1164,"款":1165,"止":1166,"正":1167,"歩":1168,"歪":1169,"歯":1170,"歴":1171,"残":1172,"段":1173,"殺":1174,"殻":1175,"殿":1176,"母":1177,"毎":1178,"毒":1179,"比":1180,"毛":1181,"気":1182,"水":1183,"氷":1184,"汁":1185,"求":1186,"汚":1187,"池":1188,"汲":1189,"決":1190,"沈":1191,"沙":1192,"没":1193,"沢":1194,"沸":1195,"油":1196,"治":1197,"沿":1198,"泉":1199,"泌":1200,"法":1201,"泡":1202,"波":1203,"泥":1204,"注":1205,"泰":1206,"泳":1207,"洋":1208,"洗":1209,"活":1210,"流":1211,"浄":1212,"浅":1213,"浙":1214,"浮":1215,"浴":1216,"海":1217,"浸":1218,"消":1219,"涙":1220,"液":1221,"淋":1222,"淡":1223,"淫":1224,"深":1225,"混":1226,"添":1227,"清":1228,"渉":1229,"渋":1230,"減":1231,"渡":1232,"温":1233,"測":1234,"湯":1235,"湾":1236,"湿":1237,"満":1238,"源":1239,"準":1240,"溜":1241,"溝":1242,"溢":1243,"溶":1244,"滅":1245,"滋":1246,"滑":1247,"滓":1248,"滴":1249,"漉":1250,"漏":1251,"演":1252,"漕":1253,"漢":1254,"漬":1255,"漸":1256,"漿":1257,"潤":1258,"潰":1259,"濃":1260,"濡":1261,"濾":1262,"瀉":1263,"瀝":1264,"灌":1265,"火":1266,"灯":1267,"灰":1268,"炉":1269,"炎":1270,"炒":1271,"炙":1272,"炭":1273,"炮":1274,"点":1275,"焙":1276,"無":1277,"焦":1278,"焼":1279,"煎":1280,"煙":1281,"煤":1282,"照":1283,"煮":1284,"熊":1285,"熔":1286,"熟":1287,"熱":1288,"燃":1289,"燈":1290,"燐":1291,"爆":1292,"爪":1293,"片":1294,"牙":1295,"牛":1296,"牡":1297,"牧":1298,"物":1299,"牲":1300,"特":1301,"牽":1302,"犀":1303,"状":1304,"狗":1305,"狭":1306,"猪":1307,"獨":1308,"玄":1309,"率":1310,"王":1311,"玳":1312,"珠":1313,"珪":1314,"現":1315,"球":1316,"理":1317,"瑁":1318,"璟":1319,"環":1320,"瓜":1321,"瓶":1322,"甘":1323,"甜":1324,"生":1325,"用":1326,"由":1327,"甲":1328,"画":1329,"界":1330,"留":1331,"畜":1332,"略":1333,"番":1334,"異":1335,"畳":1336,"疎":1337,"疫":1338,"疱":1339,"疹":1340,"病":1341,"症":1342,"痒":1343,"痕":1344,"痙":1345,"痛":1346,"瘡":1347,"療":1348,"癌":1349,"癬":1350,"癰":1351,"発":1352,"白":1353,"的":1354,"皮":1355,"皺":1356,"皿":1357,"益":1358,"盛":1359,"盤":1360,"目":1361,"直":1362,"相":1363,"真":1364,"眩":1365,"眼":1366,"着":1367,"瞬":1368,"瞳":1369,"矢":1370,"知":1371,"短":1372,"矮":1373,"矯":1374,"石":1375,"砂":1376,"砒":1377,"研":1378,"砕":1379,"砥":1380,"砲":1381,"破":1382,"硅":1383,"硝":1384,"硫":1385,"硬":1386,"硼":1387,"碎":1388,"確":1389,"磁":1390,"磨":1391,"礁":1392,"礬":1393,"示":1394,"神":1395,"禍":1396,"科":1397,"秦":1398,"移":1399,"程":1400,"稍":1401,"稜":1402,"稠":1403,"種":1404,"穀":1405,"穂":1406,"積":1407,"穴":1408,"空":1409,"穿":1410,"突":1411,"窄":1412,"窒":1413,"窓":1414,"窩":1415,"窪":1416,"窮":1417,"立":1418,"竜":1419,"竪":1420,"端":1421,"竹":1422,"笠":1423,"符":1424,"第":1425,"笹":1426,"等":1427,"筋":1428,"筐":1429,"筒":1430,"策":1431,"筬":1432,"筺":1433,"箔":1434,"算":1435,"管":1436,"箭":1437,"箱":1438,"節":1439,"範":1440,"篩":1441,"籠":1442,"米":1443,"粉":1444,"粒":1445,"粕":1446,"粗":1447,"粘":1448,"粟":1449,"粧":1450,"精":1451,"糊":1452,"糖":1453,"糞":1454,"糸":1455,"系":1456,"紅":1457,"紋":1458,"納":1459,"紐":1460,"純":1461,"紗":1462,"紙":1463,"素":1464,"紡":1465,"索":1466,"紫":1467,"細":1468,"終":1469,"組":1470,"経":1471,"結":1472,"絖":1473,"絞":1474,"絡":1475,"給":1476,"絲":1477,"絶":1478,"絹":1479,"継":1480,"続":1481,"綜":1482,"維":1483,"綱":1484,"網":1485,"綿":1486,"緊":1487,"緑":1488,"線":1489,"締":1490,"編":1491,"緩":1492,"緯":1493,"練":1494,"縁":1495,"縛":1496,"縦":1497,"縫":1498,"縮":1499,"績":1500,"繊":1501,"繋":1502,"織":1503,"繰":1504,"缶":1505,"罫":1506,"置":1507,"羊":1508,"羌":1509,"美":1510,"義":1511,"羽":1512,"翁":1513,"翅":1514,"翹":1515,"翼":1516,"者":1517,"耆":1518,"耐":1519,"耗":1520,"耳":1521,"聖":1522,"聞":1523,"聴":1524,"職":1525,"肉":1526,"肌":1527,"肝":1528,"肩":1529,"肪":1530,"肺":1531,"胃":1532,"胆":1533,"背":1534,"胖":1535,"胚":1536,"胞":1537,"胡":1538,"胴":1539,"胸":1540,"能":1541,"脂":1542,"脆":1543,"脇":1544,"脈":1545,"脚":1546,"脛":1547,"脱":1548,"脳":1549,"脾":1550,"腎":1551,"腐":1552,"腔":1553,"腕":1554,"腥":1555,"腫":1556,"腰":1557,"腸":1558,"腹":1559,"腺":1560,"膏":1561,"膜":1562,"膝":1563,"膠":1564,"膣":1565,"膨":1566,"膵":1567,"膿":1568,"臥":1569,"臨":1570,"自":1571,"臭":1572,"至":1573,"致":1574,"臼":1575,"舌":1576,"舒":1577,"航":1578,"般":1579,"舵":1580,"船":1581,"良":1582,"色":1583,"艶":1584,"艾":1585,"芍":1586,"芒":1587,"芝":1588,"芥":1589,"芯":1590,"花":1591,"芳":1592,"芽":1593,"苓":1594,"苔":1595,"苗":1596,"若":1597,"苦":1598,"茎":1599,"茗":1600,"茘":1601,"茯":1602,"茱":1603,"茵":1604,"茶":1605,"茸":1606,"茹":1607,"草":1608,"荊":1609,"荒":1610,"荷":1611,"荼":1612,"莎":1613,"莖":1614,"菅":1615,"菊":1616,"菌":1617,"菜":1618,"菱":1619,"萍":1620,"萸":1621,"落":1622,"葉":1623,"葛":1624,"葱":1625,"葵":1626,"葺":1627,"蒂":1628,"蒸":1629,"蒼":1630,"蒿":1631,"蓄":1632,"蓉":1633,"蓋":1634,"蓮":1635,"蓼":1636,"蔓":1637,"蔵":1638,"蔽":1639,"薄":1640,"薇":1641,"薑":1642,"薤":1643,"薬":1644,"藁":1645,"藍":1646,"藕":1647,"藤":1648,"藻":1649,"蘇":1650,"虎":1651,"虫":1652,"蚊":1653,"蛇":1654,"蛋":1655,"蛍":1656,"蛞":1657,"蛻":1658,"蜀":1659,"蜜":1660,"蝉":1661,"蝋":1662,"蝓":1663,"蝕":1664,"蝶":1665,"融":1666,"螺":1667,"蟹":1668,"蟻":1669,"血":1670,"衆":1671,"行":1672,"衝":1673,"衡":1674,"表":1675,"衰":1676,"袋":1677,"被":1678,"裁":1679,"裂":1680,"装":1681,"裏":1682,"補":1683,"裝":1684,"裸":1685,"製":1686,"裾":1687,"複":1688,"褥":1689,"褪":1690,"西":1691,"要":1692,"覆":1693,"見":1694,"規":1695,"視":1696,"覚":1697,"親":1698,"角":1699,"解":1700,"触":1701,"言":1702,"計":1703,"記":1704,"設":1705,"許":1706,"訶":1707,"診":1708,"証":1709,"試":1710,"詩":1711,"詰":1712,"話":1713,"該":1714,"認":1715,"誘":1716,"語":1717,"読":1718,"調":1719,"談":1720,"請":1721,"講":1722,"謬":1723,"護":1724,"谷":1725,"豆":1726,"豚":1727,"象":1728,"貝":1729,"負":1730,"貧":1731,"貫":1732,"貯":1733,"貴":1734,"買":1735,"貼":1736,"賄":1737,"資":1738,"賦":1739,"質":1740,"赤":1741,"走":1742,"起":1743,"超":1744,"越":1745,"足":1746,"趾":1747,"距":1748,"跡":1749,"跨":1750,"路":1751,"跳":1752,"踏":1753,"踵":1754,"蹟":1755,"蹴":1756,"車":1757,"軌":1758,"軟":1759,"転":1760,"軸":1761,"軽":1762,"較":1763,"載":1764,"輝":1765,"輪":1766,"輸":1767,"辛":1768,"農":1769,"辺":1770,"込":1771,"迎":1772,"近":1773,"返":1774,"述":1775,"追":1776,"退":1777,"送":1778,"逃":1779,"逆":1780,"透":1781,"這":1782,"通":1783,"速":1784,"造":1785,"連":1786,"進":1787,"遅":1788,"遇":1789,"遊":1790,"運":1791,"過":1792,"道":1793,"達":1794,"違":1795,"遠":1796,"遣":1797,"遥":1798,"適":1799,"遮":1800,"選":1801,"避":1802,"還":1803,"郡":1804,"部":1805,"郭":1806,"配":1807,"酢":1808,"酸":1809,"重":1810,"野":1811,"量":1812,"金":1813,"針":1814,"釣":1815,"釦":1816,"鈍":1817,"鈎":1818,"鈑":1819,"鈴":1820,"鉄":1821,"鉗":1822,"鉛":1823,"鉤":1824,"鉱":1825,"銀":1826,"銅":1827,"銜":1828,"鋤":1829,"鋭":1830,"鋳":1831,"鋸":1832,"鋼":1833,"錆":1834,"錐":1835,"錘":1836,"錠":1837,"錦":1838,"錫":1839,"錬":1840,"錯":1841,"録":1842,"鍋":1843,"鍔":1844,"鍮":1845,"鍾":1846,"鎖":1847,"鎮":1848,"鏃":1849,"鏝":1850,"鏡":1851,"長":1852,"門":1853,"閉":1854,"開":1855,"間":1856,"関":1857,"閾":1858,"防":1859,"阿":1860,"附":1861,"降":1862,"限":1863,"除":1864,"陥":1865,"陰":1866,"陳":1867,"陸":1868,"険":1869,"陽":1870,"隅":1871,"隆":1872,"階":1873,"隔":1874,"隙":1875,"障":1876,"隣":1877,"雄":1878,"雅":1879,"集":1880,"雇":1881,"雌":1882,"雑":1883,"雛":1884,"雜":1885,"離":1886,"難":1887,"雪":1888,"雰":1889,"電":1890,"震":1891,"霊":1892,"霜":1893,"露":1894,"青":1895,"静":1896,"非":1897,"面":1898,"靭":1899,"鞍":1900,"鞘":1901,"韮":1902,"音":1903,"響":1904,"頂":1905,"項":1906,"順":1907,"領":1908,"頬":1909,"頭":1910,"頸":1911,"頻":1912,"顆":1913,"顎":1914,"顔":1915,"顕":1916,"願":1917,"類":1918,"風":1919,"飛":1920,"食":1921,"飢":1922,"飲":1923,"飴":1924,"飽":1925,"飾":1926,"養":1927,"餌":1928,"首":1929,"香":1930,"馬":1931,"駆":1932,"駒":1933,"験":1934,"骨":1935,"髄":1936,"高":1937,"髪":1938,"鬚":1939,"魏":1940,"魚":1941,"鮮":1942,"鳥":1943,"鳩":1944,"鳳":1945,"鳴":1946,"鴣":1947,"鵝":1948,"鶏":1949,"鷓":1950,"鹿":1951,"麦":1952,"麹":1953,"麺":1954,"麻":1955,"黄":1956,"黒":1957,"鼓":1958,"鼻":1959,"鼾":1960,"齧":1961,"龍":1962,"龙":1963,"":1964,"":1965,"":1966,"":1967,"":1968,"":1969,"":1970,"":1971,"":1972,"":1973,"":1974,"":1975,"":1976,"":1977,"":1978,"":1979,"":1980,"":1981,"":1982,"":1983,"":1984,"":1985,"":1986,"":1987,"":1988,"":1989,"":1990,"":1991,"":1992,"":1993,"":1994,"":1995,"":1996,"":1997,"":1998,"":1999,"":2000,"":2001,"":2002,"":2003,"":2004,"":2005,"":2006,"":2007,"":2008,"":2009,"":2010,"":2011,"":2012,"":2013,"":2014,"":2015,"":2016,"":2017,"":2018,"":2019,"":2020,"":2021,"":2022,"︸":2023,"（":2024,"）":2025,"＊":2026,"＋":2027,"，":2028,"－":2029,"．":2030,"／":2031,"０":2032,"１":2033,"２":2034,"３":2035,"４":2036,"５":2037,"６":2038,"７":2039,"８":2040,"９":2041,"：":2042,"＝":2043,"］":2044,"～":2045,"￡":2046,"##o":2047,"##l":2048,"##a":2049,"##n":2050,"##i":2051,"##c":2052,"##t":2053,"##s":2054,"##r":2055,"##d":2056,"##_":2057,"##h":2058,"##m":2059,"##e":2060,"##y":2061,"##p":2062,"##z":2063,"##u":2064,"##f":2065,"##x":2066,"##k":2067,"##g":2068,"##v":2069,"##w":2070,"##q":2071,"##b":2072,"##α":2073,"##j":2074,"##κ":2075,"##∀":2076,"##オ":2077,"##カ":2078,"##ラ":2079,"##ス":2080,"##ウ":2081,"##リ":2082,"##γ":2083,"##平":2084,"##行":2085,"##光":2086,"##ε":2087,"##-":2088,"##+":2089,"##ρ":2090,"##λ":2091,"##渋":2092,"##ャ":2093,"##ン":2094,"##テ":2095,"##ィ":2096,"##タ":2097,"##穿":2098,"##さ":2099,"##~":2100,"##チ":2101,"##ヤ":2102,"##ク":2103,"##ソ":2104,"##φ":2105,"##ß":2106,"##∈":2107,"##端":2108,"##近":2109,"##封":2110,"##止":2111,"##液":2112,"##)":2113,"##{":2114,"##分":2115,"##波":2116,"##周":2117,"##縁":2118,"##具":2119,"##え":2120,"##β":2121,"##イ":2122,"##ι":2123,"##η":2124,"##χ":2125,"##π":2126,"##.":2127,"##θ":2128,"##縮":2129,"##互":2130,"##夷":2131,"##清":2132,"##肺":2133,"##湯":2134,"##線":2135,"##癌":2136,"##溶":2137,"##剤":2138,"##目":2139,"##列":2140,"##ー":2141,"##δ":2142,"##記":2143,"##捕":2144,"##ト":2145,"##μ":2146,"##τ":2147,"##レ":2148,"##モ":2149,"##ニ":2150,"##ム":2151,"##[":2152,"##&":2153,"##上":2154,"##主":2155,"##索":2156,"##ο":2157,"##シ":2158,"##域":2159,"##ø":2160,"##ロ":2161,"##–":2162,"##ナ":2163,"##ノ":2164,"##キ":2165,"##媒":2166,"##質":2167,"##ヘ":2168,"##ネ":2169,"##ω":2170,"##画":2171,"##像":2172,"##表":2173,"##示":2174,"##方":2175,"##法":2176,"##重":2177,"##≧":2178,"##ワ":2179,"###":2180,"##/":2181,"##肉":2182,"##ア":2183,"##セ":2184,"##ル":2185,"##“":2186,"##=":2187,"##└":2188,"##メ":2189,"##ホ":2190,"##∫":2191,"##暖":2192,"##ヒ":2193,"##入":2194,"##部":2195,"##心":2196,"##軸":2197,"##送":2198,"##−":2199,"##±":2200,"##マ":2201,"##ツ":2202,"##染":2203,"##核":2204,"##層":2205,"##受":2206,"##予":2207,"##置":2208,"##決":2209,"##め":2210,"##突":2211,"##フ":2212,"##ォ":2213,"##気":2214,"##脱":2215,"##着":2216,"##繊":2217,"##υ":2218,"##刳":2219,"##り":2220,"##エ":2221,"##′":2222,"##℃":2223,"##～":2224,"##^":2225,"##;":2226,"##ᅮ":2227,"##ᆼ":2228,"##ᄋ":2229,"##ᅡ":2230,"##ᅴ":2231,"##口":2232,"##径":2233,"##付":2234,"##力":2235,"##,":2236,"##|":2237,"##前":2238,"##動":2239,"##作":2240,"##時":2241,"##間":2242,"##熱":2243,"##工":2244,"##*":2245,"##子":2246,"##?":2247,"##椒":2248,"##∪":2249,"##酸":2250,"##基":2251,"##]":2252,"##≦":2253,"##物":2254,"##白":2255,"##た":2256,"##:":2257,"##ƒ":2258,"##·":2259,"##∥":2260,"##用":2261,"##い":2262,"##る":2263,"##含":2264,"##コ":2265,"##ケ":2266,"##排":2267,"##水":2268,"##管":2269,"##葺":2270,"##き":2271,"##型":2272,"##材":2273,"##腸":2274,"##ミ":2275,"##ァ":2276,"##サ":2277,"##袋":2278,"##状":2279,"##段":2280,"##茹":2281,"##温":2282,"##胆":2283,"##器":2284,"##発":2285,"##素":2286,"##押":2287,"##∞":2288,"##風":2289,"##散":2290,"##電":2291,"##池":2292,"##ⅇ":2293,"##す":2294,"##拡":2295,"##張":2296,"##ハ":2297,"##一":2298,"##致":2299,"##—":2300,"##σ":2301,"##√":2302,"##処":2303,"##理":2304,"##弁":2305,"##%":2306,"##化":2307,"##残":2308,"##}":2309,"##∂":2310,"##湿":2311,"##設":2312,"##け":2313,"##ら":2314,"##れ":2315,"##て":2316,"##塩":2317,"##桃":2318,"##燃":2319,"##料":2320,"##合":2321,"##飲":2322,"##言":2323,"##紫":2324,"##ほ":2325,"##≅":2326,"##辺":2327,"##構":2328,"##成":2329,"##窪":2330,"##量":2331,"##離":2332,"##取":2333,"##持":2334,"##窒":2335,"##引":2336,"##裂":2337,"##性":2338,"##撓":2339,"##率":2340,"##支":2341,"##射":2342,"##し":2343,"##得":2344,"##増":2345,"##錐":2346,"##ッ":2347,"##削":2348,"##眩":2349,"##ち":2350,"##菌":2351,"##ˆ":2352,"##わ":2353,"##垂":2354,"##改":2355,"##点":2356,"##歯":2357,"##系":2358,"##数":2359,"##°":2360,"##у":2361,"##л":2362,"##ョ":2363,"##固":2364,"##体":2365,"##„":2366,"##茶":2367,"##ψ":2368,"##履":2369,"##ェ":2370,"##放":2371,"##面":2372,"##扉":2373,"##芳":2374,"##香":2375,"##比":2376,"##ξ":2377,"##曲":2378,"##熊":2379,"##通":2380,"##信":2381,"##貧":2382,"##延":2383,"##式":2384,"##炭":2385,"##原":2386,"##!":2387,"##ζ":2388,"##ュ":2389,"##載":2390,"##障":2391,"##有":2392,"##当":2393,"##接":2394,"##抵":2395,"##抗":2396,"##形":2397,"##装":2398,"##連":2399,"##ᅥ":2400,"##ᆺ":2401,"##ᅳ":2402,"##ᆯ":2403,"##内":2404,"##機":2405,"##関":2406,"##嵌":2407,"##該":2408,"##ᅪ":2409,"##ᆫ":2410,"##ᄎ":2411,"##ᅧ":2412,"##ᆨ":2413,"##ᄒ":2414,"##条":2415,"##活":2416,"##転":2417,"##写":2418,"##紙":2419,"##∃":2420,"##在":2421,"##片":2422,"##皮":2423,"##•":2424,"##陳":2425,"##鳥":2426,"##屠":2427,"##塑":2428,"##陽":2429,"##腺":2430,"##腫":2431,"##″":2432,"##葉":2433,"##樹":2434,"##晒":2435,"##ᄀ":2436,"##ᅵ":2437,"##調":2438,"##効":2439,"##実":2440,"##(":2441,"##挟":2442,"##£":2443,"##組":2444,"##同":2445,"##士":2446,"##に":2447,"##臨":2448,"##界":2449,"##弾":2450,"##芯":2451,"##金":2452,"##蓄":2453,"##乾":2454,"##鉄":2455,"##":2456,"##":2457,"##ヽ":2458,"##出":2459,"##ヨ":2460,"##→":2461,"##向":2462,"##開":2463,"##槽":2464,"##容":2465,"##\\":2466,"##閉":2467,"##な":2468,"##速":2469,"##度":2470,"##断":2471,"##刃":2472,"##壁":2473,"##全":2474,"##勢":2475,"##締":2476,"##薄":2477,"##維":2478,"##距":2479,"##$":2480,"##腕":2481,"##相":2482,"##膨":2483,"##挿":2484,"##ν":2485,"##操":2486,"##晶":2487,"##半":2488,"##導":2489,"##保":2490,"##板":2491,"##":2492,"##輝":2493,"##色":2494,"##ᅢ":2495,"##ᅦ":2496,"##音":2497,"##収":2498,"##製":2499,"##飾":2500,"##ς":2501,"##ᄃ":2502,"##ᅩ":2503,"##路":2504,"##­":2505,"##‘":2506,"##析":2507,"##振":2508,"##÷":2509,"##ひ":2510,"##≡":2511,"##切":2512,"##替":2513,"##手":2514,"##焼":2515,"##鋼":2516,"##@":2517,"##紗":2518,"##極":2519,"##毎":2520,"##蒂":2521,"##栓":2522,"##解":2523,"##除":2524,"##圧":2525,"##給":2526,"##塵":2527,"##ᄏ":2528,"##岐":2529,"##鎖":2530,"##酢":2531,"##続":2532,"##込":2533,"##ん":2534,"##所":2535,"##各":2536,"##透":2537,"##ᄐ":2538,"##束":2539,"##制":2540,"##御":2541,"##頭":2542,"##寸":2543,"##┘":2544,"##黒":2545,"##鉛":2546,"##孔":2547,"##中":2548,"##∝":2549,"##掌":2550,"##横":2551,"##減":2552,"##少":2553,"##症":2554,"##毛":2555,"##芥":2556,"##穂":2557,"##底":2558,"##走":2559,"##×":2560,"##三":2561,"##角":2562,"##架":2563,"##橋":2564,"##門":2565,"##ɛ":2566,"##漏":2567,"##˜":2568,"##広":2569,"##胴":2570,"##倚":2571,"##尖":2572,"##∠":2573,"##う":2574,"##竹":2575,"##瀝":2576,"##参":2577,"##つ":2578,"##む":2579,"##位":2580,"##尺":2581,"##瓜":2582,"##根":2583,"##鈍":2584,"##□":2585,"##球":2586,"##結":2587,"##承":2588,"##冶":2589,"##の":2590,"##敷":2591,"##島":2592,"##本":2593,"##翼":2594,"##蓋":2595,"##徴":2596,"##丸":2597,"##多":2598,"##筒":2599,"##紐":2600,"##磁":2601,"##空":2602,"##¤":2603,"##非":2604,"##泡":2605,"##≥":2606,"##弛":2607,"##鋳":2608,"##杆":2609,"##冷":2610,"##布":2611,"##可":2612,"##搬":2613,"##蒸":2614,"##硬":2615,"##膜":2616,"##座":2617,"##細":2618,"##麻":2619,"##殻":2620,"##ᆷ":2621,"##ᅣ":2622,"##凹":2623,"##歪":2624,"##檳":2625,"##榔":2626,"##へ":2627,"##両":2628,"##側":2629,"##視":2630,"##漕":2631,"##帛":2632,"##、":2633,"##乗":2634,"##員":2635,"##護":2636,"##⊕":2637,"##窓":2638,"##整":2639,"##桿":2640,"##流":2641,"##異":2642,"##あ":2643,"##┐":2644,"##蛋":2645,"##薬":2646,"##絡":2647,"##厚":2648,"##計":2649,"##═":2650,"##々":2651,"##欠":2652,"##か":2653,"##≈":2654,"##`":2655,"##又":2656,"##ᅱ":2657,"##ᄆ":2658,"##回":2659,"##創":2660,"##鋭":2661,"##共":2662,"##鳴":2663,"##堰":2664,"##反":2665,"##豆":2666,"##胚":2667,"##耐":2668,"##震":2669,"##造":2670,"##立":2671,"##€":2672,"##皿":2673,"##￡":2674,"##噴":2675,"##舵":2676,"##達":2677,"##脂":2678,"##肪":2679,"##穴":2680,"##判":2681,"##定":2682,"##仕":2683,"##く":2684,"##苓":2685,"##地":2686,"##黄":2687,"##↓":2688,"##を":2689,"##留":2690,"##橘":2691,"##ろ":2692,"##環":2693,"##冨":2694,"##逃":2695,"##∇":2696,"##積":2697,"##請":2698,"##求":2699,"##項":2700,"##台":2701,"##✓":2702,"##錆":2703,"##満":2704,"##鏡":2705,"##沢":2706,"##態":2707,"##複":2708,"##長":2709,"##®":2710,"##ᄉ":2711,"##せ":2712,"##添":2713,"##そ":2714,"##砕":2715,"##太":2716,"##越":2717,"##楝":2718,"##●":2719,"##箭":2720,"##木":2721,"##缶":2722,"##æ":2723,"##←":2724,"##»":2725,"##高":2726,"##と":2727,"##ヌ":2728,"##織":2729,"##輪":2730,"##滑":2731,"##ᄂ":2732,"##⊥":2733,"##換":2734,"##о":2735,"##凸":2736,"##限":2737,"##み":2738,"##程":2739,"##適":2740,"##硫":2741,"##”":2742,"##被":2743,"##丘":2744,"##紋":2745,"##撮":2746,"##":2747,"##差":2748,"##箔":2749,"##ᄅ":2750,"##ᄌ":2751,"##ᅬ":2752,"##族":2753,"##釣":2754,"##燐":2755,"##認":2756,"##証":2757,"##△":2758,"##骨":2759,"##膿":2760,"##穀":2761,"##小":2762,"##先":2763,"##防":2764,"##浅":2765,"##稜":2766,"##‡":2767,"##雪":2768,"##瀉":2769,"##針":2770,"##’":2771,"##融":2772,"##検":2773,"##印":2774,"##字":2775,"##加":2776,"##呉":2777,"##茱":2778,"##萸":2779,"##始":2780,"##ш":2781,"##遠":2782,"##桁":2783,"##害":2784,"##変":2785,"##ℜ":2786,"##粒":2787,"##車":2788,"##蛍":2789,"##釦":2790,"##血":2791,"##糸":2792,"##≤":2793,"##濾":2794,"##油":2795,"##生":2796,"##床":2797,"##雌":2798,"##鍔":2799,"##羊":2800,"##去":2801,"##超":2802,"##測":2803,"##擢":2804,"##種":2805,"##∩":2806,"##ϕ":2807,"##遣":2808,"##⊖":2809,"##辛":2810,"##塗":2811,"##配":2812,"##†":2813,"##剥":2814,"##蜜":2815,"##は":2816,"##œ":2817,"##顔":2818,"##絖":2819,"##ᆸ":2820,"##ᄇ":2821,"##逆":2822,"##室":2823,"##抑":2824,"##深":2825,"##斗":2826,"##粟":2827,"##米":2828,"##番":2829,"##壊":2830,"##粘":2831,"##滴":2832,"##脚":2833,"##禍":2834,"##映":2835,"##号":2836,"##漿":2837,"##棚":2838,"##錠":2839,"##混":2840,"##進":2841,"##均":2842,"##値":2843,"##試":2844,"##験":2845,"##施":2846,"##威":2847,"##霊":2848,"##仙":2849,"##":2850,"##退":2851,"##庇":2852,"##草":2853,"##覚":2854,"##嗽":2855,"##桟":2856,"##飴":2857,"##復":2858,"##折":2859,"##畳":2860,"##俣":2861,"##特":2862,"##摺":2863,"##備":2864,"##円":2865,"##膏":2866,"##捲":2867,"##お":2868,"##煎":2869,"##樋":2870,"##係":2871,"##供":2872,"##編":2873,"##蝕":2874,"##┌":2875,"##雜":2876,"##趾":2877,"##節":2878,"##§":2879,"##ʹ":2880,"##刷":2881,"##泥":2882,"##返":2883,"##短":2884,"##覆":2885,"##⊂":2886,"##伝":2887,"##ま":2888,"##充":2889,"##粉":2890,"##石":2891,"##経":2892,"##菅":2893,"##触":2894,"##抹":2895,"##集":2896,"##傘":2897,"##央":2898,"##銀":2899,"##藤":2900,"##藻":2901,"##許":2902,"##貝":2903,"##母":2904,"##掛":2905,"##還":2906,"##貼":2907,"##揺":2908,"##読":2909,"##よ":2910,"##焦":2911,"##汁":2912,"##隔":2913,"##報":2914,"##絞":2915,"##事":2916,"##外":2917,"##泌":2918,"##胞":2919,"##蓼":2920,"##起":2921,"##«":2922,"##裾":2923,"##附":2924,"##荷":2925,"##ゅ":2926,"##帰":2927,"##膠":2928,"##艾":2929,"##浴":2930,"##徳":2931,"##昇":2932,"##乳":2933,"##揉":2934,"##注":2935,"##矯":2936,"##臭":2937,"##":2938,"##夫":2939,"##堤":2940,"##■":2941,"##末":2942,"##痒":2943,"##ゝ":2944,"##曇":2945,"##縦":2946,"##盤":2947,"##©":2948,"##担":2949,"##応":2950,"##暈":2951,"##杭":2952,"##―":2953,"##竜":2954,"##肝":2955,"##倒":2956,"##з":2957,"##直":2958,"##大":2959,"##詰":2960,"##舌":2961,"##蔵":2962,"##庫":2963,"##駆":2964,"##般":2965,"##鬚":2966,"##規":2967,"##源":2968,"##不":2969,"##ℓ":2970,"##棗":2971,"##仁":2972,"##指":2973,"##令":2974,"##顆":2975,"##こ":2976,"##已":2977,"##没":2978,"##爆":2979,"##盛":2980,"##助":2981,"##藍":2982,"##捏":2983,"##潰":2984,"##帳":2985,"##汚":2986,"##午":2987,"##階":2988,"##第":2989,"##査":2990,"##梁":2991,"##冬":2992,"##洗":2993,"##下":2994,"##™":2995,"##類":2996,"##割":2997,"##順":2998,"##序":2999,"##♪":3000,"##精":3001,"##寄":3002,"##姜":3003,"##吹":3004,"##鈎":3005,"##硝":3006,"##∑":3007,"##無":3008,"##航":3009,"##炎":3010,"##投":3011,"##溝":3012,"##桝":3013,"##単":3014,"##耳":3015,"##伸":3016,"##紡":3017,"##竪":3018,"##過":3019,"##治":3020,"##療":3021,"##鴣":3022,"##菜":3023,"##能":3024,"##移":3025,"##糖":3026,"##吐":3027,"##葵":3028,"##賄":3029,"##牛":3030,"##蓮":3031,"##花":3032,"##っ":3033,"##錫":3034,"##⁻":3035,"##粧":3036,"##品":3037,"##脾":3038,"##偏":3039,"##漬":3040,"##粕":3041,"##述":3042,"##艶":3043,"##春":3044,"##声":3045,"##狗":3046,"##腎":3047,"##杏":3048,"##微":3049,"##属":3050,"##ᅭ":3051,"##蛻":3052,"##衰":3053,"##肩":3054,"##隆":3055,"##錘":3056,"##戻":3057,"##件":3058,"##ね":3059,"##塊":3060,"##頂":3061,"##º":3062,"##↑":3063,"##鈴":3064,"##仮":3065,"##隣":3066,"##擦":3067,"##芽":3068,"##ふ":3069,"##傷":3070,"##包":3071,"##朮":3072,"##":3073,"##":3074,"##​":3075,"##選":3076,"##話":3077,"##密":3078,"##ユ":3079,"##⇄":3080,"##ᄑ":3081,"##学":3082,"##知":3083,"##沈":3084,"##殿":3085,"##溜":3086,"##撥":3087,"##幟":3088,"##夏":3089,"##朴":3090,"##藁":3091,"##錬":3092,"##落":3093,"##ゥ":3094,"##縫":3095,"##蘇":3096,"##聴":3097,"##遅":3098,"##奇":3099,"##文":3100,"##書":3101,"##╣":3102,"##存":3103,"##最":3104,"##奥":3105,"##殺":3106,"##¶":3107,"##籠":3108,"##蹟":3109,"##＊":3110,"##期":3111,"##衝":3112,"##否":3113,"##照":3114,"##賦":3115,"##初":3116,"##帯":3117,"##尾":3118,"##幣":3119,"##蒿":3120,"##荼":3121,"##梅":3122,"##а":3123,"##е":3124,"##с":3125,"##鍾":3126,"##稠":3127,"##砒":3128,"##格":3129,"##餌":3130,"##吸":3131,"##補":3132,"##撚":3133,"##浸":3134,"##栄":3135,"##券":3136,"##露":3137,"##感":3138,"##脳":3139,"##瘡":3140,"##倍":3141,"##":3142,"##虫":3143,"##廃":3144,"##刺":3145,"##和":3146,"##陥":3147,"##奈":3148,"##飛":3149,"##哥":3150,"##王":3151,"##眼":3152,"##仲":3153,"##⋄":3154,"##練":3155,"##負":3156,"##人":3157,"##砂":3158,"##礁":3159,"##≲":3160,"##雰":3161,"##囲":3162,"##柱":3163,"##甲":3164,"##君":3165,"##珪":3166,"##も":3167,"##桂":3168,"##降":3169,"##浄":3170,"##筺":3171,"##左":3172,"##右":3173,"##－":3174,"##険":3175,"##績":3176,"##框":3177,"##首":3178,"##符":3179,"##語":3180,"##孤":3181,"##弦":3182,"##沿":3183,"##ᅨ":3184,"##ᆹ":3185,"##梨":3186,"##勒":3187,"##░":3188,"##狭":3189,"##幅":3190,"##¬":3191,"##匪":3192,"##赤":3193,"##境":3194,"##鍋":3195,"##鉤":3196,"##食":3197,"##╬":3198,"##影":3199,"##旋":3200,"##疹":3201,"##腹":3202,"##∘":3203,"##抜":3204,"##吊":3205,"##銅":3206,"##蟻":3207,"##鉱":3208,"##足":3209,"##交":3210,"##▒":3211,"##揚":3212,"##継":3213,"##疎":3214,"##伴":3215,"##ᅲ":3216,"##硼":3217,"##ゆ":3218,"##枚":3219,"##麹":3220,"##茎":3221,"##及":3222,"##後":3223,"##且":3224,"##正":3225,"##膣":3226,"##ᆻ":3227,"##揮":3228,"##憶":3229,"##択":3230,"##確":3231,"##♣":3232,"##窩":3233,"##炉":3234,"##演":3235,"##算":3236,"##枝":3237,"##牙":3238,"##消":3239,"##別":3240,"##損":3241,"##網":3242,"##納":3243,"##低":3244,"##強":3245,"##踏":3246,"##巻":3247,"##望":3248,"##г":3249,"##т":3250,"##介":3251,"##掃":3252,"##腔":3253,"##婢":3254,"##霜":3255,"##崩":3256,"##":3257,"##推":3258,"##現":3259,"##打":3260,"##火":3261,"##撒":3262,"##珠":3263,"##曹":3264,"##堯":3265,"##喉":3266,"##暑":3267,"##益":3268,"##年":3269,"##汲":3270,"##跡":3271,"##篩":3272,"##児":3273,"##升":3274,"##標":3275,"##臥":3276,"##尿":3277,"##滅":3278,"##却":3279,"##恒":3280,"##律":3281,"##＋":3282,"##蝉":3283,"##棒":3284,"##明":3285,"##二":3286,"##株":3287,"##磨":3288,"##菊":3289,"##領":3290,"##衆":3291,"##筋":3292,"##垸":3293,"##爪":3294,"##価":3295,"##飽":3296,"##щ":3297,"##и":3298,"##神":3299,"##船":3300,"##茯":3301,"##滓":3302,"##敗":3303,"##毒":3304,"##録":3305,"##捻":3306,"##膝":3307,"##漸":3308,"##氷":3309,"##象":3310,"##羽":3311,"##裝":3312,"##翹":3313,"##羌":3314,"##絹":3315,"##雇":3316,"##並":3317,"##局":3318,"##南":3319,"##星":3320,"##味":3321,"##甘":3322,"##埋":3323,"##函":3324,"##濃":3325,"##笹":3326,"##陰":3327,"##〜":3328,"##揃":3329,"##次":3330,"##沸":3331,"##痕":3332,"##繰":3333,"##純":3334,"##対":3335,"##罫":3336,"##己":3337,"##再":3338,"##箱":3339,"##義":3340,"##伏":3341,"##勾":3342,"##：":3343,"##希":3344,"##土":3345,"##元":3346,"##準":3347,"##個":3348,"##腥":3349,"##隙":3350,"##鞘":3351,"##培":3352,"##養":3353,"##叩":3354,"##隅":3355,"##ℒ":3356,"##四":3357,"##瓶":3358,"##魏":3359,"##道":3360,"##ᆩ":3361,"##略":3362,"##剛":3363,"##似":3364,"##破":3365,"##牲":3366,"##絲":3367,"##情":3368,"##較":3369,"##胸":3370,"##斜":3371,"##渉":3372,"##麦":3373,"##何":3374,"##脆":3375,"##碎":3376,"##鋸":3377,"##漉":3378,"##範":3379,"##濡":3380,"##癰":3381,"##誘":3382,"##弧":3383,"##把":3384,"##海":3385,"##絶":3386,"##修":3387,"##蝓":3388,"##瑁":3389,"##姿":3390,"##併":3391,"##泉":3392,"##美":3393,"##筐":3394,"##響":3395,"##茵":3396,"##脛":3397,"##利":3398,"##親":3399,"##ょ":3400,"##仰":3401,"##綱":3402,"##撲":3403,"##山":3404,"##谷":3405,"##荒":3406,"##病":3407,"##〈":3408,"##富":3409,"##壜":3410,"##ヮ":3411,"##│":3412,"##煙":3413,"##芝":3414,"##槌":3415,"##鼓":3416,"##♦":3417,"##р":3418,"##п":3419,"##由":3420,"##来":3421,"##診":3422,"##天":3423,"##伹":3424,"##д":3425,"##従":3426,"##的":3427,"##峰":3428,"##≃":3429,"##鎮":3430,"##摩":3431,"##耗":3432,"##干":3433,"##顕":3434,"##燈":3435,"##灯":3436,"##や":3437,"##粗":3438,"##茸":3439,"##搭":3440,"##耆":3441,"##乏":3442,"##胃":3443,"##遊":3444,"##畜":3445,"##植":3446,"##坦":3447,"##働":3448,"##役":3449,"##ϑ":3450,"##梳":3451,"##背":3452,"##н":3453,"##癬":3454,"##未":3455,"##翁":3456,"##ч":3457,"##蝋":3458,"##衡":3459,"##實":3460,"##莖":3461,"##牧":3462,"##幕":3463,"##棘":3464,"##描":3465,"##б":3466,"##я":3467,"##蓉":3468,"##雄":3469,"##丹":3470,"##鈑":3471,"##斉":3472,"##抱":3473,"##塔":3474,"##郡":3475,"##柔":3476,"##軟":3477,"##翅":3478,"##瞳":3479,"##芍":3480,"##螺":3481,"##˝":3482,"##廻":3483,"##痛":3484,"##潤":3485,"##荊":3486,"##裏":3487,"##戸":3488,"##桔":3489,"##梗":3490,"##浮":3491,"##糞":3492,"##胡":3493,"##払":3494,"##運":3495,"##業":3496,"##舒":3497,"##凡":3498,"##果":3499,"##杉":3500,"##薑":3501,"##者":3502,"##青":3503,"##停":3504,"##違":3505,"##場":3506,"##ᆽ":3507,"##傾":3508,"##on":3509,"##er":3510,"##in":3511,"##ti":3512,"##en":3513,"##or":3514,"##ing":3515,"##ed":3516,"##es":3517,"##at":3518,"##tion":3519,"##al":3520,"##ec":3521,"of":3522,"in":3523,"##st":3524,"##ro":3525,"##an":3526,"##ic":3527,"##it":3528,"##ur":3529,"##ar":3530,"##et":3531,"##nd":3532,"to":3533,"##ent":3534,"co":3535,"##ir":3536,"##le":3537,"and":3538,"##ac":3539,"##mp":3540,"##ation":3541,"con":3542,"##el":3543,"##is":3544,"##ect":3545,"##id":3546,"##ut":3547,"##em":3548,"th":3549,"##ig":3550,"##od":3551,"for":3552,"##ea":3553,"on":3554,"##ly":3555,"pro":3556,"comp":3557,"st":3558,"##ag":3559,"##ond":3560,"##as":3561,"sec":3562,"##ol":3563,"##ess":3564,"##ve":3565,"fir":3566,"##os":3567,"first":3568,"##uc":3569,"or":3570,"##ter":3571,"##ul":3572,"at":3573,"second":3574,"##pp":3575,"re":3576,"pr":3577,"##th":3578,"de":3579,"##ow":3580,"##ce":3581,"one":3582,"##ith":3583,"##us":3584,"##ate":3585,"##il":3586,"##ab":3587,"wh":3588,"##ay":3589,"##im":3590,"with":3591,"ac":3592,"cont":3593,"su":3594,"##ity":3595,"##ans":3596,"##am":3597,"pl":3598,"##tic":3599,"as":3600,"##age":3601,"tr":3602,"ex":3603,"##ot":3604,"met":3605,"##oc":3606,"##um":3607,"##rom":3608,"##un":3609,"lea":3610,"##ap":3611,"compr":3612,"##ver":3613,"##ure":3614,"##vic":3615,"from":3616,"##ion":3617,"##ment":3618,"##ding":3619,"##ition":3620,"least":3621,"##ide":3622,"res":3623,"##ace":3624,"ch":3625,"##ri":3626,"##qu":3627,"compris":3628,"by":3629,"op":3630,"##ated":3631,"di":3632,"meth":3633,"##for":3634,"por":3635,"comprises":3636,"##erm":3637,"devic":3638,"##ain":3639,"dis":3640,"##ber":3641,"##nal":3642,"ad":3643,"##tive":3644,"method":3645,"el":3646,"us":3647,"##lu":3648,"##igh":3649,"##ch":3650,"that":3651,"##ating":3652,"##ection":3653,"par":3654,"##fer":3655,"##able":3656,"rec":3657,"##form":3658,"device":3659,"##ep":3660,"##ally":3661,"##cess":3662,"portion":3663,"en":3664,"trans":3665,"##ich":3666,"ar":3667,"##rou":3668,"al":3669,"##pl":3670,"##eri":3671,"dat":3672,"sur":3673,"which":3674,"sub":3675,"##ting":3676,"##ens":3677,"elect":3678,"app":3679,"##om":3680,"sp":3681,"##face":3682,"##ther":3683,"sy":3684,"##ad":3685,"##ving":3686,"##ine":3687,"mem":3688,"##yl":3689,"data":3690,"##ural":3691,"inc":3692,"mo":3693,"##re":3694,"un":3695,"det":3696,"out":3697,"sig":3698,"##rol":3699,"##ication":3700,"##ore":3701,"sh":3702,"##uct":3703,"##osition":3704,"form":3705,"##etw":3706,"plural":3707,"##ermin":3708,"signal":3709,"control":3710,"com":3711,"plurality":3712,"##ist":3713,"inter":3714,"##ight":3715,"##ected":3716,"##stem":3717,"surface":3718,"##ang":3719,"##ayer":3720,"system":3721,"end":3722,"process":3723,"##str":3724,"po":3725,"##ric":3726,"se":3727,"##put":3728,"##iz":3729,"ab":3730,"##all":3731,"layer":3732,"##low":3733,"conn":3734,"cl":3735,"im":3736,"so":3737,"##ant":3738,"##de":3739,"position":3740,"##ven":3741,"str":3742,"##if":3743,"##ous":3744,"mat":3745,"##lement":3746,"inclu":3747,"##vel":3748,"##ance":3749,"prov":3750,"more":3751,"##ase":3752,"me":3753,"an":3754,"##ers":3755,"int":3756,"##act":3757,"unit":3758,"##ement":3759,"##formation":3760,"##ack":3761,"##and":3762,"mod":3763,"member":3764,"##ower":3765,"conf":3766,"##ence":3767,"ass":3768,"##ip":3769,"##ere":3770,"##ard":3771,"information":3772,"##igur":3773,"means":3774,"rece":3775,"##ach":3776,"val":3777,"##ell":3778,"##irc":3779,"##res":3780,"sel":3781,"configur":3782,"comm":3783,"##ener":3784,"resp":3785,"recei":3786,"##ted":3787,"acc":3788,"oper":3789,"##een":3790,"##etween":3791,"ob":3792,"step":3793,"supp":3794,"between":3795,"element":3796,"abo":3797,"##erial":3798,"circ":3799,"##ject":3800,"##ram":3801,"reg":3802,"grou":3803,"loc":3804,"##ular":3805,"ph":3806,"##ts":3807,"##op":3808,"##enti":3809,"material":3810,"##duc":3811,"ha":3812,"dir":3813,"gener":3814,"##og":3815,"##eat":3816,"##se":3817,"other":3818,"provid":3819,"fi":3820,"side":3821,"##ff":3822,"##vention":3823,"##ator":3824,"##ue":3825,"image":3826,"des":3827,"##arg":3828,"group":3829,"##ical":3830,"cor":3831,"em":3832,"##ead":3833,"pres":3834,"##ary":3835,"##uit":3836,"##ong":3837,"##ass":3838,"user":3839,"when":3840,"fil":3841,"fur":3842,"displ":3843,"ext":3844,"amp":3845,"tim":3846,"light":3847,"##ents":3848,"stor":3849,"configured":3850,"comput":3851,"##amp":3852,"##end":3853,"##ib":3854,"per":3855,"##ron":3856,"##ati":3857,"invention":3858,"rel":3859,"further":3860,"having":3861,"tw":3862,"car":3863,"##gh":3864,"pat":3865,"commun":3866,"##ub":3867,"##ork":3868,"circuit":3869,"there":3870,"display":3871,"te":3872,"poly":3873,"##atus":3874,"vol":3875,"##eas":3876,"ind":3877,"two":3878,"##ffer":3879,"##ann":3880,"##pos":3881,"power":3882,"id":3883,"set":3884,"electro":3885,"##edi":3886,"appar":3887,"##ra":3888,"appl":3889,"##der":3890,"am":3891,"transm":3892,"##ody":3893,"direction":3894,"sc":3895,"##ved":3896,"output":3897,"pre":3898,"bas":3899,"##tical":3900,"present":3901,"ins":3902,"part":3903,"sens":3904,"region":3905,"##_s":3906,"##rough":3907,"##ock":3908,"le":3909,"##ph":3910,"accor":3911,"apparatus":3912,"##yp":3913,"##ory":3914,"cur":3915,"##ort":3916,"imp":3917,"object":3918,"dist":3919,"electric":3920,"bl":3921,"##dition":3922,"##est":3923,"time":3924,"cell":3925,"ser":3926,"rot":3927,"##enc":3928,"input":3929,"ne":3930,"##ative":3931,"including":3932,"struct":3933,"flu":3934,"open":3935,"##und":3936,"communication":3937,"differ":3938,"col":3939,"body":3940,"##ations":3941,";#":3942,"into":3943,"##des":3944,"##uch":3945,"##ater":3946,"##ermined":3947,"compon":3948,"##ecting":3949,"##urce":3950,"about":3951,"##ective":3952,"computer":3953,"cap":3954,"##ix":3955,"arr":3956,"through":3957,"dri":3958,"##ust":3959,"##ft":3960,"##eth":3961,"##iss":3962,"##ient":3963,"##ile":3964,"##ech":3965,"##ates":3966,"##ange":3967,"cou":3968,"##ual":3969,"selected":3970,"##eam":3971,"substr":3972,"ax":3973,"##unc":3974,"pred":3975,"press":3976,"##eter":3977,"##ail":3978,"##ied":3979,"volt":3980,"##adi":3981,"cons":3982,"##uring":3983,"##tions":3984,"adj":3985,"##ry":3986,"##ite":3987,"man":3988,"value":3989,"coupl":3990,"controll":3991,"substrate":3992,"##cri":3993,"eng":3994,"##etwork":3995,"##ector":3996,"##ge":3997,"partic":3998,"##tain":3999,"network":4000,"voltage":4001,"##pond":4002,"emb":4003,"##int":4004,"based":4005,"identi":4006,"##eng":4007,"##ast":4008,"it":4009,"##respond":4010,"correspond":4011,"bo":4012,"steps":4013,"##ud":4014,"##uctor":4015,"##cl":4016,"no":4017,"formed":4018,"##ird":4019,"we":4020,"than":4021,"source":4022,"high":4023,"##agn":4024,"termin":4025,"def":4026,"##oci":4027,"##ule":4028,"##ures":4029,"li":4030,"##ari":4031,"third":4032,"fl":4033,"prot":4034,"connected":4035,"##ages":4036,"sol":4037,"asp":4038,"##yd":4039,"fluid":4040,"##emb":4041,"up":4042,"sl":4043,"flow":4044,"application":4045,"rep":4046,"line":4047,"aspect":4048,"sw":4049,"contact":4050,"fol":4051,"temp":4052,"##ward":4053,"medi":4054,"##rent":4055,"mul":4056,"requ":4057,"rem":4058,"structure":4059,"##ature":4060,"##ane":4061,"##unt":4062,"memory":4063,"radi":4064,"##one":4065,"identif":4066,"processing":4067,"##ress":4068,"vi":4069,"num":4070,"perform":4071,"not":4072,"##ign":4073,"##unction":4074,"prog":4075,"assemb":4076,"##ength":4077,"associ":4078,"wall":4079,"section":4080,"such":4081,"##hic":4082,"embod":4083,"##les":4084,"fre":4085,"##itch":4086,"terminal":4087,"multi":4088,"fo":4089,"current":4090,"##ency":4091,"##etermined":4092,"provided":4093,"##ference":4094,"##anti":4095,"##_c":4096,"##vely":4097,"according":4098,"##ene":4099,"##pper":4100,"##tern":4101,"operation":4102,"##annel":4103,"##ior":4104,"over":4105,"ca":4106,"wir":4107,"opening":4108,"within":4109,"area":4110,"##ear":4111,"electrode":4112,"mov":4113,"determin":4114,"air":4115,"predetermined":4116,"##iv":4117,"comb":4118,"base":4119,"embodim":4120,"storage":4121,"ag":4122,"sensor":4123,"##ending":4124,"##eld":4125,"number":4126,"pressure":4127,"##ame":4128,"##posed":4129,"contain":4130,"att":4131,"corresponding":4132,"##ample":4133,"vari":4134,"##tiv":4135,"ed":4136,"##king":4137,"##ner":4138,"sem":4139,"respon":4140,"channel":4141,"program":4142,"spec":4143,"receiving":4144,"##ode":4145,"##eed":4146,"processor":4147,"typ":4148,"hyd":4149,"##let":4150,"non":4151,"fram":4152,"component":4153,"pass":4154,"peri":4155,"subst":4156,"transmit":4157,"##ution":4158,"descri":4159,"##xim":4160,"arrang":4161,"##ized":4162,"##lowing":4163,"meas":4164,"gas":4165,"switch":4166,"acid":4167,"lin":4168,"##struc":4169,"outer":4170,"##ke":4171,"associated":4172,"##ox":4173,"assembly":4174,"different":4175,"##ss":4176,"lo":4177,"lower":4178,"using":4179,"##ount":4180,"temper":4181,"##acter":4182,"cent":4183,"hous":4184,"support":4185,"hol":4186,"use":4187,"above":4188,"##epar":4189,"optical":4190,"ret":4191,"includes":4192,"eff":4193,"##eg":4194,"##ably":4195,"level":4196,"##tit":4197,"semic":4198,"ho":4199,"##own":4200,"##ind":4201,"##onductor":4202,"module":4203,"##of":4204,"##per":4205,"##etic":4206,"access":4207,"##ission":4208,"##ying":4209,"metal":4210,"semiconductor":4211,"##ture":4212,"##ension":4213,"housing":4214,"##ible":4215,"char":4216,"wa":4217,"##ound":4218,"magn":4219,"temperature":4220,"conduc":4221,"##air":4222,"##ination":4223,"state":4224,"ma":4225,"##ial":4226,"frame":4227,"each":4228,"br":4229,"##echan":4230,"##anc":4231,"coupled":4232,"##out":4233,"connection":4234,"upper":4235,"character":4236,"##vent":4237,"electron":4238,"##ive":4239,"axis":4240,"##ies":4241,"cla":4242,"liqu":4243,"##ys":4244,"##ined":4245,"ve":4246,"function":4247,"##ord":4248,"feat":4249,"##iti":4250,"tub":4251,"inner":4252,"response":4253,"##ape":4254,"following":4255,"main":4256,"forming":4257,"red":4258,"mechan":4259,"gr":4260,"##action":4261,"specif":4262,"##ill":4263,"content":4264,"liquid":4265,"vehic":4266,"substanti":4267,"moun":4268,"addition":4269,"##ility":4270,"plate":4271,"film":4272,"claim":4273,"reference":4274,"##inal":4275,"alk":4276,"frequ":4277,"##tim":4278,"used":4279,"hydro":4280,"##itor":4281,"disposed":4282,"##erg":4283,"##old":4284,"produc":4285,"##isting":4286,"heat":4287,"top":4288,"ox":4289,"amount":4290,"pattern":4291,"he":4292,"##amber":4293,"##ick":4294,"ref":4295,"mon":4296,"exp":4297,"##_m":4298,"##ult":4299,"location":4300,"gu":4301,"##ism":4302,"sequ":4303,"##ption":4304,"##_t":4305,"opp":4306,"aut":4307,"path":4308,"chamber":4309,"substantially":4310,"##_p":4311,"instruc":4312,"condition":4313,"subs":4314,"##duct":4315,"##ulation":4316,"##uted":4317,"##ium":4318,"##lex":4319,"##_d":4320,"block":4321,"pack":4322,"##ameter":4323,"##bon":4324,"exec":4325,"##ves":4326,"##ration":4327,"vehicle":4328,"electronic":4329,"##istor":4330,"prefer":4331,"long":4332,"edge":4333,"##arge":4334,"##ely":4335,"ang":4336,"elements":4337,"del":4338,"oppos":4339,"##ew":4340,"electrical":4341,"indic":4342,"type":4343,"water":4344,"hand":4345,"valve":4346,"equ":4347,"##atic":4348,"determining":4349,"frequency":4350,"dec":4351,"##vant":4352,"respective":4353,"pair":4354,"interface":4355,"##ulating":4356,"supply":4357,"##ier":4358,"##val":4359,"polym":4360,"devices":4361,"##aging":4362,"##ral":4363,"dr":4364,"signals":4365,"##ross":4366,"adjust":4367,"clos":4368,"mic":4369,"back":4370,"cover":4371,"act":4372,"extending":4373,"adap":4374,"##ott":4375,"composition":4376,"##ness":4377,"particular":4378,"providing":4379,"transmission":4380,"cal":4381,"qu":4382,"bi":4383,"##up":4384,"attach":4385,"##arget":4386,"##_b":4387,"length":4388,"separ":4389,"##aces":4390,"##ble":4391,"same":4392,"bott":4393,"if":4394,"product":4395,"##cent":4396,"point":4397,"seal":4398,"pan":4399,"medium":4400,"gate":4401,"add":4402,"target":4403,"repres":4404,"conver":4405,"mess":4406,"filter":4407,"controller":4408,"example":4409,"head":4410,"weight":4411,"##gen":4412,"##ired":4413,"field":4414,"fix":4415,"compar":4416,"##ential":4417,"##rib":4418,"coll":4419,"reduc":4420,"sha":4421,"##ize":4422,"##ring":4423,"movement":4424,"thereof":4425,"carri":4426,"##so":4427,"exter":4428,"rotation":4429,"received":4430,"compound":4431,"servic":4432,"portions":4433,"##ether":4434,"panel":4435,"##clos":4436,"##ured":4437,"##ling":4438,"caus":4439,"##ade":4440,"range":4441,"arranged":4442,"order":4443,"mode":4444,"bottom":4445,"has":4446,"ver":4447,"port":4448,"server":4449,"##eet":4450,"##ization":4451,"und":4452,"##ey":4453,"mob":4454,"remo":4455,"conductive":4456,"energ":4457,"integ":4458,"embodiment":4459,"anal":4460,"relative":4461,"consisting":4462,"##read":4463,"##ump":4464,"mix":4465,"dep":4466,"##lo":4467,"##til":4468,"##ree":4469,"##acent":4470,"##ixel":4471,"##ront":4472,"##erein":4473,"##ings":4474,"##que":4475,"mechanism":4476,"drive":4477,"##ecti":4478,"cy":4479,"four":4480,"shaft":4481,"adjacent":4482,"read":4483,"along":4484,"activ":4485,"front":4486,"##ug":4487,"inser":4488,"scre":4489,"low":4490,"prin":4491,"request":4492,"##iver":4493,"multip":4494,"provide":4495,"transfer":4496,"advant":4497,"mobile":4498,"sm":4499,"period":4500,"enc":4501,"energy":4502,"##otor":4503,"pul":4504,"##are":4505,"##astic":4506,"##ilic":4507,"##aced":4508,"incr":4509,"##agement":4510,"obtain":4511,"cond":4512,"cat":4513,"micro":4514,"sheet":4515,"transistor":4516,"during":4517,"##eless":4518,"sequence":4519,"##gan":4520,"##ention":4521,"##raw":4522,"##itting":4523,"extend":4524,"features":4525,"sing":4526,"instructions":4527,"pixel":4528,"##ides":4529,"##red":4530,"description":4531,"cross":4532,"##olog":4533,"also":4534,"code":4535,"shape":4536,"##ues":4537,"wireless":4538,"capac":4539,"##ectively":4540,"##elect":4541,"gro":4542,"view":4543,"single":4544,"##ffic":4545,"generating":4546,"##round":4547,"##fter":4548,"##_l":4549,"##ty":4550,"##istic":4551,"calc":4552,"accord":4553,"mach":4554,"##fact":4555,"anti":4556,"bar":4557,"dig":4558,"longit":4559,"##tr":4560,"polymer":4561,"message":4562,"arm":4563,"actu":4564,"therm":4565,"accordance":4566,"longitud":4567,"operating":4568,"cyl":4569,"represent":4570,"color":4571,"feed":4572,"##jection":4573,"beam":4574,"##atter":4575,"##gment":4576,"distance":4577,"##io":4578,"its":4579,"force":4580,"##ish":4581,"##aph":4582,"mol":4583,"##ten":4584,"space":4585,"##way":4586,"detection":4587,"service":4588,"##ital":4589,"motor":4590,"engine":4591,"cells":4592,"&#":4593,"down":4594,"vide":4595,"configuration":4596,"inf":4597,"draw":4598,"##tal":4599,"node":4600,"adapted":4601,"phase":4602,"##eel":4603,"via":4604,"tur":4605,"##ise":4606,"##idth":4607,"video":4608,"magnetic":4609,"suppor":4610,"##na":4611,"oc":4612,"ring":4613,"##bed":4614,"corr":4615,"##xt":4616,"inst":4617,"##_f":4618,"##led":4619,"##uel":4620,"additional":4621,"##itive":4622,"respect":4623,"##vi":4624,"carbon":4625,"components":4626,"design":4627,"jo":4628,"##resh":4629,"##rop":4630,"link":4631,"angle":4632,"be":4633,"external":4634,"face":4635,"segment":4636,"is":4637,"specific":4638,"stored":4639,"characteristic":4640,"thick":4641,"address":4642,"##faces":4643,"##pher":4644,"load":4645,"work":4646,"pos":4647,"bel":4648,"##imension":4649,"rate":4650,"##ision":4651,"receive":4652,"##ucle":4653,"##ining":4654,"##ie":4655,"located":4656,"pati":4657,"phot":4658,"after":4659,"less":4660,"lens":4661,"compress":4662,"guide":4663,"transp":4664,"ro":4665,"proxim":4666,"##sor":4667,"under":4668,"embodiments":4669,"alkyl":4670,"##art":4671,"##ank":4672,"opposite":4673,"##ood":4674,"size":4675,"fuel":4676,"members":4677,"##iec":4678,"##electric":4679,"pol":4680,"log":4681,"##omp":4682,"prior":4683,"cut":4684,"multiple":4685,"parti":4686,"##alle":4687,"flex":4688,"manu":4689,"array":4690,"gre":4691,"##ability":4692,"station":4693,"##con":4694,"silic":4695,"tube":4696,"container":4697,"rele":4698,"result":4699,"digital":4700,"extr":4701,"connector":4702,"longitudinal":4703,"min":4704,"key":4705,"distal":4706,"##imit":4707,"disclos":4708,"##ler":4709,"refl":4710,"case":4711,"thereb":4712,"##allel":4713,"passage":4714,"media":4715,"##entioned":4716,"speed":4717,"rear":4718,"methods":4719,"connecting":4720,"active":4721,"agent":4722,"internal":4723,"##ror":4724,"rol":4725,"preferably":4726,"ther":4727,"mounted":4728,"##umin":4729,"bu":4730,"combination":4731,"organ":4732,"##aped":4733,"patient":4734,"##ino":4735,"cr":4736,"parallel":4737,"##echn":4738,"the":4739,"##ose":4740,"central":4741,"diameter":4742,"need":4743,"##ering":4744,"##atively":4745,"positioned":4746,"##medi":4747,"machine":4748,"tra":4749,"##izing":4750,"surfaces":4751,"thickness":4752,"##hes":4753,"cool":4754,"change":4755,"fourth":4756,"thresh":4757,"ampl":4758,"##pping":4759,"##usion":4760,"techn":4761,"prim":4762,"integr":4763,"##ets":4764,"hole":4765,"threshold":4766,"bit":4767,"##br":4768,"impro":4769,"stream":4770,"batter":4771,"fac":4772,"sim":4773,"vir":4774,"deliver":4775,"distrib":4776,"##urement":4777,"monitor":4778,"manufact":4779,"##ulated":4780,"peripher":4781,"detail":4782,"detecting":4783,"subject":4784,"fiber":4785,"##tituted":4786,"##ha":4787,"values":4788,"center":4789,"tool":4790,"##ome":4791,"off":4792,"tiss":4793,"##arch":4794,"##ically":4795,"kn":4796,"##ryst":4797,"cer":4798,"limit":4799,"##ware":4800,"##te":4801,"while":4802,"pur":4803,"three":4804,"measurement":4805,"##ease":4806,"electrically":4807,"resist":4808,"##ument":4809,"##ivot":4810,"volum":4811,"pivot":4812,"##sion":4813,"syn":4814,"##oxy":4815,"disp":4816,"width":4817,"il":4818,"initi":4819,"cam":4820,"item":4821,"vis":4822,"##vity":4823,"##ins":4824,"treat":4825,"##ute":4826,"non_":4827,"phys":4828,"##alk":4829,"only":4830,"gl":4831,"spring":4832,"aud":4833,"driving":4834,"small":4835,"es":4836,"chang":4837,"pump":4838,"web":4839,"##ylene":4840,"fixed":4841,"##ects":4842,"determined":4843,"carrier":4844,"plane":4845,"systems":4846,"mounting":4847,"include":4848,"elong":4849,"battery":4850,"sample":4851,"##eters":4852,"modif":4853,"##anner":4854,"ends":4855,"er":4856,"slot":4857,"fast":4858,"rati":4859,"desired":4860,"##aining":4861,"upon":4862,"objects":4863,"##idual":4864,"##inu":4865,"##ark":4866,"tissue":4867,"atom":4868,"deg":4869,"occ":4870,"##ces":4871,"recor":4872,"but":4873,"controlling":4874,"##_r":4875,"pers":4876,"both":4877,"proper":4878,"advantages":4879,"##omer":4880,"autom":4881,"coupling":4882,"cle":4883,"ann":4884,"##actor":4885,"treatment":4886,"##ogr":4887,"defined":4888,"##ice":4889,"##ased":4890,"groo":4891,"oxide":4892,"##cep":4893,"##ula":4894,"direct":4895,"##tide":4896,"sk":4897,"##_sh":4898,"outlet":4899,"perm":4900,"disc":4901,"recording":4902,"##ning":4903,"do":4904,"wherein":4905,"prof":4906,"##ously":4907,"band":4908,"##ded":4909,"pip":4910,"##ush":4911,"volume":4912,"indiv":4913,"align":4914,"##ching":4915,"hal":4916,"layers":4917,"computing":4918,"various":4919,"##arm":4920,"flexible":4921,"inlet":4922,"well":4923,"increas":4924,"##inding":4925,"pad":4926,"ratio":4927,"whether":4928,"##iding":4929,"soft":4930,"##ately":4931,"recep":4932,"##iece":4933,"##ety":4934,"allow":4935,"switching":4936,"vertical":4937,"screen":4938,"fr":4939,"generated":4940,"aper":4941,"reso":4942,"##ges":4943,"cre":4944,"nucle":4945,"##vir":4946,"later":4947,"##ensity":4948,"core":4949,"##ole":4950,"disch":4951,"insulating":4952,"##over":4953,"resin":4954,"##rip":4955,"##eak":4956,"##orm":4957,"wind":4958,"##ules":4959,"arrangement":4960,"conve":4961,"continu":4962,"lines":4963,"transmitting":4964,"card":4965,"concent":4966,"##inder":4967,"storing":4968,"##ia":4969,"##ask":4970,"##ines":4971,"manner":4972,"recess":4973,"plan":4974,"file":4975,"command":4976,"board":4977,"##ink":4978,"cryst":4979,"selection":4980,"bond":4981,"test":4982,"described":4983,"new":4984,"wheel":4985,"coating":4986,"interior":4987,"##earing":4988,"med":4989,"audio":4990,"wave":4991,"applied":4992,"greater":4993,"doc":4994,"primary":4995,"solution":4996,"toward":4997,"##ash":4998,"##vol":4999,"cavity":5000,"##ok":5001,"parts":5002,"appro":5003,"##aps":5004,"adhes":5005,"images":5006,"gear":5007,"virt":5008,"##itu":5009,"resul":5010,"spaced":5011,"##imp":5012,"generally":5013,"##ermine":5014,"##_g":5015,"##velop":5016,"##ered":5017,"poin":5018,"determine":5019,"##lying":5020,"av":5021,"common":5022,"##_con":5023,"prop":5024,"##active":5025,"##oth":5026,"individual":5027,"thread":5028,"bec":5029,"thereby":5030,"sle":5031,"##endent":5032,"event":5033,"auth":5034,"setting":5035,"##ulator":5036,"drawings":5037,"motion":5038,"orient":5039,"##ote":5040,"pot":5041,"##ties":5042,"provides":5043,"parameter":5044,"##_mentioned":5045,"##fore":5046,"circum":5047,"datab":5048,"wr":5049,"##asing":5050,"##ale":5051,"est":5052,"##roduc":5053,"pin":5054,"molec":5055,"art":5056,"coil":5057,"search":5058,"##ities":5059,"amino":5060,"track":5061,"ta":5062,"##fficient":5063,"##sc":5064,"amplif":5065,"##ched":5066,"prote":5067,"##osph":5068,"receiver":5069,"##yn":5070,"generate":5071,"above_mentioned":5072,"model":5073,"regions":5074,"person":5075,"implement":5076,"formula":5077,"##onment":5078,"##vironment":5079,"units":5080,"et":5081,"electrodes":5082,"##amic":5083,"anten":5084,"environment":5085,"altern":5086,"radio":5087,"hor":5088,"nit":5089,"chip":5090,"way":5091,"client":5092,"##tif":5093,"silicon":5094,"##wardly":5095,"intermedi":5096,"radiation":5097,"attached":5098,"containing":5099,"##ulf":5100,"solid":5101,"virtual":5102,"sides":5103,"lat":5104,"##oly":5105,"locking":5106,"##aser":5107,"call":5108,"##ameters":5109,"database":5110,"management":5111,"seat":5112,"dimension":5113,"groups":5114,"##tivity":5115,"##acting":5116,"rod":5117,"detected":5118,"bro":5119,"clock":5120,"##tically":5121,"maxim":5122,"communic":5123,"made":5124,"##side":5125,"cycl":5126,"##back":5127,"encod":5128,"##rical":5129,"moving":5130,"then":5131,"detailed":5132,"##eries":5133,"rout":5134,"touch":5135,"respectively":5136,"closed":5137,"difference":5138,"all":5139,"##iting":5140,"feature":5141,"resistance":5142,"laser":5143,"impl":5144,"have":5145,"##ression":5146,"dielectric":5147,"##enyl":5148,"integrated":5149,"plant":5150,"particles":5151,"conditions":5152,"wire":5153,"identification":5154,"##_shaped":5155,"detector":5156,"artic":5157,"##izon":5158,"cause":5159,"option":5160,"axial":5161,"cylind":5162,"##ex":5163,"##hib":5164,"hum":5165,"hard":5166,"horizon":5167,"drain":5168,"intermediate":5169,"stand":5170,"organic":5171,"remote":5172,"##cle":5173,"error":5174,"##aphic":5175,"sa":5176,"materials":5177,"##ipment":5178,"sal":5179,"acqu":5180,"compos":5181,"occur":5182,"prec":5183,"mixture":5184,"performing":5185,"##verse":5186,"sealing":5187,"disclosure":5188,"##lish":5189,"profile":5190,"actuator":5191,"cooling":5192,"##acement":5193,"record":5194,"##eve":5195,"ion":5196,"proximal":5197,"suc":5198,"regist":5199,"cop":5200,"oil":5201,"##conn":5202,"parameters":5203,"##urces":5204,"obtained":5205,"physical":5206,"generator":5207,"gi":5208,"table":5209,"without":5210,"secondary":5211,"computer_":5212,"##to":5213,"equipment":5214,"##ependent":5215,"protr":5216,"conductor":5217,"heating":5218,"enti":5219,"##oid":5220,"##alkyl":5221,"lock":5222,"manufacturing":5223,"seq":5224,"capacitor":5225,"develop":5226,"thermal":5227,"##blem":5228,"deri":5229,"peripheral":5230,"problem":5231,"prevent":5232,"sensing":5233,"list":5234,"fab":5235,"##ope":5236,"related":5237,"cath":5238,"substituted":5239,"##ax":5240,"supporting":5241,"##its":5242,"mark":5243,"aspects":5244,"prob":5245,"again":5246,"maximum":5247,"ground":5248,"defining":5249,"imaging":5250,"tor":5251,"identifier":5252,"ball":5253,"##verage":5254,"delivery":5255,"local":5256,"outside":5257,"ap":5258,"div":5259,"preferred":5260,"##tor":5261,"##zz":5262,"antenna":5263,"bearing":5264,"hydrogen":5265,"##car":5266,"zone":5267,"##stream":5268,"nan":5269,"minim":5270,"variable":5271,"projection":5272,"handle":5273,"leg":5274,"reaction":5275,"wavel":5276,"engagement":5277,"post":5278,"##eable":5279,"absor":5280,"heter":5281,"conc":5282,"performed":5283,"inside":5284,"stack":5285,"##aly":5286,"effect":5287,"##ob":5288,"charg":5289,"implant":5290,"packet":5291,"crystal":5292,"execut":5293,"positions":5294,"attachment":5295,"estim":5296,"given":5297,"groove":5298,"accomp":5299,"poss":5300,"exha":5301,"##ening":5302,"uni":5303,"free":5304,"series":5305,"##_in":5306,"communications":5307,"aperture":5308,"movable":5309,"charge":5310,"##_based":5311,"##ormal":5312,"##erv":5313,"annular":5314,"total":5315,"sleeve":5316,"wavelength":5317,"upd":5318,"util":5319,"automatic":5320,"higher":5321,"ul":5322,"performance":5323,"plat":5324,"prepar":5325,"positioning":5326,"exhaust":5327,"adhesive":5328,"distribution":5329,"functional":5330,"chem":5331,"ge":5332,"##bo":5333,"##acing":5334,"##hip":5335,"software":5336,"tre":5337,"##ially":5338,"tog":5339,"tubular":5340,"##dex":5341,"sign":5342,"##idge":5343,"sym":5344,"pulse":5345,"document":5346,"emitting":5347,"extends":5348,"characteristics":5349,"##ogen":5350,"blade":5351,"##ended":5352,"cable":5353,"driver":5354,"herein":5355,"thin":5356,"programm":5357,"##her":5358,"cylinder":5359,"fluor":5360,"bus":5361,"monitoring":5362,"install":5363,"maintain":5364,"discharge":5365,"suit":5366,"ep":5367,"measuring":5368,"##ryl":5369,"##struct":5370,"##omm":5371,"cylindrical":5372,"##ethyl":5373,"protein":5374,"nozz":5375,"analy":5376,"index":5377,"##sequ":5378,"clamp":5379,"cutting":5380,"right":5381,"equal":5382,"logic":5383,"independent":5384,"real":5385,"window":5386,"horizontal":5387,"lead":5388,"##ither":5389,"##amin":5390,"capable":5391,"lateral":5392,"##ances":5393,"certain":5394,"##yr":5395,"dom":5396,"##ences":5397,"effic":5398,"##ocy":5399,"refr":5400,"below":5401,"identifying":5402,"buffer":5403,"##av":5404,"together":5405,"holding":5406,"game":5407,"camer":5408,"delay":5409,"exch":5410,"bra":5411,"##umn":5412,"rea":5413,"operations":5414,"linear":5415,"adm":5416,"pipe":5417,"plastic":5418,"strip":5419,"against":5420,"glass":5421,"host":5422,"##ced":5423,"##ger":5424,"ink":5425,"activity":5426,"##emp":5427,"elongated":5428,"quanti":5429,"qual":5430,"pist":5431,"##ma":5432,"##ost":5433,"column":5434,"row":5435,"factor":5436,"executed":5437,"##ype":5438,"##ological":5439,"##use":5440,"around":5441,"effective":5442,"coun":5443,"potential":5444,"isol":5445,"points":5446,"turb":5447,"height":5448,"known":5449,"##cept":5450,"cataly":5451,"repl":5452,"##wall":5453,"##aged":5454,"piston":5455,"improved":5456,"##aw":5457,"##rix":5458,"flo":5459,"##entially":5460,"##tis":5461,"loop":5462,"eth":5463,"##odes":5464,"tip":5465,"tab":5466,"##ysis":5467,"printing":5468,"thus":5469,"word":5470,"transmitted":5471,"medical":5472,"resource":5473,"formation":5474,"approxim":5475,"interval":5476,"polar":5477,"##ches":5478,"relations":5479,"concentration":5480,"clean":5481,"avail":5482,"either":5483,"applying":5484,"##urity":5485,"elastic":5486,"shif":5487,"initial":5488,"large":5489,"matrix":5490,"interconn":5491,"rotor":5492,"##ocol":5493,"human":5494,"ach":5495,"flat":5496,"screw":5497,"##ific":5498,"##ield":5499,"tele":5500,"cost":5501,"##eck":5502,"reduced":5503,"walls":5504,"therein":5505,"sin":5506,"spect":5507,"fabric":5508,"term":5509,"piece":5510,"selecting":5511,"presence":5512,"determination":5513,"combus":5514,"mass":5515,"##ily":5516,"fin":5517,"requir":5518,"adjustment":5519,"led":5520,"previ":5521,"relationship":5522,"cust":5523,"##pped":5524,"ir":5525,"ful":5526,"##sequent":5527,"rest":5528,"##loy":5529,"ev":5530,"achie":5531,"simp":5532,"lif":5533,"dispens":5534,"measured":5535,"stage":5536,"##lyc":5537,"ill":5538,"results":5539,"controlled":5540,"advantage":5541,"bore":5542,"accompan":5543,"protocol":5544,"convention":5545,"mold":5546,"production":5547,"##chron":5548,"##apor":5549,"##tures":5550,"reques":5551,"##onic":5552,"producing":5553,"##_h":5554,"##entic":5555,"expos":5556,"basis":5557,"##co":5558,"chain":5559,"camera":5560,"class":5561,"##olym":5562,"sum":5563,"blood":5564,"vector":5565,"transport":5566,"##az":5567,"hydrox":5568,"rail":5569,"neg":5570,"suitable":5571,"generation":5572,"domain":5573,"comprise":5574,"techni":5575,"plug":5576,"membr":5577,"diff":5578,"separate":5579,"combustion":5580,"edges":5581,"sections":5582,"##ave":5583,"play":5584,"##essel":5585,"flange":5586,"##ology":5587,"selectively":5588,"##lor":5589,"quality":5590,"areas":5591,"antib":5592,"average":5593,"##etric":5594,"##agnetic":5595,"vessel":5596,"graph":5597,"phosph":5598,"accompanying":5599,"foc":5600,"nm":5601,"engaging":5602,"##inist":5603,"ent":5604,"##reg":5605,"surround":5606,"##_type":5607,"indication":5608,"partially":5609,"decr":5610,"extension":5611,"instruction":5612,"##eptide":5613,"analysis":5614,"run":5615,"sound":5616,"##eration":5617,"displaying":5618,"##ibration":5619,"conversion":5620,"orientation":5621,"converter":5622,"applications":5623,"short":5624,"sidewall":5625,"##set":5626,"introduc":5627,"holes":5628,"normal":5629,"optionally":5630,"authentic":5631,"purpos":5632,"fig":5633,"readable":5634,"channels":5635,"administ":5636,"oxy":5637,"##inyl":5638,"mechanical":5639,"turn":5640,"project":5641,"their":5642,"carb":5643,"action":5644,"forward":5645,"rf":5646,"conventional":5647,"##oss":5648,"hollow":5649,"door":5650,"transpar":5651,"mask":5652,"onto":5653,"nozzle":5654,"enab":5655,"conduit":5656,"##atable":5657,"const":5658,"site":5659,"rotating":5660,"status":5661,"pharm":5662,"injection":5663,"##ographic":5664,"##ablish":5665,"sho":5666,"release":5667,"composite":5668,"inhib":5669,"##ery":5670,"stop":5671,"gap":5672,"text":5673,"fing":5674,"##ants":5675,"suppl":5676,"atoms":5677,"##carbon":5678,"displayed":5679,"roller":5680,"sufficient":5681,"overl":5682,"##ersion":5683,"##uble":5684,"percent":5685,"relatively":5686,"circumfer":5687,"respons":5688,"##till":5689,"structures":5690,"broad":5691,"##aper":5692,"##bol":5693,"vac":5694,"general":5695,"##_to":5696,"before":5697,"exc":5698,"positive":5699,"##ilar":5700,"##itude":5701,"sulf":5702,"subsequent":5703,"canc":5704,"##atis":5705,"disk":5706,"assign":5707,"##urn":5708,"##ef":5709,"standard":5710,"emit":5711,"##hyd":5712,"store":5713,"changes":5714,"##ases":5715,"##rans":5716,"samp":5717,"page":5718,"##_section":5719,"synchron":5720,"chemical":5721,"orig":5722,"uns":5723,"conj":5724,"properties":5725,"indicating":5726,"insertion":5727,"enh":5728,"##rying":5729,"##ulate":5730,"establish":5731,"imm":5732,"like":5733,"identified":5734,"##ogn":5735,"circuitry":5736,"optim":5737,"mir":5738,"joint":5739,"dyn":5740,"transition":5741,"adjusting":5742,"##rier":5743,"membrane":5744,"##phone":5745,"characterized":5746,"available":5747,"rotational":5748,"transparent":5749,"##chem":5750,"continuous":5751,"patent":5752,"left":5753,"##abil":5754,"counter":5755,"required":5756,"##ared":5757,"constant":5758,"##ret":5759,"similar":5760,"strength":5761,"##anning":5762,"platform":5763,"even":5764,"symbol":5765,"enter":5766,"package":5767,"enclos":5768,"openings":5769,"nucleic":5770,"approximately":5771,"##row":5772,"complet":5773,"##line":5774,"bone":5775,"mm":5776,"terminals":5777,"##_dimension":5778,"##acted":5779,"recogn":5780,"negative":5781,"##aceu":5782,"instr":5783,"##riction":5784,"##chor":5785,"##readable":5786,"users":5787,"print":5788,"convey":5789,"select":5790,"radial":5791,"alumin":5792,"oxygen":5793,"feedback":5794,"correction":5795,"electrom":5796,"bound":5797,"pixels":5798,"holder":5799,"cross_section":5800,"anchor":5801,"torque":5802,"##acket":5803,"indicator":5804,"catalyst":5805,"depth":5806,"tun":5807,"density":5808,"possible":5809,"##vers":5810,"##_st":5811,"reson":5812,"produce":5813,"##ograph":5814,"execution":5815,";&":5816,"##ugh":5817,"##lation":5818,"rig":5819,"times":5820,"sever":5821,"increase":5822,"##ison":5823,"pharmaceu":5824,"##ken":5825,"cycle":5826,"tank":5827,"##oing":5828,"##enz":5829,"sus":5830,"##titu":5831,"##ike":5832,"sensors":5833,"alignment":5834,"##ton":5835,"turbine":5836,"##ually":5837,"attrib":5838,"larg":5839,"move":5840,"locations":5841,"polyp":5842,"emp":5843,"compounds":5844,"exterior":5845,"##por":5846,"relation":5847,"##ocket":5848,"amplifier":5849,"predic":5850,"##unctions":5851,"u_s":5852,"combin":5853,"segments":5854,"roll":5855,"##atur":5856,"##ession":5857,"radially":5858,"##pend":5859,"grow":5860,"##_dimensional":5861,"##ibr":5862,"types":5863,"methyl":5864,"reserv":5865,"ear":5866,"##_e":5867,"tag":5868,"hydra":5869,"transaction":5870,"trig":5871,"##ym":5872,"synth":5873,"photo":5874,"##ordin":5875,"##amm":5876,"construc":5877,"##ging":5878,"planar":5879,"format":5880,"particularly":5881,"items":5882,"##ified":5883,"##icular":5884,"expand":5885,"adver":5886,"proced":5887,"decod":5888,"portable":5889,"near":5890,"timing":5891,"hing":5892,"reading":5893,"visual":5894,"advertis":5895,"plas":5896,"lab":5897,"ur":5898,"entire":5899,"vo":5900,"article":5901,"dem":5902,"compens":5903,"##ride":5904,"##ath":5905,"forms":5906,"##ire":5907,"##anding":5908,"aff":5909,"travel":5910,"##ided":5911,"dc":5912,"transmitter":5913,"particle":5914,"security":5915,"rigid":5916,"compression":5917,"noise":5918,"pay":5919,"fail":5920,"making":5921,"place":5922,"contacts":5923,"bran":5924,"blocks":5925,"##pec":5926,"##pendicular":5927,"##raft":5928,"inserted":5929,"ey":5930,"transform":5931,"complex":5932,"products":5933,"dest":5934,"hydraul":5935,"entit":5936,"expression":5937,"player":5938,"hy":5939,"perpendicular":5940,"among":5941,"skin":5942,"ste":5943,"barrier":5944,"##inc":5945,"wafer":5946,"spac":5947,"shell":5948,"##_trans":5949,"##otide":5950,"comparison":5951,"##eriz":5952,"depos":5953,"analog":5954,"specified":5955,"magnet":5956,"functions":5957,"represents":5958,"rib":5959,"##uum":5960,"modified":5961,"accel":5962,"still":5963,"##gor":5964,"pic":5965,"produced":5966,"##ighting":5967,"independently":5968,"##_w":5969,"osc":5970,"vacuum":5971,"exposed":5972,"##ili":5973,"sets":5974,"cleaning":5975,"oscill":5976,"intensity":5977,"inver":5978,"receives":5979,"induc":5980,"minimum":5981,"belt":5982,"account":5983,"salt":5984,"glyc":5985,"mid":5986,"dop":5987,"aryl":5988,"increased":5989,"star":5990,"gene":5991,"analyz":5992,"secured":5993,"nodes":5994,"eas":5995,"claims":5996,"coordin":5997,"die":5998,"buil":5999,"##lock":6000,"session":6001,"removing":6002,"hydraulic":6003,"combinations":6004,"coe":6005,"thereon":6006,"pow":6007,"stim":6008,"capt":6009,"lum":6010,"casing":6011,"smaller":6012,"ris":6013,"notif":6014,"facil":6015,"metall":6016,"levels":6017,"##onal":6018,"##ceed":6019,"enhanc":6020,"probe":6021,"##tment":6022,"placed":6023,"compartment":6024,"##oir":6025,"##ements":6026,"##valu":6027,"accept":6028,"protrusion":6029,"most":6030,"##oalkyl":6031,"##ider":6032,"retain":6033,"##net":6034,"reservoir":6035,"##utes":6036,"##ited":6037,"##oxide":6038,"printed":6039,"instrument":6040,"needle":6041,"wiring":6042,"detect":6043,"##oun":6044,"##gr":6045,"##_up":6046,"shaped":6047,"diode":6048,"##taining":6049,"##oph":6050,"ultr":6051,"degree":6052,"##_ch":6053,"provision":6054,"sources":6055,"facing":6056,"protection":6057,"##_like":6058,"retri":6059,"##iency":6060,"##elding":6061,"##rees":6062,"supported":6063,"catheter":6064,"priority":6065,"query":6066,"incl":6067,"computer_readable":6068,"start":6069,"au":6070,"insert":6071,"causing":6072,"circumferential":6073,"calculating":6074,"sn":6075,"reduction":6076,"evalu":6077,"degrees":6078,"authentication":6079,"periphery":6080,"mirror":6081,"##rel":6082,"larger":6083,"since":6084,"##ading":6085,"drill":6086,"##board":6087,"susp":6088,"##ese":6089,"ultras":6090,"self":6091,"removal":6092,"operable":6093,"away":6094,"obtaining":6095,"offset":6096,"reducing":6097,"##infor":6098,"alloc":6099,"differential":6100,"ra":6101,"fixing":6102,"incor":6103,"operator":6104,"box":6105,"charging":6106,"paper":6107,"nitro":6108,"##lustr":6109,"cartr":6110,"included":6111,"map":6112,"opposing":6113,"illustr":6114,"threaded":6115,"saf":6116,"string":6117,"directly":6118,"entry":6119,"retaining":6120,"##ification":6121,"plasma":6122,"solvent":6123,"scanning":6124,"##queous":6125,"binding":6126,"disease":6127,"lip":6128,"gam":6129,"carried":6130,"##oxyl":6131,"separation":6132,"##empl":6133,"##ors":6134,"spl":6135,"automatically":6136,"problems":6137,"finger":6138,"working":6139,"become":6140,"remov":6141,"focus":6142,"return":6143,"frag":6144,"##less":6145,"##apeu":6146,"plates":6147,"across":6148,"copolym":6149,"disclosed":6150,"e_g":6151,"##itory":6152,"##ists":6153,"cd":6154,"##gu":6155,"several":6156,"destination":6157,"spr":6158,"quantity":6159,"write":6160,"elongate":6161,"fif":6162,"##icy":6163,"extended":6164,"electromagnetic":6165,"dur":6166,"consum":6167,"circular":6168,"##_side":6169,"mel":6170,"curved":6171,"processes":6172,"chlor":6173,"##_n":6174,"latch":6175,"antibody":6176,"foreg":6177,"##bing":6178,"##kes":6179,"bracket":6180,"deriv":6181,"facilit":6182,"personal":6183,"##ext":6184,"##ithm":6185,"lever":6186,"how":6187,"winding":6188,"foot":6189,"conjunction":6190,"responsive":6191,"##ryp":6192,"cach":6193,"tes":6194,"##ident":6195,"combined":6196,"##time":6197,"sched":6198,"sending":6199,"cand":6200,"supplied":6201,"acryl":6202,"hel":6203,"reinfor":6204,"voice":6205,"arc":6206,"retr":6207,"expans":6208,"sliding":6209,"friction":6210,"vapor":6211,"##inary":6212,"##ised":6213,"dynamic":6214,"displacement":6215,"bag":6216,"follow":6217,"construction":6218,"cancer":6219,"incorpor":6220,"##eto":6221,"comparing":6222,"refer":6223,"rotary":6224,"emission":6225,"##plo":6226,"capacity":6227,"##cast":6228,"protective":6229,"oxid":6230,"matter":6231,"##izer":6232,"##erc":6233,"modules":6234,"adv":6235,"transverse":6236,"fastener":6237,"fit":6238,"##ultane":6239,"clu":6240,"diss":6241,"powder":6242,"seed":6243,"##wise":6244,"fibers":6245,"simultane":6246,"patterns":6247,"##acle":6248,"##bal":6249,"pen":6250,"##ones":6251,"##angular":6252,"##ethylene":6253,"##ench":6254,"yet":6255,"entity":6256,"ke":6257,"structural":6258,"cartridge":6259,"##gical":6260,"processors":6261,"encoding":6262,"enable":6263,"aligned":6264,"many":6265,"bonding":6266,"apart":6267,"ess":6268,"downstream":6269,"therapeu":6270,"##ubs":6271,"##jected":6272,"treating":6273,"circuits":6274,"push":6275,"causes":6276,"define":6277,"interest":6278,"brake":6279,"##load":6280,"traffic":6281,"resistor":6282,"recip":6283,"##hol":6284,"##our":6285,"subscri":6286,"##eath":6287,"summ":6288,"aluminum":6289,"context":6290,"controls":6291,"efficiency":6292,"variety":6293,"##oper":6294,"pub":6295,"reception":6296,"##brid":6297,"##agnos":6298,"##ilient":6299,"##iliary":6300,"transduc":6301,"hold":6302,"##uck":6303,"expansion":6304,"candid":6305,"broadcast":6306,"super":6307,"contents":6308,"##ake":6309,"shift":6310,"aux":6311,"##ert":6312,"resilient":6313,"agents":6314,"infl":6315,"lamin":6316,"##dle":6317,"success":6318,"stress":6319,"check":6320,"conductivity":6321,"irr":6322,"exchang":6323,"##ropri":6324,"therebetween":6325,"aqueous":6326,"collection":6327,"resources":6328,"encryp":6329,"hybrid":6330,"representation":6331,"partial":6332,"##ful":6333,"allows":6334,"recept":6335,"driven":6336,"diagnos":6337,"##izes":6338,"##ortion":6339,"scan":6340,"tension":6341,"tap":6342,"##umination":6343,"##atile":6344,"##oint":6345,"fragment":6346,"lumen":6347,"label":6348,"foregoing":6349,"retrie":6350,"wear":6351,"fer":6352,"inters":6353,"hook":6354,"obj":6355,"contacting":6356,"hetero":6357,"illumination":6358,"directed":6359,"auxiliary":6360,"exposure":6361,"securing":6362,"food":6363,"determines":6364,"##ommod":6365,"covering":6366,"##_containing":6367,"drug":6368,"allowing":6369,"fifth":6370,"procedure":6371,"imped":6372,"exempl":6373,"##aste":6374,"thermo":6375,"repe":6376,"acous":6377,"separated":6378,"blad":6379,"##ques":6380,"acids":6381,"schem":6382,"uniform":6383,"tempor":6384,"calculated":6385,"##uth":6386,"customer":6387,"accommod":6388,"##arding":6389,"show":6390,"appropri":6391,"recover":6392,"axially":6393,"property":6394,"services":6395,"crit":6396,"spati":6397,"signific":6398,"##andom":6399,"anim":6400,"substance":6401,"increasing":6402,"send":6403,"##nel":6404,"rub":6405,"##_pro":6406,"##orph":6407,"abs":6408,"##erif":6409,"arms":6410,"defl":6411,"surrounding":6412,"##lic":6413,"cm":6414,"half":6415,"remaining":6416,"##pr":6417,"hinge":6418,"rect":6419,"gain":6420,"alloy":6421,"exceed":6422,"##orting":6423,"tit":6424,"executable":6425,"##organ":6426,"specification":6427,"##ibility":6428,"bor":6429,"accur":6430,"molecular":6431,"growth":6432,"task":6433,"sil":6434,"removed":6435,"##ee":6436,"foam":6437,"puls":6438,"mixing":6439,"mut":6440,"##ubstituted":6441,"solar":6442,"immun":6443,"##acy":6444,"##ays":6445,"purpose":6446,"mes":6447,"secure":6448,"hydrocarbon":6449,"##atory":6450,"##ata":6451,"abut":6452,"##_em":6453,"interference":6454,"loss":6455,"vel":6456,"##aster":6457,"communicating":6458,"floor":6459,"ele":6460,"resol":6461,"insulation":6462,"apparent":6463,"author":6464,"due":6465,"moved":6466,"frames":6467,"activation":6468,"corresponds":6469,"defines":6470,"compositions":6471,"subset":6472,"spacer":6473,"peak":6474,"stabil":6475,"carrying":6476,"lumin":6477,"sto":6478,"##enef":6479,"directions":6480,"bias":6481,"##li":6482,"nat":6483,"##romatic":6484,"identify":6485,"slide":6486,"unique":6487,"exemplary":6488,"benef":6489,"full":6490,"dispensing":6491,"situ":6492,"ol":6493,"vibration":6494,"panels":6495,"##esc":6496,"scope":6497,"satis":6498,"lamp":6499,"bur":6500,"next":6501,"reach":6502,"##ieces":6503,"identity":6504,"dam":6505,"therefore":6506,"intended":6507,"changing":6508,"##flow":6509,"bal":6510,"clamping":6511,"##asc":6512,"correl":6513,"techniques":6514,"picture":6515,"engage":6516,"shield":6517,"internet":6518,"agg":6519,"representing":6520,"clip":6521,"six":6522,"angular":6523,"fan":6524,"verif":6525,"wash":6526,"##jor":6527,"surgical":6528,"bet":6529,"original":6530,"##umption":6531,"metallic":6532,"fem":6533,"molecule":6534,"modification":6535,"major":6536,"resulting":6537,"rotatable":6538,"wt":6539,"##ecess":6540,"mus":6541,"button":6542,"##luor":6543,"complement":6544,"passing":6545,"outputs":6546,"resid":6547,"generates":6548,"actual":6549,"notification":6550,"vent":6551,"##ser":6552,"acoustic":6553,"technology":6554,"impedance":6555,"ceramic":6556,"achieved":6557,"##itation":6558,"significant":6559,"designed":6560,"##off":6561,"random":6562,"compressed":6563,"eye":6564,"##ever":6565,"princ":6566,"existing":6567,"lid":6568,"lighting":6569,"adjustable":6570,"electroly":6571,"closing":6572,"pc":6573,"supplying":6574,"cache":6575,"construct":6576,"accum":6577,"##__":6578,"##escent":6579,"representative":6580,"stem":6581,"matching":6582,"ton":6583,"##amine":6584,"simple":6585,"nr":6586,"hot":6587,"##gorithm":6588,"acceptable":6589,"##rete":6590,"engaged":6591,"rubber":6592,"algorithm":6593,"##ites":6594,"opposed":6595,"receptacle":6596,"messages":6597,"taken":6598,"ip":6599,"deplo":6600,"reduce":6601,"connect":6602,"hub":6603,"close":6604,"clut":6605,"vary":6606,"bol":6607,"##cohol":6608,"appropriate":6609,"good":6610,"slots":6611,"protru":6612,"polypeptide":6613,"##anium":6614,"towards":6615,"##be":6616,"operational":6617,"natural":6618,"##ters":6619,"tri":6620,"##tides":6621,"underst":6622,"very":6623,"grad":6624,"prom":6625,"##ened":6626,"mean":6627,"elev":6628,"fastening":6629,"hyp":6630,"where":6631,"nitride":6632,"exchange":6633,"geom":6634,"phenyl":6635,"alkoxy":6636,"reinforc":6637,"##bor":6638,"##odies":6639,"until":6640,"predef":6641,"##_emitting":6642,"closure":6643,"bul":6644,"##ocity":6645,"stra":6646,"##enu":6647,"version":6648,"##omes":6649,"transistors":6650,"nut":6651,"novel":6652,"hardware":6653,"packets":6654,"candidate":6655,"##ager":6656,"##etry":6657,"##ament":6658,"consumption":6659,"##word":6660,"##cribed":6661,"executing":6662,"creating":6663,"reli":6664,"##ault":6665,"##rum":6666,"grooves":6667,"duct":6668,"predefined":6669,"diag":6670,"copper":6671,"##esis":6672,"velocity":6673,"##angu":6674,"previously":6675,"##ps":6676,"##link":6677,"partition":6678,"dna":6679,"provider":6680,"suction":6681,"##piece":6682,"graphical":6683,"benz":6684,"refrig":6685,"converting":6686,"##imeter":6687,"faces":6688,"x_r":6689,"nitrogen":6690,"bits":6691,"duration":6692,"encoded":6693,"deposition":6694,"anode":6695,"hear":6696,"safety":6697,"skill":6698,"discharg":6699,"tracking":6700,"straight":6701,"thereth":6702,"satisf":6703,"amplitude":6704,"##uments":6705,"wide":6706,"therethrough":6707,"alcohol":6708,"trigger":6709,"route":6710,"##inity":6711,"halogen":6712,"##elf":6713,"ports":6714,"##igation":6715,"##atch":6716,"pairs":6717,"acet":6718,"##ause":6719,"represented":6720,"transce":6721,"logical":6722,"##layer":6723,"derived":6724,"heal":6725,"instance":6726,"toner":6727,"til":6728,"##amide":6729,"teeth":6730,"proximity":6731,"##ishing":6732,"cate":6733,"upstream":6734,"compressor":6735,"##ensitive":6736,"langu":6737,"reproduc":6738,"impact":6739,"animal":6740,"coefficient":6741,"etching":6742,"##ons":6743,"pieces":6744,"##aryl":6745,"lith":6746,"telephone":6747,"double":6748,"##actions":6749,"sense":6750,"rad":6751,"clutch":6752,"##anol":6753,"mac":6754,"tel":6755,"failure":6756,"##rup":6757,"fib":6758,"three_dimensional":6759,"interaction":6760,"indicative":6761,"passageway":6762,"preventing":6763,"hydroxy":6764,"installed":6765,"capture":6766,"transducer":6767,"heart":6768,"register":6769,"embed":6770,"modulation":6771,"inject":6772,"strap":6773,"clear":6774,"biom":6775,"rectangular":6776,"##rot":6777,"cab":6778,"tooth":6779,"condens":6780,"indicates":6781,"##etr":6782,"loading":6783,"steering":6784,"##tice":6785,"amb":6786,"distributed":6787,"installation":6788,"##onduc":6789,"irradi":6790,"decreas":6791,"stator":6792,"transceiver":6793,"cathode":6794,"##zo":6795,"pyr":6796,"spatial":6797,"##encies":6798,"sequences":6799,"biological":6800,"terms":6801,"damp":6802,"light_emitting":6803,"##ival":6804,"##plastic":6805,"##late":6806,"boundary":6807,"##acryl":6808,"grid":6809,"##_time":6810,"orth":6811,"simultaneously":6812,"tray":6813,"operatively":6814,"mount":6815,"##iness":6816,"fat":6817,"dim":6818,"##ta":6819,"outwardly":6820,"intake":6821,"execute":6822,"fitting":6823,"risk":6824,"##amples":6825,"elast":6826,"sti":6827,"projecting":6828,"subscriber":6829,"nh":6830,"contained":6831,"polymeric":6832,"non_trans":6833,"implemented":6834,"spray":6835,"stores":6836,"pads":6837,"##mon":6838,"measure":6839,"those":6840,"atm":6841,"necess":6842,"examples":6843,"##aturated":6844,"tape":6845,"##ough":6846,"enclosure":6847,"solder":6848,"deploy":6849,"pick":6850,"##anges":6851,"however":6852,"activated":6853,"shut":6854,"smo":6855,"incident":6856,"##osc":6857,"middle":6858,"attribute":6859,"operative":6860,"variation":6861,"mg":6862,"update":6863,"leading":6864,"##icial":6865,"radius":6866,"enabling":6867,"remain":6868,"##odium":6869,"jaw":6870,"concave":6871,"shoul":6872,"recognition":6873,"make":6874,"language":6875,"receptor":6876,"prost":6877,"##ero":6878,"trench":6879,"sent":6880,"polymeriz":6881,"##iers":6882,"any":6883,"ones":6884,"programming":6885,"copolymer":6886,"reflective":6887,"airc":6888,"applic":6889,"therapeutic":6890,"prac":6891,"because":6892,"steel":6893,"arch":6894,"manip":6895,"##roc":6896,"payment":6897,"heterocy":6898,"##eaker":6899,"rend":6900,"pie":6901,"aggreg":6902,"glo":6903,"aircraft":6904,"consid":6905,"effects":6906,"clust":6907,"filed":6908,"male":6909,"##pro":6910,"processed":6911,"nav":6912,"corn":6913,"mapping":6914,"slid":6915,"##width":6916,"##ester":6917,"molding":6918,"cross_sectional":6919,"substitu":6920,"mar":6921,"socket":6922,"phone":6923,"iss":6924,"permit":6925,"##eria":6926,"technique":6927,"name":6928,"feeding":6929,"pressur":6930,"master":6931,"##forming":6932,"forces":6933,"detach":6934,"these":6935,"usage":6936,"moves":6937,"dry":6938,"phosphor":6939,"##_a":6940,"perimeter":6941,"porous":6942,"assigned":6943,"neigh":6944,"sheets":6945,"cellular":6946,"held":6947,"ethyl":6948,"capacit":6949,"building":6950,"##uture":6951,"development":6952,"unsubstituted":6953,"starting":6954,"##anes":6955,"outputting":6956,"##ients":6957,"pitch":6958,"ig":6959,"relates":6960,"limited":6961,"##adata":6962,"pharmaceutical":6963,"wavegu":6964,"##axial":6965,"resolution":6966,"create":6967,"circumference":6968,"metadata":6969,"apertures":6970,"##erior":6971,"conducting":6972,"##apy":6973,"improv":6974,"previous":6975,"thereto":6976,"##oming":6977,"monomer":6978,"summary":6979,"isolation":6980,"valid":6981,"guiding":6982,"##by":6983,"files":6984,"filtering":6985,"x_ray":6986,"job":6987,"sheath":6988,"assist":6989,"##_res":6990,"objective":6991,"mating":6992,"restric":6993,"switches":6994,"i_e":6995,"claimed":6996,"diffusion":6997,"measurements":6998,"employ":6999,"##omb":7000,"shown":7001,"beha":7002,"expl":7003,"final":7004,"##volatile":7005,"custom":7006,"pole":7007,"paths":7008,"incorporated":7009,"##hydro":7010,"spectrum":7011,"adjusted":7012,"##ulus":7013,"coup":7014,"suspension":7015,"gen":7016,"hydroph":7017,"maintaining":7018,"##alline":7019,"ii":7020,"ether":7021,"bandwidth":7022,"actuation":7023,"conveyor":7024,"pe":7025,"count":7026,"easily":7027,"non_transitory":7028,"##lemented":7029,"phen":7030,"calculation":7031,"essentially":7032,"piezo":7033,"##osity":7034,"##_th":7035,"compensation":7036,"##anent":7037,"score":7038,"##ography":7039,"##isition":7040,"chrom":7041,"hist":7042,"##ressed":7043,"acquir":7044,"mill":7045,"refractive":7046,"##zym":7047,"bed":7048,"nar":7049,"isolated":7050,"shar":7051,"##ystem":7052,"la":7053,"constr":7054,"behav":7055,"filling":7056,"##ucleotide":7057,"viewing":7058,"efficient":7059,"routing":7060,"separating":7061,"preparation":7062,"ow":7063,"oriented":7064,"vertically":7065,"ambient":7066,"alternative":7067,"elastomer":7068,"##inally":7069,"particip":7070,"events":7071,"##_cont":7072,"refriger":7073,"insp":7074,"##rif":7075,"testing":7076,"approach":7077,"proximate":7078,"overall":7079,"uses":7080,"capacitance":7081,"basic":7082,"forth":7083,"shared":7084,"cred":7085,"association":7086,"exchanger":7087,"health":7088,"gri":7089,"##amination":7090,"exit":7091,"##sp":7092,"schedul":7093,"performs":7094,"inhibitor":7095,"invol":7096,"thermoplastic":7097,"##implemented":7098,"waveform":7099,"contains":7100,"##och":7101,"##ket":7102,"##rate":7103,"trail":7104,"permanent":7105,"##ounts":7106,"acquisition":7107,"stud":7108,"inv":7109,"molecules":7110,"##atures":7111,"manufacture":7112,"magnitude":7113,"criteria":7114,"gra":7115,"##_re":7116,"reverse":7117,"junction":7118,"graphic":7119,"running":7120,"##vision":7121,"removable":7122,"##uting":7123,"encaps":7124,"##eech":7125,"flowing":7126,"lt":7127,"drum":7128,"stationary":7129,"##opic":7130,"releas":7131,"hom":7132,"blocking":7133,"##tle":7134,"peptide":7135,"shoulder":7136,"them":7137,"plun":7138,"found":7139,"pharmaceutically":7140,"hea":7141,"wires":7142,"##tics":7143,"mesh":7144,"##iph":7145,"biasing":7146,"##artic":7147,"steam":7148,"numer":7149,"iden":7150,"reflection":7151,"##ursor":7152,"requests":7153,"visc":7154,"cooper":7155,"occurr":7156,"appear":7157,"reflected":7158,"purch":7159,"actuating":7160,"multiplex":7161,"enzym":7162,"attaching":7163,"lay":7164,"recorded":7165,"sodium":7166,"emitted":7167,"collar":7168,"operate":7169,"samples":7170,"diagram":7171,"synchronization":7172,"acceleration":7173,"fold":7174,"lub":7175,"coated":7176,"room":7177,"flash":7178,"precursor":7179,"captured":7180,"##ild":7181,"rules":7182,"soci":7183,"squ":7184,"some":7185,"beams":7186,"embedded":7187,"leak":7188,"##ulates":7189,"narrow":7190,"##letion":7191,"cup":7192,"adapter":7193,"neighbor":7194,"blades":7195,"##als":7196,"relay":7197,"olig":7198,"illumin":7199,"mer":7200,"##lies":7201,"ability":7202,"operated":7203,"estimated":7204,"pop":7205,"##ged":7206,"dimensions":7207,"##imin":7208,"welding":7209,"rows":7210,"changed":7211,"convex":7212,"offer":7213,"recon":7214,"rim":7215,"fully":7216,"##organic":7217,"mixtures":7218,"sampling":7219,"increases":7220,"##_spec":7221,"curv":7222,"gel":7223,"speech":7224,"##view":7225,"##ands":7226,"calibration":7227,"pulses":7228,"alkal":7229,"##light":7230,"presentation":7231,"states":7232,"gaming":7233,"##therm":7234,"conveying":7235,"ultrasonic":7236,"##ethane":7237,"##ational":7238,"purposes":7239,"##advant":7240,"transferring":7241,"business":7242,"tum":7243,"disadvant":7244,"identical":7245,"afor":7246,"rule":7247,"invent":7248,"##ground":7249,"preparing":7250,"##amino":7251,"titanium":7252,"##point":7253,"decoding":7254,"regulator":7255,"words":7256,"wound":7257,"plunger":7258,"synthetic":7259,"handling":7260,"##ian":7261,"liner":7262,"pil":7263,"policy":7264,"integral":7265,"behavior":7266,"deform":7267,"reactor":7268,"##upl":7269,"adding":7270,"##aint":7271,"##pass":7272,"absorb":7273,"computer_implemented":7274,"template":7275,"acquired":7276,"complementary":7277,"carboxyl":7278,"##irection":7279,"##fl":7280,"piezoelectric":7281,"compared":7282,"excess":7283,"ec":7284,"collector":7285,"legs":7286,"glycol":7287,"added":7288,"waste":7289,"##_out":7290,"aid":7291,"navigation":7292,"##eline":7293,"caused":7294,"pull":7295,"pressing":7296,"ester":7297,"symbols":7298,"match":7299,"cri":7300,"ped":7301,"detects":7302,"sealed":7303,"social":7304,"enhanced":7305,"mixed":7306,"neck":7307,"##ne":7308,"manif":7309,"branch":7310,"aromatic":7311,"polyethylene":7312,"capability":7313,"drop":7314,"##clic":7315,"rotate":7316,"report":7317,"waveguide":7318,"##rared":7319,"relating":7320,"bridge":7321,"background":7322,"ter":7323,"##ung":7324,"life":7325,"appli":7326,"##_ph":7327,"inputs":7328,"shap":7329,"displays":7330,"barrel":7331,"blu":7332,"overla":7333,"coordinate":7334,"evaluation":7335,"ic":7336,"##arn":7337,"corner":7338,"advertisement":7339,"##_co":7340,"constructed":7341,"they":7342,"ga":7343,"protruding":7344,"inclined":7345,"consumer":7346,"acceler":7347,"substrates":7348,"pins":7349,"communicate":7350,"##ators":7351,"rack":7352,"dispos":7353,"header":7354,"longitudinally":7355,"physi":7356,"workpiece":7357,"alter":7358,"vibr":7359,"constit":7360,"cycloalkyl":7361,"designated":7362,"kind":7363,"dispers":7364,"occurs":7365,"varying":7366,"supports":7367,"extraction":7368,"##etra":7369,"connections":7370,"dro":7371,"electrolyte":7372,"##arily":7373,"complete":7374,"influ":7375,"##ano":7376,"strain":7377,"ingr":7378,"inorganic":7379,"ingredi":7380,"shi":7381,"depend":7382,"stro":7383,"transl":7384,"mos":7385,"analyzing":7386,"##osis":7387,"##atom":7388,"heated":7389,"zero":7390,"absorption":7391,"smooth":7392,"stacked":7393,"collecting":7394,"etc":7395,"can":7396,"bolt":7397,"retention":7398,"recovery":7399,"placement":7400,"heater":7401,"spacing":7402,"##band":7403,"extract":7404,"tapered":7405,"stimulation":7406,"therapy":7407,"occup":7408,"managing":7409,"##aff":7410,"wheels":7411,"polyn":7412,"serial":7413,"coding":7414,"divided":7415,"##order":7416,"##bit":7417,"occurrence":7418,"fall":7419,"fraction":7420,"##atably":7421,"becomes":7422,"translation":7423,"documents":7424,"##fluor":7425,"depending":7426,"den":7427,"visible":7428,"whole":7429,"extracted":7430,"##ental":7431,"vinyl":7432,"##ensive":7433,"##tra":7434,"bright":7435,"##thal":7436,"##ots":7437,"##owled":7438,"proportion":7439,"metric":7440,"stability":7441,"interp":7442,"equival":7443,"extent":7444,"##ense":7445,"requirements":7446,"ions":7447,"bonded":7448,"polymers":7449,"party":7450,"##ementioned":7451,"##ulose":7452,"doped":7453,"consists":7454,"ethylene":7455,"reflector":7456,"dioxide":7457,"infrared":7458,"round":7459,"coolant":7460,"##atives":7461,"princip":7462,"nucleotide":7463,"##_le":7464,"fill":7465,"specifically":7466,"priv":7467,"assemblies":7468,"##oon":7469,"μm":7470,"laterally":7471,"moist":7472,"##ively":7473,"##_of":7474,"rob":7475,"dos":7476,"stent":7477,"ultra":7478,"marker":7479,"evapor":7480,"##rag":7481,"contr":7482,"break":7483,"created":7484,"reset":7485,"espec":7486,"##aling":7487,"improvement":7488,"polys":7489,"printer":7490,"jet":7491,"inserting":7492,"brow":7493,"especially":7494,"last":7495,"vehicles":7496,"once":7497,"scale":7498,"provisional":7499,"bre":7500,"damage":7501,"##urs":7502,"pivotally":7503,"##utions":7504,"special":7505,"devi":7506,"neut":7507,"selective":7508,"sixth":7509,"tubes":7510,"integer":7511,"chambers":7512,"regard":7513,"continuously":7514,"discrete":7515,"##ulsion":7516,"iron":7517,"upl":7518,"pre_":7519,"##tives":7520,"updated":7521,"bacter":7522,"necessary":7523,"inverter":7524,"spir":7525,"##rame":7526,"technical":7527,"alarm":7528,"receip":7529,"home":7530,"achieve":7531,"ens":7532,"split":7533,"road":7534,"dose":7535,"radical":7536,"typically":7537,"rotatably":7538,"furtherm":7539,"##_on":7540,"voltages":7541,"##rast":7542,"writing":7543,"jud":7544,"furthermore":7545,"registration":7546,"##_off":7547,"stations":7548,"##media":7549,"dispersion":7550,"##osen":7551,"attributes":7552,"manager":7553,"multimedia":7554,"lig":7555,"curve":7556,"programmed":7557,"fields":7558,"derivative":7559,"interconnect":7560,"antigen":7561,"functionality":7562,"uplink":7563,"commands":7564,"bump":7565,"defin":7566,"capturing":7567,"##omers":7568,"her":7569,"##_specific":7570,"semi":7571,"surfact":7572,"curvature":7573,"administration":7574,"flows":7575,"##arning":7576,"alternatively":7577,"intervals":7578,"##static":7579,"programmable":7580,"##oh":7581,"preset":7582,"photos":7583,"exhib":7584,"facilitate":7585,"expanded":7586,"deformation":7587,"advanc":7588,"lubric":7589,"receipt":7590,"##_line":7591,"pocket":7592,"transmits":7593,"passes":7594,"lithium":7595,"fault":7596,"cord":7597,"exceeds":7598,"verte":7599,"har":7600,"outward":7601,"requested":7602,"contrast":7603,"frequencies":7604,"ue":7605,"female":7606,"caps":7607,"bypass":7608,"sensitive":7609,"couple":7610,"##olar":7611,"placing":7612,"television":7613,"micron":7614,"additionally":7615,"tire":7616,"layout":7617,"##hole":7618,"simpl":7619,"##oma":7620,"sidewalls":7621,"joined":7622,"propag":7623,"sink":7624,"subsystem":7625,"molded":7626,"##ocyan":7627,"diaph":7628,"balloon":7629,"##vo":7630,"copy":7631,"##sm":7632,"benefit":7633,"icon":7634,"hem":7635,"temperatures":7636,"##_layer":7637,"sensed":7638,"##inning":7639,"fatty":7640,"dy":7641,"heteroaryl":7642,"##anging":7643,"##ently":7644,"##zed":7645,"##ragm":7646,"implementation":7647,"##urrent":7648,"epit":7649,"manifold":7650,"##ising":7651,"si":7652,"fine":7653,"##_sp":7654,"##iac":7655,"##cin":7656,"##rial":7657,"diaphragm":7658,"packaging":7659,"numbers":7660,"stable":7661,"flux":7662,"dual":7663,"ammon":7664,"linked":7665,"better":7666,"bear":7667,"polarization":7668,"yl":7669,"rap":7670,"dil":7671,"##ascular":7672,"cu":7673,"que":7674,"emerg":7675,"resonance":7676,"conductors":7677,"##ifice":7678,"##eting":7679,"alkenyl":7680,"sat":7681,"grip":7682,"chosen":7683,"bank":7684,"vic":7685,"floating":7686,"##sh":7687,"global":7688,"##kn":7689,"retainer":7690,"medic":7691,"links":7692,"orifice":7693,"pd":7694,"showing":7695,"reag":7696,"acquiring":7697,"axle":7698,"##ept":7699,"replacement":7700,"modes":7701,"hex":7702,"##ometer":7703,"pig":7704,"##escence":7705,"multipl":7706,"deposited":7707,"correct":7708,"symm":7709,"import":7710,"apply":7711,"drilling":7712,"resis":7713,"entir":7714,"composed":7715,"static":7716,"##activ":7717,"utilizing":7718,"developer":7719,"reader":7720,"statis":7721,"inductor":7722,"sug":7723,"integrally":7724,"mamm":7725,"separator":7726,"##fin":7727,"developing":7728,"##head":7729,"sup":7730,"diagnostic":7731,"drawing":7732,"regener":7733,"##requ":7734,"gest":7735,"instant":7736,"##eller":7737,"flap":7738,"cul":7739,"mal":7740,"gluc":7741,"axes":7742,"regarding":7743,"filled":7744,"##ained":7745,"reactive":7746,"##_rec":7747,"##ermost":7748,"trim":7749,"tunnel":7750,"aforementioned":7751,"records":7752,"non_c":7753,"profil":7754,"gases":7755,"##ette":7756,"##rad":7757,"oscillator":7758,"division":7759,"substantial":7760,"angles":7761,"folded":7762,"recessed":7763,"decision":7764,"stiff":7765,"public":7766,"##ushion":7767,"##from":7768,"filler":7769,"alternating":7770,"##iety":7771,"factors":7772,"rotated":7773,"containers":7774,"##ifying":7775,"spher":7776,"transferred":7777,"therefrom":7778,"##tenance":7779,"blow":7780,"consist":7781,"fabricating":7782,"heav":7783,"cho":7784,"definition":7785,"orthog":7786,"extracting":7787,"moisture":7788,"administering":7789,"establishing":7790,"virus":7791,"spectral":7792,"useful":7793,"species":7794,"cushion":7795,"charged":7796,"ultrasound":7797,"amounts":7798,"indicated":7799,"proteins":7800,"bending":7801,"pressurized":7802,"threads":7803,"promo":7804,"mono":7805,"maintenance":7806,"contour":7807,"comparator":7808,"prepared":7809,"locked":7810,"##requency":7811,"blank":7812,"tow":7813,"interrup":7814,"tight":7815,"ord":7816,"interactive":7817,"raised":7818,"##eti":7819,"presented":7820,"focal":7821,"##sis":7822,"history":7823,"particulate":7824,"##ropyl":7825,"cast":7826,"intra":7827,"limiting":7828,"accuracy":7829,"origin":7830,"networks":7831,"insulator":7832,"##ressing":7833,"thr":7834,"wo":7835,"training":7836,"binder":7837,"##xy":7838,"perfor":7839,"gol":7840,"enables":7841,"longer":7842,"nanop":7843,"stri":7844,"fact":7845,"concentr":7846,"##orted":7847,"##_v":7848,"distinc":7849,"viscosity":7850,"real_time":7851,"cases":7852,"downward":7853,"updating":7854,"green":7855,"penetr":7856,"signature":7857,"emitter":7858,"##used":7859,"combining":7860,"intr":7861,"actions":7862,"webs":7863,"recesses":7864,"gateway":7865,"nick":7866,"##tes":7867,"immedi":7868,"appliance":7869,"delivering":7870,"mouth":7871,"brightness":7872,";-":7873,"thermally":7874,"rectif":7875,"black":7876,"inwardly":7877,"tubing":7878,"##_rel":7879,"rapid":7880,"correlation":7881,"oh":7882,"downlink":7883,"introduced":7884,"expected":7885,"braking":7886,"calcium":7887,"chloride":7888,"aer":7889,"makes":7890,"salts":7891,"wet":7892,"##inant":7893,"earth":7894,"reinforcing":7895,"serving":7896,"prediction":7897,"##etary":7898,"rh":7899,"##cessor":7900,"highly":7901,"##ronic":7902,"connectors":7903,"refrigerant":7904,"roof":7905,"cann":7906,"accessing":7907,"##ries":7908,"##ulin":7909,"square":7910,"dimensional":7911,"satell":7912,"hair":7913,"disadvantages":7914,"projections":7915,"sub_":7916,"white":7917,"geographic":7918,"programs":7919,"environmental":7920,"py":7921,"##rist":7922,"extrem":7923,"figur":7924,"lift":7925,"##ventive":7926,"##other":7927,"speaker":7928,"##ierarch":7929,"articles":7930,"scheme":7931,"##vents":7932,"avoid":7933,"follows":7934,"##cont":7935,"##with":7936,"automated":7937,"addresses":7938,"tetra":7939,"zinc":7940,"moiety":7941,"nickel":7942,"##fort":7943,"inspection":7944,"columns":7945,"hierarch":7946,"tang":7947,"plants":7948,"cluster":7949,"##ancy":7950,"crank":7951,"bead":7952,"allocation":7953,"affix":7954,"probability":7955,"accordingly":7956,"modifying":7957,"##ipped":7958,"date":7959,"rollers":7960,"scr":7961,"maintained":7962,"##_ex":7963,"gripping":7964,"incoming":7965,"manual":7966,"upward":7967,"##work":7968,"cold":7969,"##gory":7970,"wor":7971,"vicinity":7972,"polarity":7973,"absence":7974,"bow":7975,"pathway":7976,"reflecting":7977,"physiological":7978,"##ley":7979,"interfer":7980,"variations":7981,"figures":7982,"root":7983,"remove":7984,"pilot":7985,"cp":7986,"sand":7987,"##idence":7988,"tex":7989,"introducing":7990,"sequentially":7991,"##atible":7992,"elimin":7993,"##rication":7994,"heavy":7995,"valves":7996,"##locking":7997,"##otides":7998,"##uate":7999,"yield":8000,"facility":8001,"##onductive":8002,"descrip":8003,"upwardly":8004,"revers":8005,"take":8006,"financ":8007,"derivatives":8008,"bind":8009,"nature":8010,"lit":8011,"spo":8012,"rolling":8013,"mentioned":8014,"residual":8015,"encrypted":8016,"enl":8017,"recipient":8018,"##eding":8019,"##ming":8020,"recomm":8021,"##idine":8022,"reas":8023,"##_op":8024,"comprised":8025,"quick":8026,"##osphere":8027,"patterned":8028,"hydroxyl":8029,"expandable":8030,"adsor":8031,"##eab":8032,"photor":8033,"collected":8034,"tools":8035,"orthogonal":8036,"##ments":8037,"##elected":8038,"online":8039,"##yrene":8040,"nd":8041,"progress":8042,"cardiac":8043,"repair":8044,"stret":8045,"estimate":8046,"category":8047,"cour":8048,"able":8049,"moreover":8050,"bulk":8051,"equivalent":8052,"##eases":8053,"neu":8054,"concer":8055,"connects":8056,"amine":8057,"demand":8058,"non_volatile":8059,"sector":8060,"currently":8061,"streams":8062,"##iling":8063,"polyur":8064,"dropl":8065,"decrease":8066,"##_level":8067,"practice":8068,"##zing":8069,"ign":8070,"employed":8071,"bodies":8072,"ribs":8073,"opened":8074,"overlapping":8075,"neutral":8076,"own":8077,"relevant":8078,"dissol":8079,"here":8080,"depositing":8081,"epoxy":8082,"additive":8083,"microphone":8084,"##mit":8085,"balance":8086,"##rest":8087,"therewith":8088,"##itivity":8089,"indicate":8090,"weld":8091,"engages":8092,"react":8093,"##axis":8094,"trigg":8095,"atmosphere":8096,"modulator":8097,"##zation":8098,"financial":8099,"buck":8100,"verification":8101,"understood":8102,"ps":8103,"##ogram":8104,"##nas":8105,"##ints":8106,"treated":8107,"##obic":8108,"##_frequency":8109,"##hal":8110,"covers":8111,"details":8112,"rfid":8113,"inventive":8114,"iso":8115,"conduct":8116,"gran":8117,"tree":8118,"child":8119,"playback":8120,"sole":8121,"multic":8122,"stroke":8123,"##bs":8124,"##rob":8125,"pages":8126,"mammal":8127,"carry":8128,"writ":8129,"##fet":8130,"polymerization":8131,"##_related":8132,"linkage":8133,"adhesion":8134,"cellulose":8135,"tumor":8136,"established":8137,"removably":8138,"accep":8139,"residue":8140,"##abol":8141,"diver":8142,"coordinates":8143,"films":8144,"##den":8145,"reciproc":8146,"beg":8147,"nam":8148,"##valent":8149,"modular":8150,"great":8151,"alph":8152,"fluids":8153,"##oking":8154,"diffr":8155,"nanopartic":8156,"ster":8157,"ramp":8158,"##_des":8159,"advantageous":8160,"fluorescent":8161,"##_comp":8162,"##eyond":8163,"shock":8164,"entr":8165,"brea":8166,"coupler":8167,"transformer":8168,"##ulations":8169,"sac":8170,"chips":8171,"beyond":8172,"filters":8173,"enlarg":8174,"attenu":8175,"unsaturated":8176,"excitation":8177,"configurations":8178,"toler":8179,"transformation":8180,"turning":8181,"acts":8182,"##uty":8183,"emergency":8184,"##_channel":8185,"brush":8186,"drying":8187,"##irectional":8188,"dispenser":8189,"abn":8190,"##arb":8191,"degrad":8192,"envelop":8193,"electrostatic":8194,"signaling":8195,"##asive":8196,"luminance":8197,"pp":8198,"swing":8199,"gesture":8200,"polyester":8201,"##utable":8202,"melting":8203,"merch":8204,"two_dimensional":8205,"course":8206,"overlap":8207,"otherwise":8208,"periodic":8209,"compact":8210,"sizes":8211,"silicone":8212,"past":8213,"inches":8214,"spread":8215,"covered":8216,"my":8217,"discharging":8218,"pivoting":8219,"##_ter":8220,"modulated":8221,"##inking":8222,"##ionic":8223,"bis":8224,"machines":8225,"soy":8226,"##assis":8227,"shielding":8228,"scene":8229,"zones":8230,"##acrylate":8231,"notch":8232,"polynucleotide":8233,"critical":8234,"golf":8235,"assess":8236,"tail":8237,"switched":8238,"sun":8239,"stages":8240,"dissip":8241,"structured":8242,"etch":8243,"fingers":8244,"directing":8245,"conduction":8246,"enzyme":8247,"pill":8248,"converted":8249,"micropro":8250,"bend":8251,"##aneous":8252,"completely":8253,"surfactant":8254,"nano":8255,"##ectivity":8256,"wed":8257,"indicia":8258,"chassis":8259,"supplement":8260,"delivered":8261,"tong":8262,"analyte":8263,"##____":8264,"oxidation":8265,"fixation":8266,"##eners":8267,"acrylate":8268,"itself":8269,"sites":8270,"dividing":8271,"assembled":8272,"coils":8273,"branched":8274,"utilized":8275,"##ogenic":8276,"disconn":8277,"##come":8278,"completion":8279,"recomb":8280,"easy":8281,"relie":8282,"##_sc":8283,"##structure":8284,"##onium":8285,"keys":8286,"defect":8287,"##ommun":8288,"retracted":8289,"telec":8290,"spherical":8291,"requesting":8292,"smart":8293,"hours":8294,"this":8295,"formulation":8296,"reliability":8297,"pickup":8298,"alert":8299,"abnormal":8300,"encryption":8301,"intersection":8302,"sized":8303,"lik":8304,"##itect":8305,"diseng":8306,"joining":8307,"impurity":8308,"distinct":8309,"releasably":8310,"settings":8311,"##tile":8312,"successive":8313,"exerc":8314,"amplification":8315,"clo":8316,"silica":8317,"trailing":8318,"decoder":8319,"##vinyl":8320,"substit":8321,"needs":8322,"##hy":8323,"arcuate":8324,"##orter":8325,"decomp":8326,"mechanisms":8327,"##asp":8328,"##uss":8329,"beverage":8330,"leakage":8331,"optimal":8332,"interfaces":8333,"sulfur":8334,"##ringe":8335,"confir":8336,"gradient":8337,"turned":8338,"mil":8339,"slit":8340,"##icated":8341,"foil":8342,"satellite":8343,"diam":8344,"servers":8345,"protrusions":8346,"washing":8347,"##ycl":8348,"##eptides":8349,"multilayer":8350,"presenting":8351,"architect":8352,"codes":8353,"scatter":8354,"sensitivity":8355,"##abilities":8356,"amorph":8357,"strips":8358,"appearance":8359,"##assemb":8360,"commerc":8361,"apparatuses":8362,"blue":8363,"obser":8364,"care":8365,"optic":8366,"implantable":8367,"robot":8368,"downwardly":8369,"##iphatic":8370,"##orts":8371,"interconnection":8372,"ranges":8373,"capacitive":8374,"##ars":8375,"shapes":8376,"backup":8377,"##ressure":8378,"skilled":8379,"carriage":8380,"scheduling":8381,"##_to_":8382,"##_state":8383,"##olet":8384,"dic":8385,"rings":8386,"##_phase":8387,"slidably":8388,"deviation":8389,"spind":8390,"queue":8391,"operably":8392,"passive":8393,"periods":8394,"##lication":8395,"keep":8396,"issu":8397,"classification":8398,"##irable":8399,"##_sensitive":8400,"waves":8401,"gravity":8402,"simplified":8403,"browser":8404,"advance":8405,"prescribed":8406,"bid":8407,"##ommunication":8408,"cyclic":8409,"stere":8410,"belong":8411,"purchase":8412,"menu":8413,"collaps":8414,"pool":8415,"activating":8416,"leaf":8417,"email":8418,"##ker":8419,"rendering":8420,"##oluble":8421,"bund":8422,"lifting":8423,"rat":8424,"amorphous":8425,"cabin":8426,"##anking":8427,"dental":8428,"##rec":8429,"bio":8430,"mand":8431,"##neum":8432,"leads":8433,"curr":8434,"colors":8435,"furn":8436,"absorbing":8437,"##right":8438,"photograph":8439,"diseases":8440,"##bore":8441,"strut":8442,"##ull":8443,"##esium":8444,"##elling":8445,"##_term":8446,"released":8447,"abutment":8448,"temporary":8449,"dum":8450,"##ushing":8451,"marking":8452,"##_described":8453,"resonant":8454,"land":8455,"disorder":8456,"acrylic":8457,"introduction":8458,"cannula":8459,"verteb":8460,"elastomeric":8461,"monitored":8462,"##_dis":8463,"train":8464,"crystalline":8465,"norm":8466,"interposed":8467,"raw":8468,"reagent":8469,"price":8470,"discover":8471,"geometry":8472,"##my":8473,"grain":8474,"##ks":8475,"microns":8476,"passages":8477,"##_axis":8478,"repeating":8479,"##iving":8480,"##cd":8481,"photod":8482,"melt":8483,"rna":8484,"##esist":8485,"silver":8486,"implementations":8487,"ded":8488,"neighboring":8489,"##oped":8490,"appended":8491,"repeated":8492,"##frame":8493,"polishing":8494,"equation":8495,"high_":8496,"##arbon":8497,"timer":8498,"go":8499,"boost":8500,"absol":8501,"##lyl":8502,"aug":8503,"constitu":8504,"##ropylene":8505,"regulating":8506,"needed":8507,"microprocessor":8508,"##fficients":8509,"venti":8510,"sectional":8511,"vit":8512,"rates":8513,"costs":8514,"pm":8515,"latching":8516,"compli":8517,"interconnected":8518,"phosphate":8519,"attemp":8520,"coefficients":8521,"##_pl":8522,"##ashion":8523,"##ynyl":8524,"computers":8525,"pumping":8526,"##ished":8527,"deflection":8528,"upright":8529,"##ecutable":8530,"uv":8531,"fashion":8532,"ole":8533,"##carbonyl":8534,"bent":8535,"ml":8536,"eject":8537,"injector":8538,"strong":8539,"wing":8540,"above_described":8541,"spindle":8542,"entirety":8543,"clin":8544,"##erve":8545,"moveable":8546,"##ibly":8547,"##tally":8548,"advantageously":8549,"##oidal":8550,"polyg":8551,"##ivers":8552,"suture":8553,"photosensitive":8554,"guard":8555,"highest":8556,"##_down":8557,"rearward":8558,"##eral":8559,"redund":8560,"##hesis":8561,"irradiation":8562,"improve":8563,"##_control":8564,"day":8565,"binary":8566,"understanding":8567,"advertising":8568,"cf":8569,"cav":8570,"strand":8571,"cation":8572,"p_type":8573,"##fts":8574,"##encing":8575,"absolute":8576,"dynam":8577,"laminated":8578,"variant":8579,"##volta":8580,"pneum":8581,"operates":8582,"adh":8583,"dummy":8584,"ni":8585,"diffic":8586,"polyurethane":8587,"##ogene":8588,"optically":8589,"keyword":8590,"experi":8591,"##voltaic":8592,"##rous":8593,"polyvinyl":8594,"##otub":8595,"utility":8596,"mail":8597,"dimethyl":8598,"registered":8599,"restr":8600,"absorbent":8601,"##ros":8602,"##char":8603,"dependent":8604,"allocated":8605,"folding":8606,"restor":8607,"lenses":8608,"equipped":8609,"profiles":8610,"##ables":8611,"vectors":8612,"loaded":8613,"credit":8614,"estimation":8615,"exposing":8616,"consideration":8617,"wip":8618,"accomplish":8619,"helical":8620,"selector":8621,"##aseous":8622,"##ellent":8623,"##etal":8624,"identifiers":8625,"continuation":8626,"fed":8627,"fund":8628,"##tively":8629,"nozzles":8630,"fe":8631,"playing":8632,"n_type":8633,"##anese":8634,"flight":8635,"cutter":8636,"accessible":8637,"u_shaped":8638,"acetate":8639,"photovoltaic":8640,"keyboard":8641,"##ifier":8642,"##warding":8643,"##ocyanate":8644,"kit":8645,"rails":8646,"##pective":8647,"ingredient":8648,"thi":8649,"categor":8650,"reel":8651,"##violet":8652,"net":8653,"##user":8654,"shoe":8655,"boot":8656,"syringe":8657,"shank":8658,"##_free":8659,"tablet":8660,"curing":8661,"look":8662,"dial":8663,"few":8664,"##ulative":8665,"gaseous":8666,"respond":8667,"calculate":8668,"cloth":8669,"##":8670,"telecommunication":8671,"soybe":8672,"tin":8673,"contamin":8674,"schedule":8675,"spin":8676,"antibodies":8677,"conform":8678,"photoresist":8679,"rough":8680,"##dd":8681,"embodied":8682,"culture":8683,"powered":8684,"trace":8685,"microw":8686,"##draw":8687,"requirement":8688,"lug":8689,"##_rece":8690,"reinforcement":8691,"parent":8692,"libr":8693,"fitted":8694,"bars":8695,"##_ac":8696,"correcting":8697,"duty":8698,"nanotub":8699,"future":8700,"magnesium":8701,"damping":8702,"##otrop":8703,"ejection":8704,"spool":8705,"tilt":8706,"##hood":8707,"slur":8708,"releasing":8709,"##olymer":8710,"nos":8711,"soybean":8712,"inflatable":8713,"##onyl":8714,"carriers":8715,"important":8716,"##ms":8717,"##utyl":8718,"halo":8719,"endosc":8720,"##ov":8721,"normally":8722,"tend":8723,"ques":8724,"passeng":8725,"affixed":8726,"grating":8727,"private":8728,"regular":8729,"spaces":8730,"tens":8731,"written":8732,"##iaz":8733,"pain":8734,"bottle":8735,"arbit":8736,"hash":8737,"estimating":8738,"filtered":8739,"retrieving":8740,"fabrication":8741,"book":8742,"wavelengths":8743,"conjug":8744,"##etrical":8745,"predicted":8746,"carbonate":8747,"resistive":8748,"subsequently":8749,"##idin":8750,"infection":8751,"marg":8752,"abr":8753,"withdraw":8754,"gar":8755,"univers":8756,"fusion":8757,"percentage":8758,"flag":8759,"##tering":8760,"resistant":8761,"fixture":8762,"alth":8763,"substituents":8764,"ly":8765,"although":8766,"matches":8767,"##upp":8768,"sub_p":8769,"firm":8770,"##ready":8771,"circumferentially":8772,"##_and":8773,"scal":8774,"balanc":8775,"##icate":8776,"substances":8777,"locating":8778,"fract":8779,"az":8780,"meter":8781,"identifies":8782,"laminate":8783,"entering":8784,"##atin":8785,"##_resist":8786,"##iration":8787,"occurring":8788,"drives":8789,"depression":8790,"directional":8791,"##hz":8792,"ce":8793,"inward":8794,"projected":8795,"##cepts":8796,"carboxylic":8797,"dye":8798,"lengths":8799,"indust":8800,"envelope":8801,"best":8802,"readily":8803,"arter":8804,"deployment":8805,"mutually":8806,"characters":8807,"##ipl":8808,"##cut":8809,"tongue":8810,"accessory":8811,"##pa":8812,"underlying":8813,"five":8814,"antennas":8815,"##imen":8816,"pigment":8817,"seam":8818,"synthesis":8819,"alkali":8820,"conven":8821,"flanges":8822,"population":8823,"specifying":8824,"cn":8825,"minutes":8826,"##idaz":8827,"magnets":8828,"airflow":8829,"##oxane":8830,"hose":8831,"far":8832,"solutions":8833,"saving":8834,"thrust":8835,"diodes":8836,"fasteners":8837,"scor":8838,"ultraviolet":8839,"telesc":8840,"others":8841,"review":8842,"immediately":8843,"##oil":8844,"ranging":8845,"measures":8846,"soluble":8847,"tabs":8848,"##_pressure":8849,"much":8850,"electricity":8851,"spot":8852,"residues":8853,"##tration":8854,"conical":8855,"supplies":8856,"##bar":8857,"separately":8858,"resonator":8859,"##ervation":8860,"pivotal":8861,"relief":8862,"authorization":8863,"ice":8864,"wearer":8865,"electronics":8866,"stap":8867,"##_de":8868,"phr":8869,"##print":8870,"wellbore":8871,"##illary":8872,"cloud":8873,"mig":8874,"non_p":8875,"prel":8876,"hyper":8877,"rech":8878,"cycles":8879,"hydrophobic":8880,"dynamically":8881,"slurry":8882,"implantation":8883,"obs":8884,"cards":8885,"]-":8886,"pet":8887,"fire":8888,"deformable":8889,"termination":8890,"##idges":8891,"principal":8892,"patients":8893,"reproduction":8894,"eg":8895,"already":8896,"rods":8897,"concentric":8898,"decryp":8899,"spiral":8900,"aliphatic":8901,"iii":8902,"##bes":8903,"differences":8904,"non_s":8905,"anchoring":8906,"##ilicon":8907,"oscillation":8908,"##omy":8909,"insulated":8910,"actuated":8911,"metals":8912,"contrib":8913,"phases":8914,"##top":8915,"passed":8916,"##function":8917,"##rosion":8918,"inflamm":8919,"blend":8920,"procedures":8921,"##haft":8922,"conveyance":8923,"glucose":8924,"prevention":8925,"concepts":8926,"##orders":8927,"dust":8928,"errors":8929,"sleep":8930,"##roph":8931,"forwarding":8932,"unc":8933,"slider":8934,"ammonium":8935,"improving":8936,"zo":8937,"angled":8938,"##ocking":8939,"auto":8940,"lim":8941,"patch":8942,"##_forming":8943,"manually":8944,"fore":8945,"entities":8946,"horizontally":8947,"shutter":8948,"biometric":8949,"##osed":8950,"emplo":8951,"##versely":8952,"wedge":8953,"configuring":8954,"emulsion":8955,"stopper":8956,"integration":8957,"metabol":8958,"##venth":8959,"humid":8960,"sharing":8961,"loads":8962,"cyt":8963,"bands":8964,"instances":8965,"graphics":8966,"token":8967,"manipulation":8968,"selectable":8969,"hydrophilic":8970,"guid":8971,"quad":8972,"##oting":8973,"situation":8974,"prosthesis":8975,"rotates":8976,"##mpt":8977,"flexibility":8978,"oct":8979,"coaxial":8980,"typical":8981,"accommodating":8982,"leds":8983,"controllable":8984,"##anned":8985,"adaptive":8986,"gps":8987,"certif":8988,"cone":8989,"gt":8990,"concept":8991,"ram":8992,"deployed":8993,"shifting":8994,"distortion":8995,"interlayer":8996,"##chemical":8997,"mandrel":8998,"##eading":8999,"##_ad":9000,"exist":9001,"sufficiently":9002,"anatom":9003,"decor":9004,"##anger":9005,"mechanically":9006,"trad":9007,"##anted":9008,"##rystalline":9009,"rating":9010,"confirm":9011,"searching":9012,"increment":9013,"alpha":9014,"moment":9015,"clearance":9016,"reduces":9017,"framework":9018,"sequential":9019,"preceding":9020,"repeat":9021,"asset":9022,"geometric":9023,"##ude":9024,"oral":9025,"manufactured":9026,"divider":9027,"universal":9028,"##tained":9029,"cyano":9030,"convert":9031,"deep":9032,"##iples":9033,"catalytic":9034,"##unch":9035,"arrays":9036,"degradation":9037,"snap":9038,"situated":9039,"undes":9040,"##rog":9041,"principles":9042,"discharged":9043,"##lip":9044,"microm":9045,"protected":9046,"enlarged":9047,"permitting":9048,"influence":9049,"lic":9050,"##avor":9051,"pa":9052,"tracks":9053,"nor":9054,"enabled":9055,"reaches":9056,"##enoid":9057,"wood":9058,"##itional":9059,"##_receiving":9060,"##agon":9061,"encoder":9062,"arri":9063,"yarn":9064,"oligon":9065,"cement":9066,"ordinary":9067,"##otes":9068,"positional":9069,"carbide":9070,"void":9071,"planetary":9072,"excellent":9073,"considered":9074,"microwave":9075,"administered":9076,"unders":9077,"activities":9078,"library":9079,"exercise":9080,"taking":9081,"trip":9082,"germ":9083,"##rosc":9084,"non_m":9085,"schematic":9086,"propagation":9087,"shelf":9088,"pointer":9089,"pneumatic":9090,"##ises":9091,"another":9092,"##ulph":9093,"bill":9094,"morph":9095,"referred":9096,"enclosed":9097,"backing":9098,"-[":9099,"interpol":9100,"pse":9101,"restriction":9102,"##icity":9103,"fragments":9104,"assigning":9105,"brain":9106,"called":9107,"architecture":9108,"subm":9109,"cass":9110,"entries":9111,"associating":9112,"transporting":9113,"dosage":9114,"##owledge":9115,"breath":9116,"substituent":9117,"corrected":9118,"harm":9119,"models":9120,"##ste":9121,"fins":9122,"wra":9123,"##umb":9124,"temporal":9125,"synthes":9126,"expressed":9127,"prevented":9128,"shear":9129,"capabilities":9130,"##ld":9131,"download":9132,"multicast":9133,"handover":9134,"cavities":9135,"commercial":9136,"proposed":9137,"figure":9138,"concrete":9139,"music":9140,"reliable":9141,"backlight":9142,"acting":9143,"completed":9144,"dopant":9145,"photoelectric":9146,"modifications":9147,"exists":9148,"perspective":9149,"accurate":9150,"centrif":9151,"industrial":9152,"##he":9153,"password":9154,"throt":9155,"##si":9156,"##_way":9157,"router":9158,"medication":9159,"pre_d":9160,"##tible":9161,"crossing":9162,"##roll":9163,"circulation":9164,"effectively":9165,"graft":9166,"computer_ex":9167,"spinal":9168,"planes":9169,"slope":9170,"pent":9171,"subjected":9172,"##_al":9173,"alkynyl":9174,"##enced":9175,"passenger":9176,"mobility":9177,"##oyl":9178,"reflect":9179,"pseud":9180,"utilization":9181,"##ecu":9182,"##tigu":9183,"##tage":9184,"recharg":9185,"transcri":9186,"replaced":9187,"retrieved":9188,"pressed":9189,"##exp":9190,"focusing":9191,"recombinant":9192,"transactions":9193,"##dehy":9194,"##ury":9195,"computer_executable":9196,"essential":9197,"usable":9198,"plating":9199,"membered":9200,"bicy":9201,"linking":9202,"produces":9203,"entrance":9204,"anter":9205,"pedal":9206,"selects":9207,"##tered":9208,"##erion":9209,"mis":9210,"assay":9211,"website":9212,"ti":9213,"conditioning":9214,"elevated":9215,"protecting":9216,"tasks":9217,"capacitors":9218,"criterion":9219,"##jet":9220,"prevents":9221,"preference":9222,"##aries":9223,"realized":9224,"messaging":9225,"consecu":9226,"applicator":9227,"alternate":9228,"##angle":9229,"monomers":9230,"clad":9231,"##ecking":9232,"##reat":9233,"breast":9234,"##ominal":9235,"induction":9236,"inclination":9237,"stat":9238,"targeted":9239,"##irect":9240,"remains":9241,"alkylene":9242,"disorders":9243,"inverted":9244,"coded":9245,"propylene":9246,"individ":9247,"saw":9248,"##herent":9249,"tensile":9250,"##ze":9251,"fam":9252,"individually":9253,"##ectives":9254,"bladder":9255,"##isms":9256,"##pheric":9257,"coverage":9258,"lubricant":9259,"##figur":9260,"##ii":9261,"##_process":9262,"polyc":9263,"viewed":9264,"stamp":9265,"availability":9266,"wid":9267,"takes":9268,"ignition":9269,"limits":9270,"facilitating":9271,"options":9272,"ant":9273,"electroph":9274,"weak":9275,"cables":9276,"##ices":9277,"bub":9278,"flip":9279,"##acchar":9280,"##etration":9281,"##inated":9282,"induced":9283,"peer":9284,"market":9285,"copolymers":9286,"##uk":9287,"iter":9288,"adapt":9289,"slow":9290,"##echanical":9291,"creation":9292,"evaluating":9293,"ligand":9294,"##eric":9295,"require":9296,"capsule":9297,"pulley":9298,"##cing":9299,"sharp":9300,"rank":9301,"mr":9302,"accessed":9303,"scanner":9304,"responses":9305,"movements":9306,"gray":9307,"##ns":9308,"magneti":9309,"fluorine":9310,"slave":9311,"absorber":9312,"##voltage":9313,"ackn":9314,"anterior":9315,"dies":9316,"##occ":9317,"##oline":9318,"deck":9319,"therapeutically":9320,"tone":9321,"##sw":9322,"put":9323,"interconnecting":9324,"immune":9325,"retained":9326,"initiating":9327,"##ologically":9328,"epitaxial":9329,"##benz":9330,"##enes":9331,"difficult":9332,"muscle":9333,"##ives":9334,"pall":9335,"decreasing":9336,"artif":9337,"pipeline":9338,"distances":9339,"prep":9340,"secur":9341,"who":9342,"datum":9343,"penetration":9344,"optional":9345,"contigu":9346,"weighted":9347,"molten":9348,"pt":9349,"##_mod":9350,"now":9351,"##ohex":9352,"saturated":9353,"gram":9354,"merchant":9355,"computed":9356,"attr":9357,"examination":9358,"##ception":9359,"##tigh":9360,"##ife":9361,"inert":9362,"dedicated":9363,"polypropylene":9364,"hydroly":9365,"solids":9366,"demod":9367,"##ories":9368,"cdr":9369,"checking":9370,"##ologies":9371,"carries":9372,"inventors":9373,"usb":9374,"##reci":9375,"abutting":9376,"##_circ":9377,"inj":9378,"permits":9379,"knowledge":9380,"##ockets":9381,"##omic":9382,"##uff":9383,"ba":9384,"slip":9385,"cylinders":9386,"illustration":9387,"slight":9388,"##onate":9389,"correspondence":9390,"##dm":9391,"##issive":9392,"##oney":9393,"##down":9394,"##ga":9395,"tolerance":9396,"retrieval":9397,"possibility":9398,"assembling":9399,"moul":9400,"##anth":9401,"prem":9402,"warning":9403,"ways":9404,"##ned":9405,"diagnosis":9406,"deactiv":9407,"batteries":9408,"##aque":9409,"nanoparticles":9410,"passiv":9411,"##ymm":9412,"esters":9413,"##wich":9414,"##sulf":9415,"jacket":9416,"aim":9417,"flame":9418,"##oy":9419,"don":9420,"communicates":9421,"##oxid":9422,"patterning":9423,"allowed":9424,"recommend":9425,"zirc":9426,"reason":9427,"gasket":9428,"##ience":9429,"torsion":9430,"appreci":9431,"sandwich":9432,"arbitr":9433,"fet":9434,"viewer":9435,"##azine":9436,"econ":9437,"objectives":9438,"mixer":9439,"tom":9440,"solenoid":9441,"participant":9442,"simulation":9443,"##oke":9444,"retard":9445,"##tight":9446,"dispersed":9447,"drawn":9448,"seventh":9449,"vascular":9450,"simultaneous":9451,"arrangements":9452,"##aturation":9453,"##eight":9454,"##using":9455,"promoter":9456,"spacers":9457,"genetic":9458,"##assium":9459,"ten":9460,"specimen":9461,"##olyl":9462,"##veness":9463,"##formed":9464,"sacrif":9465,"##volution":9466,"exer":9467,"tox":9468,"similarity":9469,"bin":9470,"##shaft":9471,"cage":9472,"##_gener":9473,"requires":9474,"inhibiting":9475,"guidance":9476,"exper":9477,"electrochemical":9478,"##eli":9479,"##electronic":9480,"##dehyde":9481,"gall":9482,"##ony":9483,"bioc":9484,"##ema":9485,"damper":9486,"##reen":9487,"acute":9488,"##sten":9489,"illustrative":9490,"pal":9491,"thumb":9492,"##opropyl":9493,"##_end":9494,"throughout":9495,"##_supp":9496,"oxides":9497,"significantly":9498,"microsc":9499,"##eather":9500,"posterior":9501,"cassette":9502,"##imide":9503,"teach":9504,"wat":9505,"tung":9506,"##rome":9507,"anti_":9508,"heterocyclic":9509,"guided":9510,"rock":9511,"satisfies":9512,"##aceable":9513,"optimum":9514,"ker":9515,"##clus":9516,"lipid":9517,"currents":9518,"implementing":9519,"underg":9520,"jack":9521,"regulation":9522,"proxy":9523,"##clusion":9524,"##iratory":9525,"##bag":9526,"discr":9527,"##vd":9528,"collision":9529,"##opy":9530,"amplified":9531,"paste":9532,"##ont":9533,"disposable":9534,"stopping":9535,"variables":9536,"contiguous":9537,"bri":9538,"transportation":9539,"authorized":9540,"genes":9541,"artificial":9542,"bundle":9543,"paint":9544,"##struction":9545,"primer":9546,"ef":9547,"decoded":9548,"potassium":9549,"diffraction":9550,"##wo":9551,"cosm":9552,"heel":9553,"statistical":9554,"##olith":9555,"##hthal":9556,"##ellular":9557,"zoom":9558,"drawback":9559,"differenti":9560,"ridge":9561,"terminating":9562,"through_h":9563,"##_fil":9564,"kin":9565,"nonvolatile":9566,"recognized":9567,"consider":9568,"beh":9569,"limitation":9570,"da":9571,"traject":9572,"bip":9573,"displaced":9574,"fixedly":9575,"calculates":9576,"nucleotides":9577,"therea":9578,"cooking":9579,"hardness":9580,"acknowled":9581,"##eal":9582,"asc":9583,"##isation":9584,"##cho":9585,"serves":9586,"##irt":9587,"histor":9588,"decreases":9589,"inch":9590,"##wr":9591,"inputted":9592,"beginning":9593,"tags":9594,"ferr":9595,"organization":9596,"##elet":9597,"transversely":9598,"##ious":9599,"burst":9600,"hinged":9601,"microc":9602,"subtr":9603,"##uls":9604,"publish":9605,"let":9606,"##mic":9607,"##fined":9608,"sr":9609,"stain":9610,"##oor":9611,"veg":9612,"##equ":9613,"soil":9614,"gold":9615,"##onducting":9616,"intell":9617,"dip":9618,"gates":9619,"accommodate":9620,"ventilation":9621,"repos":9622,"##ageable":9623,"multi_":9624,"overlay":9625,"tungsten":9626,"stic":9627,"windows":9628,"club":9629,"learning":9630,"na":9631,"##romagnetic":9632,"corners":9633,"servo":9634,"benefits":9635,"atomic":9636,"ben":9637,"affinity":9638,"crystall":9639,"shorter":9640,"triggering":9641,"##heel":9642,"##carb":9643,"compare":9644,"stacking":9645,"##rought":9646,"##elihood":9647,"living":9648,"aggregate":9649,"successful":9650,"alkaline":9651,"##absor":9652,"latter":9653,"##gy":9654,"##oxylic":9655,"catch":9656,"##erized":9657,"circle":9658,"clinical":9659,"##ogeneous":9660,"##rile":9661,"baff":9662,"firing":9663,"antim":9664,"centrifug":9665,"springs":9666,"##_resistant":9667,"##unk":9668,"implanted":9669,"corrosion":9670,"default":9671,"cooled":9672,"lact":9673,"vane":9674,"consecutive":9675,"##ingu":9676,"##oping":9677,"executes":9678,"rather":9679,"impeller":9680,"handh":9681,"##uge":9682,"garment":9683,"##ospheric":9684,"sor":9685,"enhancement":9686,"cosmetic":9687,"integrity":9688,"alternately":9689,"##uded":9690,"monoc":9691,"fluorescence":9692,"modulating":9693,"infra":9694,"crack":9695,"##most":9696,"diamond":9697,"concurrent":9698,"injected":9699,"nerve":9700,"stock":9701,"tuning":9702,"traveling":9703,"##bent":9704,"reporting":9705,"analyzer":9706,"kg":9707,"##ways":9708,"dot":9709,"observation":9710,"ble":9711,"metering":9712,"gears":9713,"stabilizing":9714,"##ions":9715,"sub_pixel":9716,"cabinet":9717,"ray":9718,"zn":9719,"year":9720,"sulfate":9721,"passivation":9722,"##ilane":9723,"tissues":9724,"rise":9725,"live":9726,"filtration":9727,"surve":9728,"biased":9729,"handheld":9730,"ranking":9731,"##yle":9732,"##loading":9733,"##assembly":9734,"##fluoro":9735,"##_readable":9736,"##ders":9737,"ms":9738,"##ypt":9739,"answ":9740,"throttle":9741,"adjo":9742,"interle":9743,"cpu":9744,"lung":9745,"lap":9746,"recirc":9747,"brom":9748,"doping":9749,"electronically":9750,"discont":9751,"whereby":9752,"minimal":9753,"##urface":9754,"acyl":9755,"progen":9756,"iner":9757,"##ume":9758,"enhancing":9759,"lowest":9760,"cooperating":9761,"substitution":9762,"polysilicon":9763,"turns":9764,"constituting":9765,"varies":9766,"likelihood":9767,"tick":9768,"##olic":9769,"elevation":9770,"synd":9771,"##itic":9772,"optimization":9773,"often":9774,"conference":9775,"fastened":9776,"trust":9777,"interact":9778,"airbag":9779,"quadr":9780,"precision":9781,"bacteria":9782,"ppm":9783,"hearing":9784,"binds":9785,"behind":9786,"shafts":9787,"detachably":9788,"##cp":9789,"publication":9790,"advanced":9791,"posts":9792,"inputting":9793,"##ift":9794,"styl":9795,"##alled":9796,"sacrificial":9797,"##mph":9798,"question":9799,"race":9800,"pore":9801,"##ister":9802,"weighting":9803,"heads":9804,"electrol":9805,"##ermeable":9806,"medicament":9807,"seating":9808,"decreased":9809,"##itives":9810,"##eability":9811,"calibr":9812,"##cr":9813,"tables":9814,"starch":9815,"injecting":9816,"suspended":9817,"##uation":9818,"remot":9819,"inflation":9820,"##_by":9821,"naph":9822,"parking":9823,"##tt":9824,"his":9825,"brought":9826,"overlying":9827,"defects":9828,"microf":9829,"actuators":9830,"categories":9831,"##otive":9832,"volatile":9833,"styrene":9834,"gun":9835,"fingerprint":9836,"unitary":9837,"serve":9838,"##actic":9839,"insulin":9840,"shrou":9841,"##_conn":9842,"compan":9843,"ingredients":9844,"##itis":9845,"##_pass":9846,"markers":9847,"unlock":9848,"remotely":9849,"mn":9850,"refresh":9851,"pouch":9852,"trif":9853,"accumulated":9854,"##going":9855,"##ru":9856,"pillar":9857,"safe":9858,"downhole":9859,"crow":9860,"idle":9861,"brief":9862,"reached":9863,"machining":9864,"mag":9865,"allo":9866,"cyclo":9867,"inerti":9868,"developed":9869,"projects":9870,"synchronous":9871,"payload":9872,"retract":9873,"proportional":9874,"gaps":9875,"border":9876,"##_cell":9877,"droplets":9878,"initially":9879,"##ustr":9880,"##ml":9881,"applies":9882,"sugges":9883,"externally":9884,"discontinu":9885,"guides":9886,"remainder":9887,"indirect":9888,"##adium":9889,"##woven":9890,"nose":9891,"##met":9892,"##_soluble":9893,"mas":9894,"##gery":9895,"pipes":9896,"releasable":9897,"precip":9898,"modulus":9899,"outcome":9900,"##ires":9901,"##vice":9902,"native":9903,"##arr":9904,"hierarchical":9905,"indent":9906,"involves":9907,"jap":9908,"##ster":9909,"contin":9910,"constituted":9911,"build":9912,"multiplexer":9913,"accumulation":9914,"accumulator":9915,"prism":9916,"##uctance":9917,"##electro":9918,"photoc":9919,"condenser":9920,"pulling":9921,"lattice":9922,"assignment":9923,"humidity":9924,"dependence":9925,"##phenyl":9926,"##obil":9927,"detectors":9928,"radiating":9929,"periodically":9930,"shows":9931,"rechargeable":9932,"figs":9933,"re_":9934,"rectifier":9935,"repository":9936,"latent":9937,"amplifying":9938,"filament":9939,"restricted":9940,"underside":9941,"mouse":9942,"infusion":9943,"bushing":9944,"##acet":9945,"##vis":9946,"##olefin":9947,"shroud":9948,"cured":9949,"resins":9950,"##abor":9951,"little":9952,"convenient":9953,"drag":9954,"precise":9955,"illuminating":9956,"stiffness":9957,"boron":9958,"probes":9959,"##inum":9960,"role":9961,"interlocking":9962,"bipolar":9963,"antagon":9964,"crosslink":9965,"asymm":9966,"ensure":9967,"capillary":9968,"collim":9969,"screws":9970,"compressive":9971,"glu":9972,"engines":9973,"##la":9974,"closer":9975,"streaming":9976,"cobal":9977,"constituent":9978,"trajectory":9979,"seconds":9980,"constrain":9981,"preselected":9982,"##ographical":9983,"##olec":9984,"sender":9985,"relationships":9986,"inverse":9987,"discovery":9988,"stretch":9989,"##agen":9990,"polyol":9991,"gamma":9992,"wax":9993,"annulus":9994,"##lob":9995,"knob":9996,"ratch":9997,"##raz":9998,"experience":9999,"limitations":10000,"##cc":10001,"resultant":10002,"tower":10003,"expose":10004,"atmospheric":10005,"cross_l":10006,"endoscope":10007,"##centric":10008,"##etrically":10009,"charges":10010,"weights":10011,"directory":10012,"beac":10013,"combust":10014,"##opro":10015,"cladding":10016,"fuse":10017,"views":10018,"##etting":10019,"yoke":10020,"strate":10021,"mineral":10022,"##chlor":10023,"transformed":10024,"pores":10025,"boards":10026,"acquire":10027,"##axially":10028,"##but":10029,"credential":10030,"##urb":10031,"##ops":10032,"modify":10033,"cores":10034,"##antum":10035,"interf":10036,"##clyl":10037,"cobalt":10038,"exhibits":10039,"windings":10040,"desirable":10041,"sends":10042,"partly":10043,"ellip":10044,"bearings":10045,"usually":10046,"seals":10047,"inhibitors":10048,"aligning":10049,"extrusion":10050,"paw":10051,"pre_determined":10052,"casting":10053,"grasp":10054,"##ocation":10055,"platinum":10056,"tie":10057,"evaporator":10058,"##luid":10059,"illustrated":10060,"nmos":10061,"inventory":10062,"trough":10063,"delayed":10064,"fibre":10065,"microorgan":10066,"compatible":10067,"##rin":10068,"##_speed":10069,"tren":10070,"dissipation":10071,"##_dri":10072,"##ivel":10073,"solid_state":10074,"matched":10075,"describes":10076,"joints":10077,"burner":10078,"conducted":10079,"##urning":10080,"kinds":10081,"compartments":10082,"optimized":10083,"##aments":10084,"##oscopic":10085,"##illed":10086,"steril":10087,"domains":10088,"′-":10089,"intellig":10090,"employing":10091,"##table":10092,"##erature":10093,"##oral":10094,"distingu":10095,"##titude":10096,"initiation":10097,"texture":10098,"lymph":10099,"house":10100,"occupant":10101,"annot":10102,"inductive":10103,"abrasive":10104,"eu":10105,"permission":10106,"solub":10107,"swivel":10108,"##ometers":10109,"world":10110,"multi_layer":10111,"repeti":10112,"bath":10113,"strings":10114,"saturation":10115,"hydrocarbons":10116,"frictional":10117,"vertebra":10118,"distributing":10119,"##iment":10120,"##ella":10121,"reproducing":10122,"scrip":10123,"rays":10124,"oligonucleotide":10125,"arbitrary":10126,"growing":10127,"compensating":10128,"quantum":10129,"help":10130,"ablation":10131,"numerous":10132,"networking":10133,"##foil":10134,"##box":10135,"commonly":10136,"##ustry":10137,"neural":10138,"built":10139,"detent":10140,"cub":10141,"diab":10142,"e_m":10143,"numerical":10144,"##rane":10145,"corrug":10146,"##grad":10147,"triangular":10148,"##_band":10149,"float":10150,"grinding":10151,"outputted":10152,",&":10153,"##otropic":10154,"ferromagnetic":10155,"industry":10156,"glycer":10157,"requiring":10158,"##hetic":10159,"dead":10160,"teleph":10161,"pier":10162,"movably":10163,"accomplished":10164,"##ogenous":10165,"preferences":10166,"##_en":10167,"detachable":10168,"cutout":10169,"interrupt":10170,"penetrating":10171,"computation":10172,"recent":10173,"vivo":10174,"pointed":10175,"hydroxide":10176,"iv":10177,"weather":10178,"medial":10179,"activate":10180,"jaws":10181,"unw":10182,"initiate":10183,"sput":10184,"eccentric":10185,"broadcasting":10186,"superior":10187,"##otic":10188,"poll":10189,"circulating":10190,"##_eff":10191,"instruments":10192,"##_part":10193,"##_point":10194,"radicals":10195,"armature":10196,"hence":10197,"##bles":10198,"deterior":10199,"enhance":10200,"fabricated":10201,"loops":10202,"temporarily":10203,"olefin":10204,"principle":10205,"feeder":10206,"deb":10207,"decorative":10208,"award":10209,"##sing":10210,"satisfy":10211,"furnace":10212,"vias":10213,"##methyl":10214,"hereina":10215,"instead":10216,"methacrylate":10217,"compliance":10218,"indicators":10219,"boss":10220,"##omen":10221,"##antile":10222,"fibrous":10223,"speeds":10224,"fresh":10225,"stabilizer":10226,"goods":10227,"certificate":10228,"##_di":10229,"screening":10230,"obli":10231,"##enth":10232,"debr":10233,"dihydro":10234,"express":10235,"family":10236,"pawl":10237,"observed":10238,"telecommunications":10239,"subframe":10240,"coinc":10241,"##els":10242,"##uction":10243,"##_car":10244,"metrics":10245,"polyamide":10246,"##ermal":10247,"topic":10248,"historical":10249,"foreign":10250,"##onent":10251,"ionic":10252,"respiratory":10253,"##_mode":10254,"trailer":10255,"twist":10256,"##phen":10257,"benzyl":10258,"excessive":10259,"redundant":10260,"holds":10261,"surgery":10262,"##_ap":10263,"minor":10264,"counting":10265,"lcd":10266,"##po":10267,"pw":10268,"##iable":10269,"lights":10270,"migration":10271,"##wire":10272,"e_mail":10273,"comfort":10274,"assistance":10275,"listing":10276,"trifluor":10277,"assessment":10278,"##gl":10279,"setup":10280,"outermost":10281,"pmos":10282,"url":10283,"oscillating":10284,"nominal":10285,"transmissions":10286,"tile":10287,"##rium":10288,"peptides":10289,"##_limit":10290,"ratios":10291,"editing":10292,"denotes":10293,"fly":10294,"intern":10295,"just":10296,"##adiene":10297,"##ycle":10298,"regeneration":10299,"altered":10300,"wiper":10301,"piper":10302,"##chang":10303,"fa":10304,"attenuation":10305,"trap":10306,"trenches":10307,"colored":10308,"beneath":10309,"##fe":10310,"communicatively":10311,"##_fl":10312,"defic":10313,"inn":10314,"registers":10315,"harves":10316,"truck":10317,"liquids":10318,"anis":10319,"debris":10320,"##odyn":10321,"##osol":10322,"##ighth":10323,"warm":10324,"crypt":10325,"##izable":10326,"mole":10327,"cantile":10328,"droplet":10329,"##water":10330,"##fr":10331,"tac":10332,"reacting":10333,"expanding":10334,"ethanol":10335,"punc":10336,"recycl":10337,"hap":10338,"##ometric":10339,"heteroatom":10340,"##structed":10341,"entitled":10342,"margin":10343,"hands":10344,"thereafter":10345,"beta":10346,"ventric":10347,"confirmation":10348,"##omethyl":10349,"japanese":10350,"players":10351,"explan":10352,"buried":10353,"##urance":10354,"inhibit":10355,"##_ins":10356,"##_transm":10357,"arrival":10358,"##code":10359,"secret":10360,"miss":10361,"standby":10362,"tread":10363,"hereinafter":10364,"calls":10365,"ju":10366,"airfoil":10367,"os":10368,"##icing":10369,"##regn":10370,"rounded":10371,"disab":10372,"##_col":10373,"interactions":10374,"securely":10375,"deposit":10376,"##urities":10377,"entered":10378,"perf":10379,"volumes":10380,"unf":10381,"rd":10382,"share":10383,"reciprocating":10384,"##_called":10385,"##thio":10386,"stimulus":10387,"ceiling":10388,"##oding":10389,"fluct":10390,"##hydride":10391,"impurities":10392,"shaping":10393,"poles":10394,"##oglob":10395,"##regular":10396,"prosthetic":10397,"bicycle":10398,"##emia":10399,"sulph":10400,"shr":10401,"##bility":10402,"##enic":10403,"sugar":10404,"scroll":10405,"so_called":10406,"additives":10407,"delet":10408,"##osing":10409,"##ality":10410,"alloys":10411,"intersecting":10412,"engageable":10413,"stainless":10414,"minute":10415,"bonds":10416,"communicated":10417,"viral":10418,"technologies":10419,"skirt":10420,"ing":10421,"injury":10422,"ratchet":10423,"traces":10424,"manufactur":10425,"arg":10426,"##ussed":10427,"##ople":10428,"straps":10429,"hs":10430,"feet":10431,"geographical":10432,"##idyl":10433,"##_dependent":10434,"age":10435,"verifying":10436,"##alc":10437,"cit":10438,"cameras":10439,"camp":10440,"rigidity":10441,"traditional":10442,"haloalkyl":10443,"infrastructure":10444,"intervention":10445,"slidable":10446,"chromium":10447,"##standing":10448,"constraint":10449,"##pt":10450,"days":10451,"receivers":10452,"isolating":10453,"packages":10454,"cry":10455,"urging":10456,"efficiently":10457,"##ulant":10458,"##iloxane":10459,"insulative":10460,"##_piece":10461,"basket":10462,"enters":10463,"pushing":10464,"advertisements":10465,"constraints":10466,"inflammatory":10467,"eighth":10468,"interpret":10469,"##vascular":10470,"##tip":10471,"spine":10472,"carboxy":10473,"simulated":10474,"molar":10475,"##ompatible":10476,"lowered":10477,"pressures":10478,"##ked":10479,"surrounded":10480,"##arboxylic":10481,"##ruption":10482,"irregular":10483,"indium":10484,"borehole":10485,"##ellation":10486,"beacon":10487,"balls":10488,"chains":10489,"installing":10490,"##fc":10491,"follower":10492,"water_soluble":10493,"sio":10494,"see":10495,"firmware":10496,"occurred":10497,"##ealing":10498,"retail":10499,"peg":10500,"cantilever":10501,"consequent":10502,"enterpr":10503,"packing":10504,"effector":10505,"attack":10506,"bevel":10507,"join":10508,"##_to_d":10509,"dimensioned":10510,"fluoride":10511,"audible":10512,"##etector":10513,"initiator":10514,"exclus":10515,"traction":10516,"cyclohex":10517,"##_apart":10518,"tear":10519,"gum":10520,"chair":10521,"gal":10522,"diameters":10523,"disposing":10524,"syndrome":10525,"washer":10526,"knife":10527,"##vious":10528,"arranging":10529,"endpoint":10530,"reconfigur":10531,"riser":10532,"ct":10533,"chall":10534,"customized":10535,"##arp":10536,"compressing":10537,"followed":10538,"splitter":10539,"polarized":10540,"##_inter":10541,"reinforced":10542,"license":10543,"##mptom":10544,"coat":10545,"blower":10546,"pinion":10547,"lys":10548,"surrounds":10549,"deterg":10550,"wag":10551,"people":10552,"tensioning":10553,"targets":10554,"anatomical":10555,"pream":10556,"nas":10557,"##ocarbon":10558,"exact":10559,"descriptor":10560,"permeable":10561,"graphite":10562,"enough":10563,"machine_readable":10564,"##icrob":10565,"advancing":10566,"providers":10567,"locus":10568,"flush":10569,"baffle":10570,"apex":10571,"##mark":10572,"scattering":10573,"harmonic":10574,"motors":10575,"##ucleotides":10576,"bon":10577,"connectable":10578,"balancing":10579,"aber":10580,"##olid":10581,"drawbacks":10582,"vibrations":10583,"illustrating":10584,"coatings":10585,"curable":10586,"immobil":10587,"nail":10588,"lack":10589,"##obile":10590,"paras":10591,"vanes":10592,"pointing":10593,"returning":10594,"infer":10595,"##idal":10596,"shifted":10597,"##lifer":10598,"attained":10599,"prolifer":10600,"##thetic":10601,"##iler":10602,"##bound":10603,"##oles":10604,"bacterial":10605,"##itrile":10606,"lies":10607,"vers":10608,"concerning":10609,"--":10610,"cationic":10611,"echo":10612,"esc":10613,"donor":10614,"spaced_apart":10615,"collabor":10616,"surge":10617,"queries":10618,"##ackets":10619,"wells":10620,"ammonia":10621,"conveyed":10622,"photodi":10623,"##known":10624,"updates":10625,"##_power":10626,"zirconium":10627,"##oded":10628,"vessels":10629,"complexity":10630,"meeting":10631,"alumina":10632,"aggregation":10633,"##arity":10634,"crop":10635,"wired":10636,"##urnal":10637,"freed":10638,"##erimp":10639,"##zer":10640,"fused":10641,"rs":10642,"representations":10643,"centrifugal":10644,"##ortun":10645,"##ynchron":10646,"##weight":10647,"lowering":10648,"physically":10649,"symptom":10650,"##anting":10651,"landing":10652,"plastics":10653,"##azole":10654,"##elled":10655,"consistent":10656,"statement":10657,"##roller":10658,"##linking":10659,"##_processing":10660,"meet":10661,"microb":10662,"containment":10663,"superimp":10664,"optics":10665,"stepped":10666,"parity":10667,"what":10668,"##itized":10669,"individuals":10670,"protocols":10671,"bring":10672,"stops":10673,"collagen":10674,"clients":10675,"##elial":10676,"opportun":10677,"##icrobial":10678,"pct":10679,"permeability":10680,"ribbon":10681,"rights":10682,"contract":10683,"##arc":10684,"##acellular":10685,"learn":10686,"reactant":10687,"lane":10688,"dissolved":10689,"fluoro":10690,"##_shape":10691,"adaptor":10692,"scheduled":10693,"designs":10694,"methoxy":10695,"endless":10696,"managed":10697,"photographing":10698,"##dr":10699,"throughput":10700,"cs":10701,"caller":10702,"reactions":10703,"##tid":10704,"cursor":10705,"harness":10706,"imag":10707,"vacc":10708,"##________":10709,"locally":10710,"facial":10711,"var":10712,"##ored":10713,"mini":10714,"drugs":10715,"augment":10716,"nanotubes":10717,"##earm":10718,"##virus":10719,"calling":10720,"carbo":10721,"cc":10722,")-":10723,"dark":10724,"enclosing":10725,"limb":10726,"scanned":10727,"slightly":10728,"##odynamic":10729,"amin":10730,"wirelessly":10731,"meaning":10732,"wrist":10733,"aerosol":10734,"##acles":10735,"##_ass":10736,"transcription":10737,"ethernet":10738,"vision":10739,"cuff":10740,"##accharide":10741,"##allow":10742,"enterprise":10743,"through_hole":10744,"electrons":10745,"pseudo":10746,"##rally":10747,"mammalian":10748,"diffuser":10749,"purification":10750,"peroxide":10751,"##iber":10752,"pure":10753,"ven":10754,"##_oper":10755,"detectable":10756,"brackets":10757,"pockets":10758,"hanger":10759,"stir":10760,"multiplicity":10761,"thermoelectric":10762,"scaling":10763,"##_circuit":10764,"evaporation":10765,"##anar":10766,"converts":10767,"merg":10768,"noted":10769,"sch":10770,"projector":10771,"journal":10772,"multiplexing":10773,"batch":10774,"bowl":10775,"crimp":10776,"concentrations":10777,"##gement":10778,"##book":10779,"replacing":10780,"preamble":10781,"##uminescent":10782,"inactive":10783,"pref":10784,"cooler":10785,"calend":10786,"quantities":10787,"international":10788,"seman":10789,"chart":10790,"transient":10791,"persons":10792,"nip":10793,"supplemental":10794,"chlorine":10795,"##_film":10796,"pedest":10797,"effort":10798,"digit":10799,"tips":10800,"heterocyclyl":10801,"synchronized":10802,"trait":10803,"##etooth":10804,"##isocyanate":10805,"magnetization":10806,"##_function":10807,"owner":10808,"##anded":10809,"baseline":10810,"##insic":10811,"pulsed":10812,"polycarbon":10813,"note":10814,"minimize":10815,"##ismic":10816,"judging":10817,"bluetooth":10818,"##_bo":10819,"quickly":10820,"elasticity":10821,"desk":10822,"layered":10823,"scores":10824,"thermos":10825,"appreciated":10826,"bulb":10827,"routine":10828,"initiated":10829,"strands":10830,"carbonyl":10831,"hierarchy":10832,"##olin":10833,"##_stage":10834,"majority":10835,"transforming":10836,"pv":10837,"shad":10838,"condensation":10839,"##phosph":10840,"##bic":10841,"computerized":10842,"milk":10843,"allocating":10844,"chromat":10845,"discussed":10846,"hood":10847,"##imm":10848,"##_butyl":10849,"mutual":10850,"bases":10851,"##alkoxy":10852,"##eably":10853,"preform":10854,"##asion":10855,"blind":10856,"oste":10857,"circumst":10858,"synchronizing":10859,"travers":10860,"elaps":10861,"compressible":10862,"retrieve":10863,"facilitates":10864,"polyether":10865,"contacted":10866,"pwm":10867,"radiator":10868,"erase":10869,"##olding":10870,"##asis":10871,"##oupl":10872,"##riers":10873,"##_current":10874,"adjoining":10875,"odd":10876,"gauge":10877,"proceed":10878,"##_par":10879,"chronic":10880,"##ipping":10881,"nuclear":10882,"mosfet":10883,"connectivity":10884,"ejecting":10885,"tetr":10886,"tether":10887,"knee":10888,"marks":10889,"fluidly":10890,"phrase":10891,"hos":10892,"posture":10893,"##alog":10894,"relax":10895,"accepting":10896,"conduits":10897,"vend":10898,"serum":10899,"##_bit":10900,"fung":10901,"##plate":10902,"##ido":10903,"gradually":10904,"##_through":10905,"antic":10906,"fus":10907,"##_cap":10908,"names":10909,"impregn":10910,"progeny":10911,"perforated":10912,"##hydrate":10913,"polyolefin":10914,"centerline":10915,"##rich":10916,"##lan":10917,"configurable":10918,"controllers":10919,"span":10920,"pcb":10921,"drift":10922,"arti":10923,"deflector":10924,"incidence":10925,"welded":10926,"high_frequency":10927,"encapsulation":10928,"illuminated":10929,"closely":10930,"tft":10931,"merc":10932,"fracture":10933,"crown":10934,"adequ":10935,"lengthwise":10936,"issue":10937,"freedom":10938,"alle":10939,"##rain":10940,"heterocycl":10941,"brist":10942,"ket":10943,"sales":10944,"waist":10945,"cleaner":10946,"collapsible":10947,"contamination":10948,"##opes":10949,"belonging":10950,"gallium":10951,"polarizing":10952,"linearly":10953,"macro":10954,"hep":10955,"##igure":10956,"##omach":10957,"replic":10958,"buy":10959,"glut":10960,"clusters":10961,"##_controlled":10962,"backward":10963,"sust":10964,"staple":10965,"##imination":10966,"masking":10967,"participants":10968,"protect":10969,"peel":10970,"eight":10971,"elastically":10972,"stabilization":10973,"peaks":10974,"##otype":10975,"years":10976,"beads":10977,"solve":10978,"win":10979,"ty":10980,"purified":10981,"sorting":10982,"creates":10983,"topology":10984,"chuck":10985,"seismic":10986,"worn":10987,"##enium":10988,"labor":10989,"differing":10990,"sale":10991,"workflow":10992,"convers":10993,"carg":10994,"obst":10995,"environments":10996,"snaps":10997,"adhered":10998,"cmos":10999,"##tress":11000,"mim":11001,"rendered":11002,"om":11003,"inkjet":11004,"bores":11005,"##_induc":11006,"non_in":11007,"interlock":11008,"though":11009,"brace":11010,"##stric":11011,"grouping":11012,"cargo":11013,"magnetically":11014,"##aving":11015,"##_temp":11016,"falls":11017,"polypeptides":11018,"casc":11019,"stit":11020,"elevator":11021,"stopped":11022,"notches":11023,"incision":11024,"##ren":11025,"chloro":11026,"od":11027,"accelerator":11028,"emissions":11029,"self_":11030,"confidence":11031,"describing":11032,"##_chip":11033,"depic":11034,"##_frame":11035,"##operation":11036,"sea":11037,"fc":11038,"##ipp":11039,"satisfied":11040,"specifies":11041,"##stock":11042,"##ids":11043,"exclu":11044,"visually":11045,"sub_s":11046,"##enum":11047,"##gn":11048,"nox":11049,"agon":11050,"##erved":11051,"ferment":11052,"amide":11053,"consequently":11054,"stick":11055,"perpendicularly":11056,"analyzed":11057,"imidaz":11058,"spatially":11059,"##opolymer":11060,"mems":11061,"boom":11062,"crosslinking":11063,"##gf":11064,"##luidic":11065,"tests":11066,"##antal":11067,"##da":11068,"##aturally":11069,"overcome":11070,"##unit":11071,"##ician":11072,"oxidizing":11073,"combustor":11074,"##wing":11075,"##amental":11076,"pell":11077,"burn":11078,"germanium":11079,"##mitt":11080,"sealant":11081,"veget":11082,"##iqu":11083,"leaving":11084,"##igital":11085,"comes":11086,"maintains":11087,"##isc":11088,"poor":11089,"annealing":11090,"decel":11091,"regulated":11092,"##ensities":11093,"falling":11094,"um":11095,"##etes":11096,"affected":11097,"namely":11098,"##ranean":11099,"##ologous":11100,"drainage":11101,"couples":11102,"assum":11103,"collapsed":11104,"ease":11105,"##ylon":11106,"##last":11107,"##wear":11108,"overhead":11109,"neur":11110,"pivoted":11111,"defective":11112,"style":11113,"resear":11114,"ticket":11115,"subter":11116,"accelerometer":11117,"transfers":11118,"mpa":11119,"une":11120,"suppress":11121,"wea":11122,"imping":11123,"pivotable":11124,"approaches":11125,"bios":11126,"##lycer":11127,"##zone":11128,"uniformly":11129,"##lyb":11130,"evac":11131,"exhibit":11132,"inhal":11133,"biomass":11134,"butyl":11135,"retrans":11136,"gath":11137,"muc":11138,"##urable":11139,"ordered":11140,"classes":11141,"validation":11142,"##agg":11143,"cult":11144,"ren":11145,"##_directional":11146,"subterranean":11147,"artery":11148,"##arse":11149,"hz":11150,"woven":11151,"urea":11152,"interpolation":11153,"sinus":11154,"recommendation":11155,"drawer":11156,"##ats":11157,"nanotube":11158,"photodetector":11159,"##tig":11160,"##allic":11161,"iod":11162,"##cs":11163,"ut":11164,"refers":11165,"statistics":11166,"locator":11167,"cryptographic":11168,"##oic":11169,"references":11170,"tantal":11171,"clips":11172,"##utor":11173,"mapped":11174,"sep":11175,"properly":11176,"##illing":11177,"##oxys":11178,"extra":11179,"molyb":11180,"branches":11181,"stereo":11182,"opens":11183,"##odegrad":11184,"toil":11185,"stereoscopic":11186,"modeling":11187,"uneven":11188,"inductance":11189,"flaps":11190,"##iform":11191,"encapsulated":11192,"##tance":11193,"##_contact":11194,"slits":11195,"##itted":11196,"##_back":11197,"issued":11198,"emits":11199,"##iture":11200,"membranes":11201,"too":11202,"magnification":11203,"adjusts":11204,"mp":11205,"adsorption":11206,"##_mem":11207,"chemically":11208,"dispensed":11209,"pre_s":11210,"dl":11211,"##tein":11212,"utilize":11213,"##vable":11214,"##rated":11215,"issues":11216,"irradiating":11217,"##styrene":11218,"textile":11219,"##onitrile":11220,"##_str":11221,"accommodated":11222,"restricting":11223,"undesirable":11224,"correspondingly":11225,"biocompatible":11226,"algorithms":11227,"arithm":11228,"approximate":11229,"returned":11230,"pulled":11231,"lie":11232,"##uber":11233,"late":11234,"##bral":11235,"transmissive":11236,"interrog":11237,"prelim":11238,"buttons":11239,"pyrrol":11240,"solvents":11241,"simply":11242,"script":11243,"antimicrobial":11244,"crankshaft":11245,"##_limiting":11246,"proj":11247,"permitted":11248,"preliminary":11249,"high_pressure":11250,"judgment":11251,"impression":11252,"##thead":11253,"promotion":11254,"compute":11255,"tv":11256,"impar":11257,"deformed":11258,"vertebral":11259,"##_tr":11260,"internally":11261,"##oti":11262,"##list":11263,"conges":11264,"##ichlor":11265,"automobile":11266,"n_":11267,"dish":11268,"housed":11269,"attempt":11270,"aver":11271,"meta":11272,"wast":11273,"baseband":11274,"charger":11275,"compliant":11276,"hf":11277,"##_absor":11278,"anionic":11279,"extensions":11280,"seri":11281,"loud":11282,"spectrom":11283,"men":11284,"##get":11285,"les":11286,"toe":11287,"correlated":11288,"early":11289,"descriptions":11290,"##oprop":11291,"van":11292,"lamination":11293,"slice":11294,"pumps":11295,"##_no":11296,"##olded":11297,"colour":11298,"##quely":11299,"reward":11300,"sampled":11301,"persist":11302,"transported":11303,"seen":11304,"lying":11305,"coal":11306,"prong":11307,"largest":11308,"retraction":11309,"auton":11310,"printhead":11311,"mang":11312,"##_ring":11313,"accounts":11314,"##ball":11315,"detergent":11316,"breathing":11317,"##idinyl":11318,"silicide":11319,"inducing":11320,"##itely":11321,"ide":11322,"##proof":11323,"dried":11324,"games":11325,"##bb":11326,"lubricating":11327,"##cutaneous":11328,"modem":11329,"##enari":11330,"granular":11331,"inclusion":11332,"screens":11333,"damaged":11334,"relev":11335,"fork":11336,"##_or":11337,"##oresis":11338,"utilizes":11339,"paging":11340,"suppression":11341,"vul":11342,"arithmetic":11343,"coron":11344,"freely":11345,"favor":11346,"nin":11347,"##amb":11348,"forced":11349,"##denum":11350,"trial":11351,"##ulse":11352,"contaminants":11353,"rich":11354,"spirit":11355,"tantalum":11356,"concentrated":11357,"spraying":11358,"math":11359,"grounding":11360,"overc":11361,"scenari":11362,"##plas":11363,"irradiated":11364,"inserts":11365,"explanation":11366,"##uent":11367,"boundaries":11368,"##vil":11369,"##_refl":11370,"wee":11371,"adaptation":11372,"##ds":11373,"recognizing":11374,"likely":11375,"tamp":11376,"##ulos":11377,"concurrently":11378,"subscription":11379,"dupl":11380,"##quin":11381,"rb":11382,"##_lo":11383,"plenum":11384,"bumps":11385,"sputtering":11386,"redundancy":11387,"centre":11388,"outlets":11389,"research":11390,"##otox":11391,"silane":11392,"##land":11393,"transducers":11394,"graphene":11395,"lad":11396,"##ompass":11397,"diesel":11398,"tactile":11399,"exceeding":11400,"##_tight":11401,"microscope":11402,"musical":11403,"##ested":11404,"rare":11405,"##_eng":11406,"##estinal":11407,"##botic":11408,"##inear":11409,"polymerizable":11410,"##anyl":11411,"cooperate":11412,"vitamin":11413,"resistivity":11414,"seeds":11415,"##_binding":11416,"suscep":11417,"vibrating":11418,"disadvantage":11419,"collect":11420,"formulations":11421,"##izers":11422,"magazine":11423,"empty":11424,"originating":11425,"tilting":11426,"efflu":11427,"latency":11428,"microfluidic":11429,"targeting":11430,"initialization":11431,"exam":11432,"discloses":11433,"moder":11434,"mit":11435,"animals":11436,"accommodation":11437,"monolith":11438,"bonus":11439,"pictures":11440,"rotationally":11441,"registering":11442,"kinase":11443,"inflow":11444,"##aldehyde":11445,"configure":11446,"toilet":11447,"taper":11448,"unlocked":11449,"encompass":11450,"potentially":11451,"readout":11452,"##alkylene":11453,"guidewire":11454,"##illus":11455,"recirculation":11456,"intermitt":11457,"radar":11458,"isocyanate":11459,"anhydride":11460,"polyimide":11461,"microcont":11462,"sph":11463,"##ectiveness":11464,"scaff":11465,"customers":11466,"##reatment":11467,"hydrog":11468,"polycarbonate":11469,"mast":11470,"propulsion":11471,"come":11472,"hour":11473,"##ochem":11474,"##tices":11475,"finding":11476,"transitions":11477,"recovering":11478,"nanow":11479,"##_cor":11480,"conflic":11481,"one_way":11482,"acknowledgement":11483,"##ensor":11484,"docking":11485,"focused":11486,"medicine":11487,"biodegrad":11488,"##long":11489,"##alkenyl":11490,"##gs":11491,"portal":11492,"##elastic":11493,"##uplex":11494,"ready":11495,"standing":11496,"circumstances":11497,"involved":11498,"outgoing":11499,"phenomen":11500,"molybdenum":11501,"cum":11502,"icons":11503,"##omal":11504,"##ify":11505,"cart":11506,"applicable":11507,"interchang":11508,"micrometers":11509,"deterioration":11510,"estimates":11511,"##genic":11512,"resistors":11513,"calendar":11514,"punch":11515,"acidic":11516,"pushed":11517,"transpond":11518,"struts":11519,"ferrule":11520,"exerted":11521,"af":11522,"buoy":11523,"slee":11524,"shot":11525,"mhz":11526,"standards":11527,"barcode":11528,"preview":11529,"thin_film":11530,"wagering":11531,"labels":11532,"automotive":11533,"##gram":11534,"constructing":11535,"##screen":11536,"polymerase":11537,"arth":11538,"constitute":11539,"throm":11540,"finished":11541,"seated":11542,"##_field":11543,"##anedi":11544,"emboss":11545,"##opent":11546,"intrinsic":11547,"##_moun":11548,"lining":11549,"symmetry":11550,"obtains":11551,"ridges":11552,"replication":11553,"acetyl":11554,"horm":11555,"company":11556,"localized":11557,"##riend":11558,"tract":11559,"##_methyl":11560,"##_linear":11561,"pusher":11562,"##par":11563,"guar":11564,"##ecyl":11565,"centrally":11566,"nanometers":11567,"##_temperature":11568,"naphth":11569,"finish":11570,"closest":11571,"porosity":11572,"runs":11573,"protrudes":11574,"##icit":11575,"incorporating":11576,"drivers":11577,"reconstruction":11578,"tax":11579,"projecti":11580,"decoupl":11581,"quin":11582,"disks":11583,"combine":11584,"##bone":11585,"accurately":11586,"##role":11587,"##ols":11588,"ze":11589,"canal":11590,"antis":11591,"explos":11592,"cot":11593,"aft":11594,"shrink":11595,"solubility":11596,"##eep":11597,"rapidly":11598,"possess":11599,"reports":11600,"lot":11601,"oblique":11602,"administr":11603,"ast":11604,"discrimin":11605,"effectiveness":11606,"unm":11607,"partitions":11608,"crad":11609,"##roid":11610,"##_det":11611,"##ucent":11612,"except":11613,"spout":11614,"symmetrical":11615,"candidates":11616,"improvements":11617,"dome":11618,"inexp":11619,"##wheel":11620,"opto":11621,"alcohols":11622,"roughness":11623,"brid":11624,"relate":11625,"##imer":11626,"similarly":11627,"conjugate":11628,"##_bearing":11629,"precipit":11630,"tib":11631,"##ephthal":11632,"characterised":11633,"segmented":11634,"##itively":11635,"hooks":11636,"arrow":11637,"maize":11638,"monocl":11639,"fluidic":11640,"ov":11641,"establishment":11642,"newly":11643,"wrap":11644,"give":11645,"parasitic":11646,"##cell":11647,"##itter":11648,"##oside":11649,"belongs":11650,"fro":11651,"##ologic":11652,"leaves":11653,"manage":11654,"retractable":11655,"cook":11656,"alone":11657,"presently":11658,"##erization":11659,"designation":11660,"monitors":11661,"nutr":11662,"##phal":11663,"angi":11664,"authenticating":11665,"mt":11666,"learned":11667,"oils":11668,"rp":11669,"semantic":11670,"labeled":11671,"rising":11672,"notifying":11673,"coaxially":11674,"attachable":11675,"photodiode":11676,"abnormality":11677,"pacing":11678,"##sequence":11679,"spark":11680,"bs":11681,"microcontroller":11682,"##entif":11683,"cooperation":11684,"progressive":11685,"##zard":11686,"platen":11687,"successively":11688,"datas":11689,"wearable":11690,"introduce":11691,"manganese":11692,"inhibition":11693,"kept":11694,"enzymes":11695,"##ensing":11696,"choice":11697,"##tainment":11698,"suffer":11699,"warp":11700,"propyl":11701,"implanting":11702,"honey":11703,"pup":11704,"insurance":11705,"##planar":11706,"disturb":11707,"naturally":11708,"acquires":11709,"##loaded":11710,"excip":11711,"lookup":11712,"hamm":11713,"sight":11714,"outd":11715,"##_coupl":11716,"console":11717,"triaz":11718,"##ieties":11719,"buffers":11720,"teachings":11721,"nanoc":11722,"linker":11723,"losses":11724,"hopper":11725,"exiting":11726,"indexing":11727,"econom":11728,"stripe":11729,"recommended":11730,"visualization":11731,"##ellow":11732,"pyrim":11733,"##monary":11734,"##itol":11735,"decomposition":11736,"slides":11737,"monoclonal":11738,"centers":11739,"assets":11740,"bearer":11741,"methacryl":11742,"fish":11743,"moieties":11744,"deletion":11745,"jp":11746,"##orized":11747,"randomly":11748,"##ney":11749,"hereby":11750,"forwardly":11751,"predictive":11752,"reservation":11753,"instantaneous":11754,"altering":11755,"wild":11756,"tangible":11757,"wager":11758,"##esthetic":11759,"oxo":11760,"endoth":11761,"sproc":11762,"##eness":11763,"##ipper":11764,"normalized":11765,"micros":11766,"rearwardly":11767,"snapsh":11768,"shipping":11769,"extracts":11770,"compensate":11771,"lost":11772,"versions":11773,"facet":11774,"retro":11775,"spreading":11776,"variants":11777,"##ato":11778,"##_doped":11779,"diabetes":11780,"compares":11781,"toy":11782,"codeword":11783,"##nary":11784,"resiliently":11785,"quantization":11786,"refrigeration":11787,"##_val":11788,"office":11789,"slu":11790,"extreme":11791,"##idone":11792,"##atibility":11793,"calculator":11794,"law":11795,"elapsed":11796,"rolls":11797,"unwanted":11798,"widths":11799,"anvil":11800,"leuk":11801,"##care":11802,"electrolytic":11803,"goal":11804,"intelligent":11805,"trunc":11806,"##igned":11807,"interpos":11808,"foldable":11809,"opaque":11810,"##_wave":11811,"riv":11812,"immediate":11813,"nylon":11814,"##_sw":11815,"herm":11816,"gui":11817,"filaments":11818,"strategy":11819,"personnel":11820,"conditional":11821,"extremely":11822,"expiration":11823,"milling":11824,"being":11825,"keywords":11826,"overlaps":11827,"delta":11828,"ballast":11829,"polygonal":11830,"transmittance":11831,"ply":11832,"pyraz":11833,"fulf":11834,"sintered":11835,"wider":11836,"##aved":11837,"##comb":11838,"electro_op":11839,"seats":11840,"polycrystalline":11841,"##anine":11842,"generators":11843,"##plane":11844,"community":11845,"##arger":11846,"divalent":11847,"occlusion":11848,"acceptance":11849,"outflow":11850,"antagonist":11851,"##rystal":11852,"routes":11853,"artifact":11854,"month":11855,"adequate":11856,"##imeters":11857,"carcin":11858,"nanoparticle":11859,"chol":11860,"##iotic":11861,"entirely":11862,"capping":11863,"##_terminal":11864,"amplifiers":11865,"contraction":11866,"offers":11867,"aggregated":11868,"kernel":11869,"ple":11870,"cod":11871,"aden":11872,"generic":11873,"desktop":11874,"##istrib":11875,"permanently":11876,"differs":11877,"robotic":11878,"phosphorus":11879,"grade":11880,"##ritis":11881,"disengaged":11882,"silicate":11883,"deriving":11884,"enfor":11885,"emuls":11886,"##_medi":11887,"corrugated":11888,"situations":11889,"##oured":11890,"##econd":11891,"polic":11892,"timest":11893,"oppositely":11894,"integrating":11895,"##raph":11896,"##mitted":11897,"upp":11898,"##enge":11899,"##urgical":11900,"boiling":11901,"ss":11902,"dm":11903,"etched":11904,"cad":11905,"oven":11906,"high_speed":11907,"homogeneous":11908,"##sum":11909,"fibres":11910,"effected":11911,"distributor":11912,"hazard":11913,"sip":11914,"gripper":11915,"coarse":11916,"splitting":11917,"##imethyl":11918,"failed":11919,"perme":11920,"analyze":11921,"##ina":11922,"san":11923,"luminescent":11924,"find":11925,"##reated":11926,"handles":11927,"##ethoxy":11928,"##oted":11929,"antioxid":11930,"canister":11931,"bolts":11932,"cere":11933,"encodes":11934,"bubbles":11935,"pupil":11936,"biodegradable":11937,"expensive":11938,"concentrate":11939,"repeatedly":11940,"##inked":11941,"timestamp":11942,"frust":11943,"##activity":11944,"interruption":11945,"##_flow":11946,"oligomer":11947,"gast":11948,"fourier":11949,"attention":11950,"effluent":11951,"haptic":11952,"terephthal":11953,"starts":11954,"translucent":11955,"palm":11956,"contempl":11957,"cash":11958,"distill":11959,"verify":11960,"folder":11961,"extruded":11962,"crystals":11963,"constitutes":11964,"dots":11965,"cancel":11966,"##emic":11967,"tier":11968,"encapsulating":11969,"##iso":11970,"may":11971,"halide":11972,"nasal":11973,"flip_fl":11974,"associate":11975,"marked":11976,"copying":11977,"femoral":11978,"pb":11979,"##elves":11980,"##itride":11981,"breaker":11982,"abstr":11983,"##_loop":11984,"receptors":11985,"click":11986,"ci":11987,"refract":11988,"lamps":11989,"lc":11990,"unn":11991,"copies":11992,"importance":11993,"stead":11994,"rope":11995,"predicting":11996,"footwear":11997,"fruit":11998,"sulfide":11999,"electroc":12000,"distally":12001,"low_":12002,"telescoping":12003,"affect":12004,"nonwoven":12005,"##usable":12006,"articulated":12007,"non_linear":12008,"bif":12009,"stimulating":12010,"irrigation":12011,"healthcare":12012,"##osyl":12013,"diagonal":12014,"pre_de":12015,"sectors":12016,"stresses":12017,"are":12018,"sports":12019,"##ocal":12020,"##arium":12021,"eyes":12022,"##erile":12023,"uplo":12024,"##ilyl":12025,"non_conductive":12026,"firearm":12027,"clothing":12028,"mutation":12029,"translating":12030,"reaching":12031,"impair":12032,"fibr":12033,"involving":12034,"decryption":12035,"hand_h":12036,"possibly":12037,"databases":12038,"pn":12039,"polystyrene":12040,"##iencies":12041,"prostate":12042,"purge":12043,"raising":12044,"liver":12045,"perforations":12046,"##roscopic":12047,"answer":12048,"shower":12049,"subcar":12050,"reply":12051,"compensated":12052,"revolution":12053,"keeping":12054,"##ultip":12055,"##electrode":12056,"##_to_digital":12057,"quantit":12058,"packaged":12059,"places":12060,"restraint":12061,"absorbed":12062,"##izations":12063,"scattered":12064,"agric":12065,"##_cl":12066,"toothed":12067,"definitions":12068,"duplex":12069,"polarizer":12070,"subassembly":12071,"mother":12072,"reagents":12073,"undesired":12074,"polymorph":12075,"orders":12076,"cradle":12077,"policies":12078,"none":12079,"retransm":12080,"thicknesses":12081,"refraction":12082,"asynchron":12083,"feedstock":12084,"##iper":12085,"interfering":12086,"cas":12087,"##_red":12088,"uppermost":12089,"waterm":12090,"wings":12091,"##_fuel":12092,"scaffold":12093,"diluent":12094,"rc":12095,"articulation":12096,"##rames":12097,"consumers":12098,"amyl":12099,"hv":12100,"memories":12101,"##eu":12102,"##aterial":12103,"surfactants":12104,"dys":12105,"##ococc":12106,"thing":12107,"webp":12108,"pel":12109,"sad":12110,"##ondition":12111,"hermetic":12112,"##ussion":12113,"render":12114,"hull":12115,"finally":12116,"metabolism":12117,"subjecting":12118,"designing":12119,"##ocyte":12120,"vertex":12121,"blocked":12122,"subjects":12123,"housings":12124,"##_wall":12125,"breakdown":12126,"unlocking":12127,"##otion":12128,"sandwiched":12129,"hydrochlor":12130,"always":12131,"##ak":12132,"instruct":12133,"##_mir":12134,"tiles":12135,"subf":12136,"##sulfonyl":12137,"thromb":12138,"allerg":12139,"##ataly":12140,"##_substituted":12141,"pharmac":12142,"##acillus":12143,"centi":12144,"autonom":12145,"refin":12146,"done":12147,"tightening":12148,"bubble":12149,"##lier":12150,"played":12151,"##itig":12152,"mattress":12153,"##herence":12154,"yellow":12155,"superc":12156,"inversion":12157,"chest":12158,"##ived":12159,"coag":12160,"textual":12161,"classified":12162,"fundamental":12163,"cancellation":12164,"##inate":12165,"trunk":12166,"microelectronic":12167,"sweep":12168,"hand_held":12169,"ts":12170,"orific":12171,"anion":12172,"pivotably":12173,"classifying":12174,"##iter":12175,"gover":12176,"telem":12177,"##titution":12178,"breaking":12179,"cleav":12180,"##just":12181,"title":12182,"challenge":12183,"una":12184,"cardio":12185,"adop":12186,"##_facing":12187,"##_plane":12188,"practical":12189,"##_conver":12190,"subp":12191,"##_direction":12192,"revol":12193,"shallow":12194,"non_a":12195,"buckle":12196,"shopping":12197,"thio":12198,"confer":12199,"biologically":12200,"##_imp":12201,"quadrature":12202,"##ocytes":12203,"assistant":12204,"pre_defined":12205,"##lows":12206,"vendor":12207,"planning":12208,"resting":12209,"personalized":12210,"orifices":12211,"converters":12212,"##ematical":12213,"##uated":12214,"honeycomb":12215,"deal":12216,"inexpensive":12217,"flavor":12218,"recited":12219,"##une":12220,"heteroatoms":12221,"soldering":12222,"existence":12223,"bay":12224,"proliferation":12225,"gan":12226,"##roup":12227,"displaceable":12228,"issuing":12229,"considerable":12230,"formats":12231,"prescri":12232,"restoring":12233,"congestion":12234,"##att":12235,"foundation":12236,"keyp":12237,"mould":12238,"neuro":12239,"##ocon":12240,"genome":12241,"nonline":12242,"listed":12243,"true":12244,"mathematical":12245,"suitably":12246,"recovered":12247,"mitig":12248,"gy":12249,"##valid":12250,"indications":12251,"trend":12252,"complexes":12253,"conjugated":12254,"suppressing":12255,"pcr":12256,"##itable":12257,"##ateral":12258,"plasm":12259,"##uniform":12260,"luminous":12261,"unknown":12262,"trusted":12263,"eliminating":12264,"symptoms":12265,"transponder":12266,"##fn":12267,"laund":12268,"ds":12269,"templ":12270,"fun":12271,"enrich":12272,"upstanding":12273,"stated":12274,"launch":12275,"orientations":12276,"presents":12277,"plug_in":12278,"projectile":12279,"continuation_in":12280,"ethylen":12281,"partitioning":12282,"##apse":12283,"depends":12284,"almost":12285,"palladium":12286,"functioning":12287,"heterocycloalkyl":12288,"halves":12289,"##_sided":12290,"lan":12291,"loudsp":12292,"bucket":12293,"opportunity":12294,"obstacle":12295,"interacting":12296,"contribution":12297,"withdrawal":12298,"panc":12299,"hc":12300,"locate":12301,"piercing":12302,"infant":12303,"wafers":12304,"workload":12305,"drops":12306,"cyan":12307,"bumper":12308,"cultiv":12309,"restraining":12310,"grasping":12311,"extru":12312,"##agonal":12313,"robust":12314,"##pc":12315,"continuation_in_part":12316,"fewer":12317,"ventricular":12318,"##nail":12319,"histogram":12320,"inverting":12321,"gastro":12322,"tested":12323,"entertainment":12324,"photographic":12325,"grown":12326,"##xtr":12327,"microp":12328,"achieving":12329,"##inetic":12330,"expressing":12331,"##thm":12332,"billing":12333,"##umber":12334,"plugs":12335,"smallest":12336,"centering":12337,"feel":12338,"computational":12339,"##oxysilane":12340,"bidirectional":12341,"outdoor":12342,"##aled":12343,"specifications":12344,"##opr":12345,"cytok":12346,"manufacturer":12347,"##isely":12348,"pulmonary":12349,"aralkyl":12350,"nitr":12351,"wake":12352,"##pers":12353,"blowing":12354,"coupon":12355,"prech":12356,"provisioning":12357,"ring_shaped":12358,"meets":12359,"automation":12360,"quater":12361,"outboard":12362,"##omain":12363,"outline":12364,"coiled":12365,"##unching":12366,"exception":12367,"insu":12368,"ozone":12369,"refractory":12370,"inertial":12371,"instructing":12372,"pick_up":12373,"##ocard":12374,"##functional":12375,"##ae":12376,"urethane":12377,"##_but":12378,"receptacles":12379,"l_shaped":12380,"shadow":12381,"reasons":12382,"snow":12383,"winning":12384,"relevance":12385,"coff":12386,"partner":12387,"invest":12388,"vaccine":12389,"encapsulant":12390,"fishing":12391,"##inic":12392,"co_":12393,"##itudes":12394,"addressed":12395,"agre":12396,"##play":12397,"sterile":12398,"##idden":12399,"##_connected":12400,"maps":12401,"crosslinked":12402,"backside":12403,"sleeves":12404,"##inf":12405,"##image":12406,"nutri":12407,"##eye":12408,"analog_to_digital":12409,"ascer":12410,"embry":12411,"##agraph":12412,"reflectance":12413,"trimethyl":12414,"broadband":12415,"##arter":12416,"insect":12417,"##_deri":12418,"chord":12419,"prompt":12420,"zeol":12421,"steady":12422,"backrest":12423,"decode":12424,"authority":12425,"vag":12426,"backbone":12427,"sque":12428,"##_data":12429,"epitope":12430,"##_exp":12431,"catalysts":12432,"flank":12433,"##ircular":12434,"started":12435,"durability":12436,"biomark":12437,"retractor":12438,"mc":12439,"invalid":12440,"##ensible":12441,"study":12442,"inflammation":12443,"constituents":12444,"protector":12445,"mirrors":12446,"hip":12447,"bags":12448,"nand":12449,"egr":12450,"##athy":12451,"electrophot":12452,"pap":12453,"waiting":12454,"aw":12455,"##hydr":12456,"stomach":12457,"alb":12458,"shunt":12459,"topical":12460,"transc":12461,"ht":12462,"multi_p":12463,"##points":12464,"##ultiplex":12465,"holders":12466,"immunoglob":12467,"##ho":12468,"##oll":12469,"wrapping":12470,"unl":12471,"tunable":12472,"##_component":12473,"renal":12474,"##plast":12475,"hydrogel":12476,"deceleration":12477,"regardless":12478,"electromagn":12479,"millimeters":12480,"eliminate":12481,"inflated":12482,"chim":12483,"multiplexed":12484,"optimizing":12485,"curtain":12486,"sounds":12487,"oval":12488,"##ulosic":12489,"lign":12490,"ferro":12491,"swir":12492,"desc":12493,"faster":12494,"##pon":12495,"snapshot":12496,"lanc":12497,"privacy":12498,"agricult":12499,"virtue":12500,"##idium":12501,"specify":12502,"##pyr":12503,"oled":12504,"alkylamino":12505,"platforms":12506,"herbic":12507,"avoided":12508,"reversible":12509,"imaginary":12510,"phenol":12511,"money":12512,"precisely":12513,"ace":12514,"hitch":12515,"team":12516,"rocker":12517,"##_to_p":12518,"adhesives":12519,"overlapped":12520,"deflect":12521,"pallet":12522,"##lets":12523,"##imuth":12524,"##oring":12525,"##ethe":12526,"asymmetric":12527,"volumetric":12528,"##hex":12529,"##odic":12530,"transgenic":12531,"passageways":12532,"metallization":12533,"lithography":12534,"accident":12535,"incremental":12536,"##quir":12537,"accesses":12538,"regulatory":12539,"superimposed":12540,"##tiary":12541,"keypad":12542,"rg":12543,"db":12544,"workst":12545,"stabilized":12546,"##romic":12547,"coffee":12548,"paragraph":12549,"##kew":12550,"##anged":12551,"##idene":12552,"##_for":12553,"exchanging":12554,"ofdm":12555,"##flamm":12556,"sprocket":12557,"tn":12558,"##onia":12559,"turboch":12560,"synthesized":12561,"sett":12562,"luminescence":12563,"##_se":12564,"organism":12565,"manipulating":12566,"templates":12567,"elongation":12568,"##imidaz":12569,"designating":12570,"centered":12571,"furniture":12572,"azimuth":12573,"adjuster":12574,"delimit":12575,"param":12576,"##hold":12577,"harvesting":12578,"piping":12579,"differentiation":12580,"##oprotein":12581,"##anum":12582,"shooting":12583,"##bac":12584,"discontinuous":12585,"methanol":12586,"##aceous":12587,"consumed":12588,"##ematic":12589,"shifter":12590,"antisense":12591,"things":12592,"retic":12593,"friend":12594,"##_defined":12595,"inhibits":12596,"squee":12597,"efficacy":12598,"fluorinated":12599,"hybridization":12600,"venting":12601,"intermediary":12602,"##_induced":12603,"pulp":12604,"##olip":12605,"##_generating":12606,"abuts":12607,"marketing":12608,"##gence":12609,"yarns":12610,"unp":12611,"facilities":12612,"bellows":12613,"impulse":12614,"##rolog":12615,"allowable":12616,"refrigerator":12617,"pertaining":12618,"ladder":12619,"cotton":12620,"colorant":12621,"##fins":12622,"webpage":12623,"wrapped":12624,"telephony":12625,"##_step":12626,"interconnects":12627,"accepted":12628,"slab":12629,"reported":12630,"viol":12631,"rt":12632,"continuing":12633,"non_limiting":12634,"primarily":12635,"##_ser":12636,"alkoxycarbonyl":12637,"rev":12638,"dosing":12639,"sir":12640,"##pherical":12641,"glue":12642,"logging":12643,"pedestal":12644,"flatten":12645,"##_ind":12646,"difficulty":12647,"##osome":12648,"##etallic":12649,"##ests":12650,"##_br":12651,"electros":12652,"##ociated":12653,"##idirectional":12654,"stow":12655,"hall":12656,"pancr":12657,"glove":12658,"carbohydrate":12659,"scrub":12660,"encoun":12661,"##aign":12662,"replaceable":12663,"##elt":12664,"truncated":12665,"administrator":12666,"applicant":12667,"##thr":12668,"aforethe":12669,"triggered":12670,"xml":12671,"networked":12672,"phy":12673,"minimizing":12674,"tertiary":12675,"##_the":12676,"##_range":12677,"-&":12678,"##_conductive":12679,"chromatography":12680,"conce":12681,"diction":12682,"heterocycle":12683,"##_chain":12684,"nb":12685,"quantif":12686,"##east":12687,"engineering":12688,"interrupted":12689,"claw":12690,"tetrahydro":12691,"non_t":12692,"airway":12693,"aler":12694,"deflecting":12695,"induce":12696,"##_mounted":12697,"earlier":12698,"extensive":12699,"##_rele":12700,"carton":12701,"agonist":12702,"carcinoma":12703,"##_driven":12704,"campaign":12705,"condensed":12706,"zr":12707,"guarant":12708,"aberration":12709,"##ignment":12710,"dispense":12711,"healing":12712,"lithographic":12713,"replace":12714,"##_air":12715,"contemplated":12716,"##rolling":12717,"clamped":12718,"ideal":12719,"##rose":12720,"tomography":12721,"agit":12722,"mate":12723,"grains":12724,"ventil":12725,"mism":12726,"dataset":12727,"electroluminescent":12728,"boat":12729,"survey":12730,"characterizing":12731,"stretching":12732,"adsorbent":12733,"cham":12734,"##_lock":12735,"##kle":12736,"microorganisms":12737,"rolled":12738,"qos":12739,"official":12740,"spok":12741,"unauth":12742,"##ethanol":12743,"lugs":12744,"nonlinear":12745,"symmetric":12746,"funnel":12747,"v_shaped":12748,"immersion":12749,"adhering":12750,"##rosis":12751,"divers":12752,"cumulative":12753,"##dy":12754,"aluminium":12755,".&":12756,"complic":12757,"turbul":12758,"##_transmitting":12759,"polygon":12760,"worm":12761,"formulae":12762,"retransmission":12763,"sessions":12764,"grams":12765,"occlu":12766,"tendency":12767,"rhe":12768,"##ophosph":12769,"flue":12770,"nic":12771,"##_reg":12772,"attitude":12773,"eliminated":12774,"curves":12775,"broken":12776,"appliances":12777,"##gens":12778,"##bium":12779,"##_eye":12780,"dispersing":12781,"stear":12782,"##vehic":12783,"reads":12784,"##_ext":12785,"satisfying":12786,"indirectly":12787,"fal":12788,"overflow":12789,"##iphenyl":12790,"handler":12791,"coming":12792,"chel":12793,"##ocular":12794,"extremity":12795,"coherent":12796,"liquef":12797,"mrna":12798,"ld":12799,"##orous":12800,"##structures":12801,"vertebrae":12802,"pret":12803,"viewpoint":12804,"##_block":12805,"monolithic":12806,"##ounting":12807,"perce":12808,"##istry":12809,"extracellular":12810,"##ochemical":12811,"microl":12812,"methane":12813,"credentials":12814,"##ogenesis":12815,"asynchronous":12816,"progression":12817,"thumbnail":12818,"translated":12819,"cholester":12820,"laid":12821,"psi":12822,"inherent":12823,"##_functional":12824,"involve":12825,"exclusive":12826,"solved":12827,"##aa":12828,"dialkyl":12829,"pyro":12830,"former":12831,"latex":12832,"conversation":12833,"weigh":12834,"discs":12835,"##_gu":12836,"responding":12837,"delays":12838,"bridging":12839,"##med":12840,"spi":12841,"exhibiting":12842,"pull_up":12843,"ingress":12844,"##aking":12845,"imaged":12846,"##_fit":12847,"##eakers":12848,"daily":12849,"##_absorbing":12850,"mann":12851,"agricultural":12852,"##ics":12853,"##_switch":12854,"false":12855,"hydrolysis":12856,"recl":12857,"promp":12858,"angularly":12859,"abd":12860,"sort":12861,"laundry":12862,"indoor":12863,"waterproof":12864,"closes":12865,"##amate":12866,"frequently":12867,"##_so":12868,"n_channel":12869,"derm":12870,"contextual":12871,"bod":12872,"dog":12873,"pod":12874,"ui":12875,"phenomenon":12876,"twisted":12877,"protuber":12878,"annotation":12879,"ophthal":12880,"disposition":12881,"##ypropyl":12882,"unnecess":12883,"chromatic":12884,"##avail":12885,"max":12886,"##_be":12887,"effecting":12888,"##obacter":12889,"torso":12890,"persistent":12891,"pull_down":12892,"dependency":12893,"##gue":12894,"restoration":12895,"equil":12896,"egress":12897,"##uzz":12898,"get":12899,"bat":12900,"buyer":12901,"urine":12902,"non_h":12903,"api":12904,"protease":12905,"recognize":12906,"##ender":12907,"##hed":12908,"implants":12909,"rigidly":12910,"marine":12911,"old":12912,"trape":12913,"gradation":12914,"debug":12915,"##itary":12916,"returns":12917,"##phones":12918,"interchangeable":12919,"prohib":12920,"##_scale":12921,"tack":12922,"phrases":12923,"plus":12924,"##fluoroethylene":12925,"studies":12926,"overview":12927,"lifetime":12928,"scler":12929,"tilted":12930,"attempts":12931,"polyacryl":12932,"##_resol":12933,"vitro":12934,"adverse":12935,"admix":12936,"##fol":12937,"hypoth":12938,"obvious":12939,"scoring":12940,"##integ":12941,"##aded":12942,"organized":12943,"encirc":12944,"skew":12945,"funds":12946,"o_ring":12947,"suggested":12948,"danger":12949,"lightweight":12950,"##estic":12951,"one_piece":12952,"inves":12953,"doors":12954,"##di":12955,"blast":12956,"propeller":12957,"clay":12958,"variance":12959,"actually":12960,"benzene":12961,"cuts":12962,"sintering":12963,"##alty":12964,"quart":12965,"finite":12966,"disconnect":12967,"watermark":12968,"##_derived":12969,"spectra":12970,"subsets":12971,"##urring":12972,"anisotropic":12973,"##ushes":12974,"annex":12975,"##balance":12976,"securement":12977,"##amoyl":12978,"sulfonic":12979,"hammer":12980,"ordering":12981,"##inter":12982,"rup":12983,"inquir":12984,"trapez":12985,"bad":12986,"activator":12987,"protrude":12988,"apr":12989,"atrial":12990,"starter":12991,"##_board":12992,"##atitis":12993,"propos":12994,"yeast":12995,"greatly":12996,"##flammatory":12997,"##_order":12998,"contoured":12999,"smoothing":13000,"##factory":13001,"##channel":13002,"##uli":13003,"boxes":13004,"sequencing":13005,"trade":13006,"##vehicle":13007,"##_id":13008,"##ignal":13009,"cleavage":13010,"##amides":13011,"inb":13012,"##eer":13013,"osm":13014,"maneu":13015,"jig":13016,"particulates":13017,"thermost":13018,"transit":13019,"##osine":13020,"saddle":13021,"aerodynamic":13022,"chemicals":13023,"ru":13024,"adjustments":13025,"tl":13026,"wal":13027,"telescopic":13028,"##activated":13029,"glycerol":13030,"##ocyclic":13031,"treatments":13032,"##ortions":13033,"##aping":13034,"chamfer":13035,"hsa":13036,"balanced":13037,"dirt":13038,"modifier":13039,"gp":13040,"elliptical":13041,"##_i":13042,"coloring":13043,"phthal":13044,"differently":13045,"pert":13046,"reliably":13047,"reconstructed":13048,"questions":13049,"##rect":13050,"continue":13051,"##eh":13052,"unauthorized":13053,"tcp":13054,"comparatively":13055,"##_metal":13056,"navig":13057,"bitstream":13058,"helmet":13059,"disinf":13060,"##anediol":13061,"disposal":13062,"non_n":13063,"rejection":13064,"diisocyanate":13065,"inertia":13066,"regulate":13067,"quartz":13068,"touch_sensitive":13069,"lists":13070,"stylus":13071,"##ocarbonyl":13072,"##iction":13073,"striking":13074,"wlan":13075,"immunoglobulin":13076,"vein":13077,"sd":13078,"viscous":13079,"colon":13080,"indentation":13081,"nac":13082,"isopropyl":13083,"concerned":13084,"arterial":13085,"applicability":13086,"##_form":13087,"##com":13088,"transmitters":13089,"ducts":13090,"guest":13091,"ninth":13092,"##rs":13093,"puncture":13094,"##ermic":13095,"varied":13096,"classifier":13097,"##leys":13098,"disabling":13099,"indices":13100,"out_of":13101,"bud":13102,"correlating":13103,"convenience":13104,"non_uniform":13105,"##ophil":13106,"metabolic":13107,"runtime":13108,"terminated":13109,"compatibility":13110,"anti_c":13111,"experim":13112,"dictionary":13113,"yaw":13114,"equalization":13115,"##ammonium":13116,"fails":13117,"##_over":13118,"htt":13119,"chemother":13120,"grant":13121,"operators":13122,"propell":13123,"spots":13124,"insufficient":13125,"bristles":13126,"khz":13127,"flip_flop":13128,"currency":13129,"sync":13130,"mainly":13131,"spreader":13132,"biops":13133,"extendable":13134,"suppressed":13135,"terephthalate":13136,"##verte":13137,"##ielding":13138,"##wash":13139,"electromechanical":13140,"packer":13141,"##mium":13142,"microorganism":13143,"prolong":13144,"avat":13145,"multiplying":13146,"autonomous":13147,"ejector":13148,"sic":13149,"buffering":13150,"##_domain":13151,"polysaccharide":13152,"institution":13153,"ath":13154,"##_noise":13155,"##ocell":13156,"uniformity":13157,"consistency":13158,"demon":13159,"repetition":13160,"hormone":13161,"paddle":13162,"escape":13163,"bil":13164,"analys":13165,"tet":13166,"##turing":13167,"chute":13168,"attain":13169,"##ectin":13170,"numerals":13171,"scenario":13172,"##anced":13173,"negoti":13174,"complicated":13175,"inferior":13176,"dissipating":13177,"fermentation":13178,"##ophen":13179,"markup":13180,"##ulas":13181,"##_effect":13182,"adip":13183,"disconnected":13184,"stiffening":13185,"employs":13186,"authenticated":13187,"demonstr":13188,"evaluated":13189,"bic":13190,"hexa":13191,"dram":13192,"##osa":13193,"##sheet":13194,"##orb":13195,"##structured":13196,"##aching":13197,"scin":13198,"##ores":13199,"##phenol":13200,"threat":13201,"cubic":13202,"##zen":13203,"##_ar":13204,"coc":13205,"##undred":13206,"proof":13207,"##ortex":13208,"equivalents":13209,"formations":13210,"##pple":13211,"diagnosing":13212,"##tude":13213,"national":13214,"dryer":13215,"thro":13216,"hardening":13217,"lu":13218,"quaternary":13219,"juxt":13220,"##_engaging":13221,"successfully":13222,"ledge":13223,"transpl":13224,"turbocharger":13225,"morphological":13226,"withdrawn":13227,"glasses":13228,"occupied":13229,"##onym":13230,"##gage":13231,"interposer":13232,"embedding":13233,"##rone":13234,"##_ret":13235,"##vertebral":13236,"##itizing":13237,"##immune":13238,"vl":13239,"on_line":13240,"median":13241,"##ococcus":13242,"##_adjust":13243,"##endant":13244,"##_sized":13245,"pressure_sensitive":13246,"##_dep":13247,"transparency":13248,"replica":13249,"investig":13250,"beat":13251,"som":13252,"thresholds":13253,"hologram":13254,"magneto":13255,"pile":13256,"lesser":13257,"depar":13258,"pane":13259,"##_hand":13260,"centralized":13261,"analytical":13262,"tm":13263,"signatures":13264,"quantitative":13265,"##_top":13266,"expander":13267,"##zero":13268,"togg":13269,"spinning":13270,"##lines":13271,"scintill":13272,"ending":13273,"beneficial":13274,"penetrate":13275,"##_cyl":13276,"selections":13277,"juxtap":13278,"thermosetting":13279,"##ulum":13280,"powering":13281,"kid":13282,"innov":13283,"recorder":13284,"esd":13285,"distr":13286,"##istribution":13287,"oxidant":13288,"epith":13289,"visibility":13290,"sept":13291,"##_gl":13292,"##roblock":13293,"serially":13294,"appears":13295,"##_beam":13296,"promote":13297,"referenced":13298,"##gi":13299,"x_rays":13300,"pac":13301,"antigens":13302,"acetic":13303,"cogn":13304,"dialog":13305,"parties":13306,"purity":13307,"reproduced":13308,"hidden":13309,"cardiovascular":13310,"minimized":13311,"reserved":13312,"##_output":13313,"dimming":13314,"proviso":13315,"degener":13316,"malfunction":13317,"##_gas":13318,"divide":13319,"separates":13320,"##oct":13321,"improves":13322,"emitters":13323,"##_length":13324,"vegetable":13325,"schema":13326,"vortex":13327,"heights":13328,"oxidized":13329,"drink":13330,"sb":13331,"ischem":13332,"monoxide":13333,"trifluoromethyl":13334,"voids":13335,"diversity":13336,"##ordination":13337,"coronary":13338,"loudspeaker":13339,"throat":13340,"long_term":13341,"##bow":13342,"##ulatory":13343,"zipper":13344,"interfacing":13345,"waveforms":13346,"fluctu":13347,"##_hyd":13348,"ferroelectric":13349,"redir":13350,"illustrate":13351,"##_display":13352,"bodily":13353,"reposition":13354,"demographic":13355,"##cycl":13356,"##intestinal":13357,"electrophotographic":13358,"recently":13359,"converging":13360,"byte":13361,"##erium":13362,"belts":13363,"distillation":13364,"combiner":13365,"asser":13366,"incorporation":13367,"air_fuel":13368,"pigments":13369,"scaled":13370,"hd":13371,"ery":13372,"prefix":13373,"tio":13374,"titan":13375,"radiant":13376,"##oids":13377,"wi":13378,"consequence":13379,"##ouse":13380,"nth":13381,"##room":13382,"positionable":13383,"##_y":13384,"rene":13385,"waveguides":13386,"##man":13387,"necessarily":13388,"banks":13389,"polyoxy":13390,"cushioning":13391,"deploying":13392,"##text":13393,"touchscreen":13394,"##pieces":13395,"ecg":13396,"##can":13397,"unnecessary":13398,"subtracting":13399,"##elle":13400,"consolid":13401,"continues":13402,"uniquely":13403,"resides":13404,"macroblock":13405,"aggl":13406,"thy":13407,"greatest":13408,"sphere":13409,"obt":13410,"##usive":13411,"vm":13412,"##osilic":13413,"##illance":13414,"big":13415,"succession":13416,"smoke":13417,"sensory":13418,"##accharides":13419,"##asses":13420,"directs":13421,"undergo":13422,"destr":13423,"##_rich":13424,"reflects":13425,"jump":13426,"immobilized":13427,"##hydrogen":13428,"condensate":13429,"optoelectronic":13430,"volts":13431,"multiplier":13432,"##trans":13433,"lac":13434,"perfluor":13435,"lean":13436,"##bling":13437,"thor":13438,"gift":13439,"ohmic":13440,"distinguish":13441,"nutritional":13442,"inbred":13443,"actuate":13444,"surveillance":13445,"pathways":13446,"laptop":13447,"##oiding":13448,"bi_directional":13449,"ejected":13450,"##cal":13451,"bir":13452,"chat":13453,"meters":13454,"continued":13455,"##yclic":13456,"##icious":13457,"promoting":13458,"sulfon":13459,"http":13460,"abrasion":13461,"p_channel":13462,"tobac":13463,"describe":13464,"disable":13465,"cartridges":13466,"jobs":13467,"recycling":13468,"##ecast":13469,"depressed":13470,"propagating":13471,"pistons":13472,"supplementary":13473,"triangle":13474,"misal":13475,"##carbyl":13476,"blending":13477,"booster":13478,"endothelial":13479,"saved":13480,"characterization":13481,"micro_":13482,"tobacco":13483,"conv":13484,"dyes":13485,"offering":13486,"biopsy":13487,"setpoint":13488,"avoiding":13489,"coordination":13490,"##app":13491,"##_member":13492,"anti_in":13493,"finishing":13494,"calibrating":13495,"##_number":13496,"orb":13497,"altitude":13498,"##butyl":13499,"perforation":13500,"intervertebral":13501,"steer":13502,"collectively":13503,"alg":13504,"##pital":13505,"cleaned":13506,"detached":13507,"##_crystal":13508,"tangential":13509,"virtually":13510,"##port":13511,"briefly":13512,"downloaded":13513,"sterilization":13514,"shade":13515,"hundred":13516,"##erving":13517,"##ils":13518,"dissolution":13519,"fits":13520,"##iented":13521,"gathering":13522,"intersects":13523,"insoluble":13524,"##opyr":13525,"cartil":13526,"##uple":13527,"boiler":13528,"assisting":13529,"displacing":13530,"rewr":13531,"published":13532,"parsing":13533,"subunit":13534,"digitally":13535,"slotted":13536,"rr":13537,"##cellulose":13538,"carbons":13539,"descriptive":13540,"bioactive":13541,"annexed":13542,"watch":13543,"##oprene":13544,"constructions":13545,"enforc":13546,"##_position":13547,"##icle":13548,"equally":13549,"assessing":13550,"solv":13551,"downloading":13552,"##pn":13553,"park":13554,"fati":13555,"##ocus":13556,"sie":13557,"sloped":13558,"equations":13559,"standardized":13560,"microbial":13561,"energized":13562,"flowable":13563,"mover":13564,"lesion":13565,"insertable":13566,"mri":13567,"spectrometer":13568,"needles":13569,"impregnated":13570,"hospital":13571,"heterogeneous":13572,"competi":13573,"##ofil":13574,"decoupling":13575,"##ilities":13576,"exceeded":13577,"augmented":13578,"##ibrill":13579,"laminating":13580,"zeolite":13581,"pre_c":13582,"subscribers":13583,"profession":13584,"##_permeable":13585,"short_circuit":13586,"##tium":13587,"photon":13588,"animation":13589,"condensing":13590,"##onally":13591,"alteration":13592,"referring":13593,"govern":13594,"discussion":13595,"positively":13596,"login":13597,"savings":13598,"##ky":13599,"nio":13600,"intersect":13601,"paired":13602,"built_in":13603,"rn":13604,"##otyp":13605,"reduct":13606,"autoimmune":13607,"##esters":13608,"non_magnetic":13609,"inlets":13610,"##_electric":13611,"nearest":13612,"non_contact":13613,"prescription":13614,"##_screen":13615,"alkylthio":13616,"##olymers":13617,"look_up":13618,"chit":13619,"appropriately":13620,"inventor":13621,"forecast":13622,"genomic":13623,"pressurizing":13624,"island":13625,"torsional":13626,"##stand":13627,"##arities":13628,"polyt":13629,"locks":13630,"##coat":13631,"##ults":13632,"validity":13633,"##gent":13634,"nitrate":13635,"##oi":13636,"elimination":13637,"##ias":13638,"cure":13639,"unloading":13640,"vehicular":13641,"kinetic":13642,"tro":13643,"##ione":13644,"segmentation":13645,"endoscopic":13646,"##_vehicle":13647,"cos":13648,"incub":13649,"ash":13650,"invasive":13651,"##ophilic":13652,"##ighter":13653,"pending":13654,"stacks":13655,"reality":13656,"monovalent":13657,"prime":13658,"educ":13659,"workstation":13660,"##ifer":13661,"##entive":13662,"hsa_mir":13663,"##amid":13664,"##cles":13665,"##oot":13666,"trapping":13667,"quarter":13668,"##ll":13669,"##_associated":13670,"rpm":13671,"user_s":13672,"fatigue":13673,"unless":13674,"tanks":13675,"pillars":13676,"##_program":13677,"isolate":13678,"proximally":13679,"anchors":13680,"agreement":13681,"##_cent":13682,"save":13683,"##_light":13684,"non_f":13685,"auction":13686,"unidirectional":13687,"clim":13688,"conflict":13689,"offered":13690,"##olecular":13691,"##grade":13692,"crude":13693,"clamps":13694,"##uminescence":13695,"##uter":13696,"bush":13697,"vial":13698,"ocular":13699,"append":13700,"##drug":13701,"participating":13702,"disconnection":13703,"##oretic":13704,"##shield":13705,"##aming":13706,"commercially":13707,"predom":13708,"foaming":13709,"flywheel":13710,"digitized":13711,"encode":13712,"sweet":13713,"crush":13714,"##ectic":13715,"humans":13716,"restrict":13717,"loos":13718,"##_resolution":13719,"collet":13720,"disabled":13721,"##_coated":13722,"##valently":13723,"co_p":13724,"vibrator":13725,"##rosine":13726,"##rices":13727,"fee":13728,"accumulating":13729,"##timate":13730,"sut":13731,"##af":13732,"advancement":13733,"spare":13734,"##ught":13735,"barium":13736,"##_surface":13737,"epid":13738,"manipulator":13739,"##eptor":13740,"senses":13741,"tracked":13742,"sms":13743,"och":13744,"##_jet":13745,"manipulated":13746,"lubrication":13747,"methylene":13748,"gastrointestinal":13749,"conditioner":13750,"pound":13751,"##strom":13752,"edit":13753,"tris":13754,"expressions":13755,"##mer":13756,"fluctuation":13757,"symmetrically":13758,"##pose":13759,"##critical":13760,"rectangle":13761,"analogue":13762,"dense":13763,"addressing":13764,"mutant":13765,"intensities":13766,"##pent":13767,"integrator":13768,"enforcement":13769,"raman":13770,"proph":13771,"ketone":13772,"switchable":13773,"cel":13774,"##ibrium":13775,"articulating":13776,"introducer":13777,"ethylenically":13778,"bleed":13779,"surpr":13780,"discovered":13781,"excipient":13782,"obstruction":13783,"##_j":13784,"monoch":13785,"##erce":13786,"trays":13787,"metast":13788,"loose":13789,"dressing":13790,"##_div":13791,"extensible":13792,"##gap":13793,"ligands":13794,"dend":13795,"shells":13796,"functionalized":13797,"disengagement":13798,"##tial":13799,"##map":13800,"vh":13801,"jun":13802,"catalog":13803,"kil":13804,"photonic":13805,"##hesive":13806,"blanket":13807,"dichlor":13808,"##esting":13809,"solving":13810,"bringing":13811,"##ocated":13812,"nov":13813,"reform":13814,"photolith":13815,"diamine":13816,"narrower":13817,"cartilage":13818,"cig":13819,"selectivity":13820,"crystallization":13821,"impermeable":13822,"rivet":13823,"moulding":13824,"encrypting":13825,"##oresistive":13826,"sew":13827,"##urate":13828,"maneuver":13829,"unco":13830,"threading":13831,"calibrated":13832,"trading":13833,"hanging":13834,"flushing":13835,"travels":13836,"regenerative":13837,"interven":13838,"geometrical":13839,"productivity":13840,"missing":13841,"##_voltage":13842,"accession":13843,"consuming":13844,"disturbance":13845,"synthesizing":13846,"##_app":13847,"translational":13848,"retracting":13849,"renew":13850,"counters":13851,"foreground":13852,"gut":13853,"hemis":13854,"##_coupled":13855,"##inations":13856,"imper":13857,"likewise":13858,"##ios":13859,"household":13860,"hereto":13861,"sockets":13862,"anticip":13863,"ensuring":13864,"##atching":13865,"start_up":13866,"##_value":13867,"myocard":13868,"mud":13869,"frozen":13870,"igg":13871,"commod":13872,"privile":13873,"du":13874,"tibial":13875,"slices":13876,"gaz":13877,"auger":13878,"kidney":13879,"##onucle":13880,"##articles":13881,"deficiencies":13882,"neutron":13883,"bounded":13884,"correctly":13885,"cross_linking":13886,"merchand":13887,"compreh":13888,"united":13889,"popular":13890,"concentrically":13891,"surgeon":13892,"nested":13893,"branching":13894,"##case":13895,"fragr":13896,"substitute":13897,"synt":13898,"works":13899,"mist":13900,"pi":13901,"radio_frequency":13902,"multiplication":13903,"inboard":13904,"gearbox":13905,"succin":13906,"shortest":13907,"##_hal":13908,"ship":13909,"strike":13910,"scheduler":13911,"seller":13912,"diffusing":13913,"freezing":13914,"compil":13915,"##ivity":13916,"giving":13917,"cross_linked":13918,"org":13919,"##sole":13920,"##_water":13921,"doub":13922,"affecting":13923,"cut_out":13924,"intermittent":13925,"aging":13926,"shoulders":13927,"##_stranded":13928,"sca":13929,"electrosurgical":13930,"enzymatic":13931,"coin":13932,"planet":13933,"mb":13934,"non_d":13935,"##eph":13936,"ever":13937,"distribute":13938,"##_gate":13939,"arthritis":13940,"nipple":13941,"vanadium":13942,"fair":13943,"butadiene":13944,"##usc":13945,"detachment":13946,"pancrea":13947,"inhalation":13948,"tumors":13949,"arylalkyl":13950,"##uvant":13951,"prodrug":13952,"walking":13953,"##steine":13954,"implements":13955,"windshield":13956,"primers":13957,"gloss":13958,"##_source":13959,"##_gr":13960,"subpixel":13961,"##_use":13962,"latches":13963,"##ometry":13964,"presses":13965,"advertiser":13966,"aryloxy":13967,"formulas":13968,"tok":13969,"oligonucleotides":13970,"thiol":13971,"##_proof":13972,"firew":13973,"deleting":13974,"##olytic":13975,"overh":13976,"shifts":13977,"angstrom":13978,"stay":13979,"colloidal":13980,"septum":13981,"lips":13982,"pollen":13983,"##acetic":13984,"benzo":13985,"nerv":13986,"immers":13987,"##asers":13988,"##space":13989,"modulate":13990,"rins":13991,"##abled":13992,"depressions":13993,"fum":13994,"touching":13995,"supplier":13996,"fla":13997,"##fs":13998,"unused":13999,"gly":14000,"suspending":14001,"dicarboxylic":14002,"cream":14003,"prophyl":14004,"electromagnet":14005,"##uri":14006,"broadly":14007,"explosive":14008,"##_oriented":14009,"mercap":14010,"lowermost":14011,"rectifying":14012,"separable":14013,"##_density":14014,"electro_optical":14015,"servicing":14016,"centim":14017,"flav":14018,"durable":14019,"energizing":14020,"columnar":14021,"##_electrode":14022,"amines":14023,"disl":14024,"approval":14025,"##aves":14026,"cro":14027,"extractor":14028,"ophthalmic":14029,"emotion":14030,"urge":14031,"phosphoric":14032,"influenz":14033,"zig":14034,"hydrocarbyl":14035,"hexagonal":14036,"ethers":14037,"antif":14038,"wastew":14039,"##_view":14040,"bron":14041,"ruth":14042,"##opoly":14043,"ankle":14044,"macrom":14045,"##oked":14046,"##_bond":14047,"reve":14048,"merely":14049,"fertil":14050,"registry":14051,"##ycin":14052,"unexp":14053,"chimeric":14054,"##ortic":14055,"parall":14056,"carbox":14057,"sulfonyl":14058,"##iner":14059,"deposits":14060,"onset":14061,"ib":14062,"##comings":14063,"shortcomings":14064,"surprising":14065,"labeling":14066,"de_":14067,"stirring":14068,"hafn":14069,"schemes":14070,"stub":14071,"tenth":14072,"slud":14073,"demultiplex":14074,"merging":14075,"cooperative":14076,"##eleton":14077,"subd":14078,"granules":14079,"dt":14080,"##anoic":14081,"delaying":14082,"##_condition":14083,"fusel":14084,"immunogenic":14085,"dash":14086,"tokens":14087,"##rading":14088,"##_element":14089,"spong":14090,"progressively":14091,"##ancer":14092,"plated":14093,"imager":14094,"bobb":14095,"wastewater":14096,"routed":14097,"conforming":14098,"fid":14099,"orn":14100,"bytes":14101,"stretched":14102,"relational":14103,"adjuvant":14104,"##inent":14105,"eryth":14106,"fence":14107,"easier":14108,"doses":14109,"cv":14110,"photons":14111,"collaboration":14112,"motions":14113,"diethyl":14114,"tractor":14115,"phones":14116,"##_oxide":14117,"##pheres":14118,"sentence":14119,"physician":14120,"##azolyl":14121,"parallax":14122,"markings":14123,"constrained":14124,"anisotrop":14125,"elbow":14126,"latched":14127,"cruc":14128,"proton":14129,"}-":14130,"coordinated":14131,"intention":14132,"thiaz":14133,"iteration":14134,"##rations":14135,"heterologous":14136,"precursors":14137,"ensures":14138,"addressable":14139,"##kin":14140,"##opt":14141,"resetting":14142,"dock":14143,"endogenous":14144,"belie":14145,"prepare":14146,"subt":14147,"##lay":14148,"avatar":14149,"scram":14150,"neighborhood":14151,"##eee":14152,"incomp":14153,"shuttle":14154,"utter":14155,"##_supporting":14156,"gives":14157,"children":14158,"ruthenium":14159,"##aric":14160,"chemistry":14161,"stripping":14162,"letter":14163,"scrolling":14164,"pivots":14165,"whenever":14166,"aids":14167,"lanth":14168,"font":14169,"agglomer":14170,"headset":14171,"##_conducting":14172,"##_dc":14173,"undercut":14174,"##eta":14175,"##_active":14176,"bottles":14177,"nervous":14178,"begins":14179,"matrices":14180,"dominant":14181,"tightly":14182,"nucleus":14183,"residing":14184,"ns":14185,"surv":14186,"high_voltage":14187,"precharge":14188,"sustained":14189,"spanning":14190,"reusable":14191,"toxin":14192,"herbicide":14193,"##_per":14194,"antioxidant":14195,"fillers":14196,"equilibrium":14197,"wavef":14198,"##array":14199,"defibrill":14200,"summing":14201,"neither":14202,"halogenated":14203,"##dc":14204,"##_x":14205,"diametrically":14206,"##rint":14207,"##ppler":14208,"laboratory":14209,"marginal":14210,"carc":14211,"mismatch":14212,"##times":14213,"mountable":14214,"functionally":14215,"summar":14216,"ieee":14217,"fuselage":14218,"grounded":14219,"compl":14220,"propellant":14221,"ars":14222,"traum":14223,"pyridine":14224,"unified":14225,"nfc":14226,"tuner":14227,"##thi":14228,"strobe":14229,"##iveness":14230,"##rogen":14231,"light_receiving":14232,"continuity":14233,"##ppet":14234,"infections":14235,"swinging":14236,"##_extending":14237,"exits":14238,"flexure":14239,"##_sl":14240,"cellulosic":14241,"##ership":14242,"crash":14243,"##anoyl":14244,"activates":14245,"equalizer":14246,"##house":14247,"localization":14248,"covalently":14249,"##icking":14250,"scaven":14251,"buffered":14252,"##alities":14253,"##_to_peer":14254,"nc":14255,"##phase":14256,"tunneling":14257,"deleted":14258,"retains":14259,"coplanar":14260,"##osan":14261,"##_rep":14262,"##_modified":14263,"stre":14264,"wearing":14265,"##rh":14266,"fra":14267,"peer_to_peer":14268,"embody":14269,"##_filled":14270,"penta":14271,"hm":14272,"##icyclic":14273,"##_produc":14274,"abl":14275,"speakers":14276,"raise":14277,"accessories":14278,"##ophenyl":14279,"sludge":14280,"explicit":14281,"gastric":14282,"wetting":14283,"##_sub":14284,"##sk":14285,"cognitive":14286,"dialysis":14287,"##oning":14288,"##anch":14289,"bab":14290,"audience":14291,"intraocular":14292,"holographic":14293,"gelatin":14294,"nhc":14295,"bes":14296,"myel":14297,"##_access":14298,"diol":14299,"diverter":14300,"suffering":14301,"startup":14302,"covalent":14303,"precipitation":14304,"##roleum":14305,"lag":14306,"hiv":14307,"demodulation":14308,"dp":14309,"thems":14310,"observer":14311,"sealingly":14312,"deactivation":14313,"toxic":14314,"nearly":14315,"evaluate":14316,"satisfactory":14317,"lobe":14318,"severe":14319,"themselves":14320,"cow":14321,"theore":14322,"explained":14323,"##_color":14324,"screwed":14325,"contaminated":14326,"subsurface":14327,"##_product":14328,"turbines":14329,"aesthetic":14330,"##_alkyl":14331,"necessity":14332,"week":14333,"diphenyl":14334,"estimator":14335,"##structing":14336,"polytetra":14337,"limiter":14338,"softening":14339,"incorrect":14340,"hafnium":14341,"hardened":14342,"subsea":14343,"##arging":14344,"hinges":14345,"##_o":14346,"cleans":14347,"##teenth":14348,"clause":14349,"influenza":14350,"##_signal":14351,"feeds":14352,"recipients":14353,"browsing":14354,"fulfill":14355,"releases":14356,"shim":14357,"camshaft":14358,"months":14359,"song":14360,"reserve":14361,"reflectivity":14362,"pellets":14363,"asphal":14364,"blur":14365,"investment":14366,"##urally":14367,"##_input":14368,"##_z":14369,"purifying":14370,"intercep":14371,"powdered":14372,"##_user":14373,"photom":14374,"multim":14375,"interrogation":14376,"student":14377,"approximation":14378,"grav":14379,"pairing":14380,"psy":14381,"##ichi":14382,"doppler":14383,"europ":14384,"derive":14385,"##crum":14386,"walk":14387,"##retion":14388,"depletion":14389,"##ogens":14390,"##etyl":14391,"mounts":14392,"naphthal":14393,"textured":14394,"hp":14395,"engineered":14396,"powders":14397,"deflected":14398,"phenolic":14399,"landmark":14400,"##oses":14401,"##_dem":14402,"petroleum":14403,"hydroxyalkyl":14404,"pyram":14405,"forcing":14406,"optimize":14407,"footprint":14408,"gm":14409,"weapon":14410,"anc":14411,"protruded":14412,"adjustably":14413,"##_liqu":14414,"undern":14415,"caching":14416,"diffractive":14417,"##acer":14418,"##ppers":14419,"truss":14420,"mated":14421,"microlens":14422,"ng":14423,"##econds":14424,"prongs":14425,"##ethoxysilane":14426,"cvd":14427,"underneath":14428,"##_generated":14429,"conventionally":14430,"organs":14431,
[...]
