{"version":"1.0","truncation":null,"padding":null,"added_tokens":[{"id":0,"special":true,"content":"[UNK]","single_word":false,"lstrip":false,"rstrip":false,"normalized":false},{"id":1,"special":true,"content":"[CLS]","single_word":false,"lstrip":false,"rstrip":false,"normalized":false},{"id":2,"special":true,"content":"[SEP]","single_word":false,"lstrip":false,"rstrip":false,"normalized":false},{"id":3,"special":true,"content":"[PAD]","single_word":false,"lstrip":false,"rstrip":false,"normalized":false},{"id":4,"special":true,"content":"[MASK]","single_word":false,"lstrip":false,"rstrip":false,"normalized":false}],"normalizer":{"type":"Sequence","normalizers":[{"type":"NFD"},{"type":"Lowercase"},{"type":"StripAccents"}]},"pre_tokenizer":{"type":"Sequence","pretokenizers":[{"type":"Whitespace"},{"type":"Digits","individual_digits":true}]},"post_processor":{"type":"TemplateProcessing","single":[{"SpecialToken":{"id":"[CLS]","type_id":0}},{"Sequence":{"id":"A","type_id":0}},{"SpecialToken":{"id":"[SEP]","type_id":0}}],"pair":[{"SpecialToken":{"id":"[CLS]","type_id":0}},{"Sequence":{"id":"A","type_id":0}},{"SpecialToken":{"id":"[SEP]","type_id":0}},{"Sequence":{"id":"B","type_id":1}},{"SpecialToken":{"id":"[SEP]","type_id":1}}],"special_tokens":{"[CLS]":{"id":"[CLS]","ids":[1],"tokens":["[CLS]"]},"[SEP]":{"id":"[SEP]","ids":[2],"tokens":["[SEP]"]}}},"decoder":null,"model":{"type":"WordPiece","unk_token":"[UNK]","continuing_subword_prefix":"##","max_input_chars_per_word":100,"vocab":{"[UNK]":0,"[CLS]":1,"[SEP]":2,"[PAD]":3,"[MASK]":4,"!":5,"\"":6,"#":7,"$":8,"%":9,"&":10,"'":11,"(":12,")":13,"*":14,"+":15,",":16,"-":17,".":18,"/":19,"0":20,"1":21,"2":22,"3":23,"4":24,"5":25,"6":26,"7":27,"8":28,"9":29,":":30,";":31,"<":32,"=":33,">":34,"?":35,"@":36,"[":37,"\\":38,"]":39,"^":40,"_":41,"`":42,"a":43,"b":44,"c":45,"d":46,"e":47,"f":48,"g":49,"h":50,"i":51,"j":52,"k":53,"l":54,"m":55,"n":56,"o":57,"p":58,"q":59,"r":60,"s":61,"t":62,"u":63,"v":64,"w":65,"x":66,"y":67,"z":68,"{":69,"|":70,"}":71,"~":72,"¡":73,"¢":74,"£":75,"¤":76,"¥":77,"¦":78,"§":79,"¨":80,"©":81,"«":82,"¬":83,"­":84,"®":85,"¯":86,"°":87,"±":88,"²":89,"³":90,"´":91,"µ":92,"¶":93,"·":94,"¹":95,"º":96,"»":97,"¼":98,"½":99,"¾":100,"¿":101,"×":102,"ß":103,"æ":104,"÷":105,"ø":106,"ı":107,"ĳ":108,"œ":109,"ƒ":110,"ǝ":111,"ɛ":112,"ʹ":113,"ˆ":114,"ˇ":115,"˘":116,"˚":117,"˜":118,"˝":119,"α":120,"β":121,"γ":122,"δ":123,"ε":124,"ζ":125,"η":126,"θ":127,"ι":128,"κ":129,"λ":130,"μ":131,"ν":132,"ξ":133,"ο":134,"π":135,"ρ":136,"ς":137,"σ":138,"τ":139,"υ":140,"φ":141,"χ":142,"ψ":143,"ω":144,"ϑ":145,"ϒ":146,"ϕ":147,"ϖ":148,"ϛ":149,"ϭ":150,"ϰ":151,"ϱ":152,"ϵ":153,"а":154,"б":155,"в":156,"г":157,"д":158,"е":159,"ж":160,"з":161,"и":162,"к":163,"л":164,"м":165,"н":166,"о":167,"п":168,"р":169,"с":170,"т":171,"у":172,"ф":173,"х":174,"ц":175,"ч":176,"ш":177,"щ":178,"ы":179,"ь":180,"я":181,"ђ":182,"і":183,"ᄀ":184,"ᄁ":185,"ᄂ":186,"ᄃ":187,"ᄄ":188,"ᄅ":189,"ᄆ":190,"ᄇ":191,"ᄈ":192,"ᄉ":193,"ᄋ":194,"ᄌ":195,"ᄎ":196,"ᄏ":197,"ᄐ":198,"ᄑ":199,"ᄒ":200,"ᅡ":201,"ᅢ":202,"ᅣ":203,"ᅥ":204,"ᅦ":205,"ᅧ":206,"ᅨ":207,"ᅩ":208,"ᅪ":209,"ᅬ":210,"ᅭ":211,"ᅮ":212,"ᅯ":213,"ᅱ":214,"ᅲ":215,"ᅳ":216,"ᅴ":217,"ᅵ":218,"ᆨ":219,"ᆫ":220,"ᆭ":221,"ᆯ":222,"ᆱ":223,"ᆲ":224,"ᆷ":225,"ᆸ":226,"ᆹ":227,"ᆺ":228,"ᆻ":229,"ᆼ":230,"ᆽ":231,"ᆾ":232,"ᇀ":233,"ᇂ":234,"​":235,"‐":236,"–":237,"—":238,"―":239,"‗":240,"‘":241,"’":242,"“":243,"”":244,"„":245,"†":246,"‡":247,"•":248,"‥":249,"…":250,"‰":251,"′":252,"″":253,"‴":254,"‵":255,"※":256,"‾":257,"⁄":258,"⁅":259,"⁆":260,"⁠":261,"⁡":262,"⁢":263,"⁣":264,"⁰":265,"⁴":266,"⁵":267,"⁶":268,"⁷":269,"⁸":270,"⁹":271,"⁺":272,"⁻":273,"₀":274,"₁":275,"₂":276,"₃":277,"₄":278,"₅":279,"₆":280,"₇":281,"₈":282,"₉":283,"₋":284,"€":285,"ℂ":286,"℃":287,"℄":288,"ℊ":289,"ℋ":290,"ℌ":291,"ℍ":292,"ℏ":293,"ℐ":294,"ℑ":295,"ℒ":296,"ℓ":297,"ℕ":298,"℘":299,"ℙ":300,"ℚ":301,"ℛ":302,"ℜ":303,"ℝ":304,"™":305,"ℤ":306,"℧":307,"ℬ":308,"ℯ":309,"ℰ":310,"ℱ":311,"ℳ":312,"ℵ":313,"ℸ":314,"ⅆ":315,"ⅇ":316,"ⅈ":317,"⅓":318,"⅔":319,"⅕":320,"⅖":321,"⅗":322,"⅘":323,"⅙":324,"⅚":325,"⅛":326,"⅜":327,"⅝":328,"⅞":329,"ⅰ":330,"ⅱ":331,"ⅲ":332,"ⅳ":333,"ⅴ":334,"ⅵ":335,"ⅹ":336,"←":337,"↑":338,"→":339,"↓":340,"↔":341,"↕":342,"↘":343,"↤":344,"↦":345,"↵":346,"↽":347,"↾":348,"⇀":349,"⇁":350,"⇃":351,"⇄":352,"⇆":353,"⇋":354,"⇌":355,"⇐":356,"⇑":357,"⇒":358,"⇓":359,"⇔":360,"⇕":361,"∀":362,"∂":363,"∃":364,"∅":365,"∇":366,"∈":367,"∋":368,"∏":369,"∐":370,"∑":371,"−":372,"∓":373,"∖":374,"∗":375,"∘":376,"√":377,"∛":378,"∜":379,"∝":380,"∞":381,"∠":382,"∡":383,"∢":384,"∣":385,"∥":386,"∧":387,"∨":388,"∩":389,"∪":390,"∫":391,"∮":392,"∯":393,"∴":394,"∵":395,"∷":396,"∼":397,"≀":398,"≂":399,"≃":400,"≅":401,"≈":402,"≏":403,"≐":404,"≒":405,"≡":406,"≤":407,"≥":408,"≦":409,"≧":410,"≪":411,"≲":412,"≳":413,"≶":414,"≷":415,"≺":416,"≻":417,"≽":418,"⊂":419,"⊃":420,"⊆":421,"⊇":422,"⊎":423,"⊏":424,"⊑":425,"⊓":426,"⊔":427,"⊕":428,"⊖":429,"⊗":430,"⊙":431,"⊚":432,"⊢":433,"⊣":434,"⊤":435,"⊥":436,"⊲":437,"⊳":438,"⋀":439,"⋁":440,"⋂":441,"⋃":442,"⋄":443,"⋅":444,"⋆":445,"⋐":446,"⋒":447,"⋓":448,"⋛":449,"⋮":450,"⋯":451,"⋰":452,"⋱":453,"⌈":454,"⌉":455,"⌊":456,"⌋":457,"⎵":458,"␣":459,"①":460,"②":461,"③":462,"④":463,"⑤":464,"⑥":465,"⑦":466,"⑨":467,"ⓞ":468,"│":469,"┌":470,"┐":471,"└":472,"┘":473,"├":474,"┤":475,"┬":476,"┴":477,"┼":478,"═":479,"■":480,"□":481,"▪":482,"▬":483,"▭":484,"▮":485,"▲":486,"△":487,"▴":488,"▷":489,"►":490,"▼":491,"▽":492,"▾":493,"◆":494,"◇":495,"○":496,"◌":497,"◎":498,"●":499,"◦":500,"◯":501,"★":502,"☆":503,"♀":504,"♂":505,"♡":506,"♣":507,"♥":508,"♦":509,"♧":510,"♪":511,"♭":512,"♮":513,"♯":514,"✓":515,"✔":516,"❖":517,"❘":518,"➢":519,"⟵":520,"⟶":521,"⟷":522,"⟹":523,"⟺":524,"⨯":525,"⩓":526,"⩔":527,"⩵":528,"⩽":529,"⩾":530,"⪡":531,"⪢":532,"⪯":533,"⫬":534,"、":535,"。":536,"〃":537,"々":538,"〇":539,"〈":540,"〉":541,"《":542,"》":543,"」":544,"』":545,"【":546,"】":547,"〔":548,"〕":549,"〖":550,"〗":551,"〚":552,"〛":553,"〜":554,"あ":555,"ぃ":556,"い":557,"う":558,"ぇ":559,"え":560,"ぉ":561,"お":562,"か":563,"き":564,"く":565,"け":566,"こ":567,"さ":568,"し":569,"す":570,"せ":571,"そ":572,"た":573,"ち":574,"っ":575,"つ":576,"て":577,"と":578,"な":579,"に":580,"ぬ":581,"ね":582,"の":583,"は":584,"ひ":585,"ふ":586,"へ":587,"ほ":588,"ま":589,"み":590,"む":591,"め":592,"も":593,"ゃ":594,"や":595,"ゅ":596,"ゆ":597,"ょ":598,"よ":599,"ら":600,"り":601,"る":602,"れ":603,"ろ":604,"わ":605,"ゑ":606,"を":607,"ん":608,"ゝ":609,"ァ":610,"ア":611,"ィ":612,"イ":613,"ゥ":614,"ウ":615,"ェ":616,"エ":617,"ォ":618,"オ":619,"カ":620,"キ":621,"ク":622,"ケ":623,"コ":624,"サ":625,"シ":626,"ス":627,"セ":628,"ソ":629,"タ":630,"チ":631,"ッ":632,"ツ":633,"テ":634,"ト":635,"ナ":636,"ニ":637,"ヌ":638,"ネ":639,"ノ":640,"ハ":641,"ヒ":642,"フ":643,"ヘ":644,"ホ":645,"マ":646,"ミ":647,"ム":648,"メ":649,"モ":650,"ャ":651,"ヤ":652,"ュ":653,"ユ":654,"ョ":655,"ヨ":656,"ラ":657,"リ":658,"ル":659,"レ":660,"ロ":661,"ワ":662,"ヲ":663,"ン":664,"ヵ":665,"・":666,"ー":667,"ヽ":668,"㎃":669,"㎊":670,"㎍":671,"㎎":672,"㎕":673,"㎖":674,"㎚":675,"㎛":676,"㎜":677,"㎝":678,"㎟":679,"㎠":680,"㎡":681,"㏀":682,"㏁":683,"㏄":684,"一":685,"丁":686,"丄":687,"丈":688,"三":689,"上":690,"下":691,"不":692,"与":693,"专":694,"且":695,"丘":696,"丙":697,"业":698,"両":699,"两":700,"並":701,"个":702,"丫":703,"中":704,"丸":705,"丹":706,"为":707,"主":708,"丽":709,"乃":710,"义":711,"之":712,"乍":713,"乏":714,"乗":715,"乙":716,"乱":717,"乳":718,"乾":719,"了":720,"予":721,"事":722,"二":723,"于":724,"互":725,"井":726,"亘":727,"亜":728,"亞":729,"亟":730,"亢":731,"交":732,"京":733,"人":734,"什":735,"仁":736,"仅":737,"介":738,"从":739,"仔":740,"仕":741,"他":742,"付":743,"仙":744,"代":745,"令":746,"以":747,"仪":748,"仮":749,"仰":750,"仲":751,"件":752,"任":753,"伊":754,"伏":755,"伐":756,"休":757,"优":758,"会":759,"伝":760,"伞":761,"传":762,"伴":763,"伸":764,"似":765,"但":766,"位":767,"低":768,"住":769,"佑":770,"体":771,"何":772,"余":773,"作":774,"佳":775,"併":776,"使":777,"來":778,"例":779,"供":780,"価":781,"侧":782,"侫":783,"侭":784,"侮":785,"侯":786,"侵":787,"便":788,"係":789,"促":790,"俊":791,"保":792,"俟":793,"信":794,"俣":795,"修":796,"俯":797,"俵":798,"俺":799,"倉":800,"個":801,"倍":802,"倒":803,"倚":804,"借":805,"倣":806,"値":807,"倦":808,"偏":809,"停":810,"健":811,"側":812,"偶":813,"偽":814,"傘":815,"備":816,"傷":817,"傾":818,"働":819,"像":820,"優":821,"元":822,"充":823,"先":824,"光":825,"克":826,"免":827,"兎":828,"入":829,"全":830,"公":831,"六":832,"兰":833,"共":834,"关":835,"其":836,"具":837,"典":838,"兼":839,"冂":840,"内":841,"円":842,"再":843,"写":844,"冠":845,"冨":846,"冬":847,"决":848,"冶":849,"冷":850,"凋":851,"凌":852,"凍":853,"凝":854,"凡":855,"処":856,"凧":857,"凸":858,"凹":859,"出":860,"函":861,"刀":862,"刃":863,"分":864,"切":865,"刈":866,"刑":867,"列":868,"初":869,"判":870,"別":871,"利":872,"别":873,"到":874,"制":875,"刷":876,"券":877,"刺":878,"刻":879,"剃":880,"則":881,"削":882,"前":883,"剖":884,"剛":885,"剤":886,"剥":887,"剪":888,"副":889,"割":890,"創":891,"劈":892,"力":893,"功":894,"加":895,"劣":896,"动":897,"助":898,"励":899,"労":900,"効":901,"動":902,"勘":903,"勝":904,"勢":905,"勤":906,"勲":907,"勾":908,"匀":909,"包":910,"化":911,"匡":912,"匣":913,"匪":914,"匹":915,"区":916,"医":917,"十":918,"千":919,"升":920,"午":921,"卉":922,"半":923,"华":924,"卑":925,"協":926,"南":927,"単":928,"博":929,"卜":930,"占":931,"卡":932,"卫":933,"印":934,"即":935,"却":936,"卵":937,"卷":938,"卸":939,"压":940,"厘":941,"厚":942,"原":943,"厭":944,"厳":945,"去":946,"又":947,"叉":948,"及":949,"双":950,"反":951,"収":952,"发":953,"取":954,"受":955,"叙":956,"叢":957,"口":958,"古":959,"另":960,"叩":961,"可":962,"台":963,"右":964,"叶":965,"号":966,"司":967,"各":968,"合":969,"吉":970,"吊":971,"吋":972,"同":973,"名":974,"后":975,"吐":976,"向":977,"君":978,"吠":979,"否":980,"含":981,"启":982,"吸":983,"吹":984,"吻":985,"呂":986,"呈":987,"呉":988,"员":989,"呦":990,"周":991,"味":992,"呼":993,"命":994,"和":995,"咖":996,"咬":997,"咳":998,"品":999,"員":1000,"哥":1001,"哺":1002,"唄":1003,"唇":1004,"唐":1005,"唔":1006,"唖":1007,"商":1008,"問":1009,"啓":1010,"善":1011,"喉":1012,"喘":1013,"喚":1014,"喫":1015,"單":1016,"喰":1017,"営":1018,"嗅":1019,"嗣":1020,"嗽":1021,"嘔":1022,"噛":1023,"器":1024,"噴":1025,"嚢":1026,"嚥":1027,"四":1028,"回":1029,"因":1030,"団":1031,"囲":1032,"図":1033,"围":1034,"固":1035,"国":1036,"图":1037,"圆":1038,"園":1039,"圓":1040,"土":1041,"圧":1042,"在":1043,"地":1044,"坂":1045,"均":1046,"坏":1047,"坐":1048,"坑":1049,"块":1050,"坦":1051,"垂":1052,"型":1053,"垢":1054,"垸":1055,"埃":1056,"埋":1057,"埜":1058,"域":1059,"培":1060,"基":1061,"埼":1062,"堀":1063,"堂":1064,"堅":1065,"堤":1066,"堰":1067,"報":1068,"場":1069,"塊":1070,"塑":1071,"塔":1072,"塗":1073,"塞":1074,"塩":1075,"填":1076,"塵":1077,"境":1078,"増":1079,"增":1080,"墨":1081,"墳":1082,"壁":1083,"壊":1084,"壌":1085,"壜":1086,"士":1087,"壮":1088,"声":1089,"売":1090,"壺":1091,"处":1092,"変":1093,"复":1094,"夏":1095,"外":1096,"多":1097,"够":1098,"大":1099,"天":1100,"太":1101,"夫":1102,"央":1103,"失":1104,"夷":1105,"夹":1106,"夺":1107,"夾":1108,"奇":1109,"奏":1110,"契":1111,"奕":1112,"套":1113,"奥":1114,"奧":1115,"奨":1116,"奪":1117,"女":1118,"好":1119,"如":1120,"妄":1121,"妻":1122,"始":1123,"姑":1124,"委":1125,"姜":1126,"姿":1127,"威":1128,"婚":1129,"媒":1130,"子":1131,"孔":1132,"孕":1133,"字":1134,"存":1135,"季":1136,"孤":1137,"学":1138,"學":1139,"宇":1140,"守":1141,"安":1142,"完":1143,"宏":1144,"官":1145,"宙":1146,"定":1147,"宛":1148,"宜":1149,"宝":1150,"实":1151,"実":1152,"宣":1153,"室":1154,"宰":1155,"害":1156,"家":1157,"容":1158,"宿":1159,"寂":1160,"寄":1161,"密":1162,"富":1163,"寒":1164,"寝":1165,"察":1166,"寡":1167,"寧":1168,"寸":1169,"对":1170,"対":1171,"寿":1172,"封":1173,"射":1174,"将":1175,"尊":1176,"導":1177,"小":1178,"少":1179,"尖":1180,"尚":1181,"尤":1182,"尺":1183,"尾":1184,"尿":1185,"局":1186,"屁":1187,"居":1188,"屈":1189,"届":1190,"屋":1191,"屍":1192,"屑":1193,"展":1194,"属":1195,"屠":1196,"屡":1197,"層":1198,"履":1199,"屬":1200,"山":1201,"岐":1202,"岩":1203,"岸":1204,"峰":1205,"島":1206,"峻":1207,"崎":1208,"崩":1209,"嵌":1210,"嵩":1211,"嶋":1212,"嶺":1213,"川":1214,"州":1215,"巡":1216,"巣":1217,"工":1218,"左":1219,"巧":1220,"巨":1221,"差":1222,"己":1223,"已":1224,"巳":1225,"巻":1226,"巾":1227,"市":1228,"布":1229,"帆":1230,"希":1231,"帛":1232,"带":1233,"師":1234,"帯":1235,"帰":1236,"帳":1237,"常":1238,"帽":1239,"幅":1240,"幔":1241,"幕":1242,"幟":1243,"幡":1244,"幣":1245,"干":1246,"平":1247,"年":1248,"幵":1249,"并":1250,"幸":1251,"幹":1252,"幼":1253,"幽":1254,"広":1255,"庄":1256,"庇":1257,"床":1258,"序":1259,"底":1260,"店":1261,"度":1262,"座":1263,"庫":1264,"庭":1265,"康":1266,"廃":1267,"廣":1268,"廬":1269,"延":1270,"廷":1271,"建":1272,"廻":1273,"开":1274,"弁":1275,"弊":1276,"式":1277,"弓":1278,"引":1279,"弗":1280,"弘":1281,"弦":1282,"弧":1283,"弯":1284,"弱":1285,"張":1286,"強":1287,"弹":1288,"强":1289,"弾":1290,"当":1291,"形":1292,"彩":1293,"彫":1294,"彰":1295,"影":1296,"役":1297,"往":1298,"径":1299,"待":1300,"律":1301,"後":1302,"徐":1303,"徒":1304,"従":1305,"得":1306,"御":1307,"復":1308,"循":1309,"微":1310,"徳":1311,"徴":1312,"徹":1313,"心":1314,"必":1315,"応":1316,"忠":1317,"快":1318,"思":1319,"急":1320,"性":1321,"恐":1322,"恒":1323,"息":1324,"恰":1325,"恵":1326,"患":1327,"悦":1328,"悩":1329,"悪":1330,"情":1331,"惧":1332,"惰":1333,"想":1334,"愉":1335,"意":1336,"感":1337,"慈":1338,"態":1339,"慎":1340,"慣":1341,"慨":1342,"慴":1343,"憎":1344,"憶":1345,"懊":1346,"懸":1347,"懼":1348,"成":1349,"或":1350,"戟":1351,"戦":1352,"截":1353,"戴":1354,"戸":1355,"戻":1356,"房":1357,"所":1358,"扁":1359,"扉":1360,"手":1361,"才":1362,"打":1363,"払":1364,"托":1365,"扞":1366,"扮":1367,"扰":1368,"扱":1369,"扶":1370,"扼":1371,"承":1372,"技":1373,"抄":1374,"抉":1375,"把":1376,"抑":1377,"抓":1378,"投":1379,"抗":1380,"折":1381,"抜":1382,"択":1383,"披":1384,"抬":1385,"抱":1386,"抵":1387,"抹":1388,"押":1389,"抽":1390,"担":1391,"拉":1392,"拌":1393,"拒":1394,"拖":1395,"拗":1396,"拘":1397,"拝":1398,"拠":1399,"拡":1400,"括":1401,"拭":1402,"拳":1403,"拼":1404,"拽":1405,"持":1406,"指":1407,"挙":1408,"挟":1409,"挨":1410,"挫":1411,"振":1412,"挾":1413,"挿":1414,"捌":1415,"捏":1416,"捕":1417,"捜":1418,"捡":1419,"捧":1420,"捨":1421,"捩":1422,"据":1423,"捲":1424,"捺":1425,"捻":1426,"掃":1427,"授":1428,"掌":1429,"排":1430,"掘":1431,"掛":1432,"採":1433,"探":1434,"接":1435,"推":1436,"掬":1437,"掲":1438,"掴":1439,"掻":1440,"揃":1441,"揉":1442,"描":1443,"提":1444,"揚":1445,"換":1446,"握":1447,"揮":1448,"揺":1449,"損":1450,"搖":1451,"搬":1452,"搭":1453,"搾":1454,"摂":1455,"摇":1456,"摘":1457,"摩":1458,"摸":1459,"摺":1460,"撃":1461,"撒":1462,"撓":1463,"撚":1464,"撞":1465,"撤":1466,"撥":1467,"播":1468,"撮":1469,"撲":1470,"撹":1471,"擁":1472,"操":1473,"擢":1474,"擦":1475,"擬":1476,"擲":1477,"攪":1478,"支":1479,"收":1480,"改":1481,"攻":1482,"放":1483,"故":1484,"效":1485,"救":1486,"散":1487,"数":1488,"整":1489,"敵":1490,"敷":1491,"文":1492,"斉":1493,"斎":1494,"斑":1495,"料":1496,"斛":1497,"斜":1498,"斧":1499,"断":1500,"斯":1501,"新":1502,"斷":1503,"方":1504,"施":1505,"旋":1506,"族":1507,"既":1508,"日":1509,"旦":1510,"旨":1511,"早":1512,"旱":1513,"时":1514,"昆":1515,"昇":1516,"明":1517,"易":1518,"星":1519,"映":1520,"春":1521,"昧":1522,"昭":1523,"是":1524,"昼":1525,"時":1526,"晒":1527,"晚":1528,"晟":1529,"晩":1530,"普":1531,"景":1532,"晴":1533,"晶":1534,"智":1535,"暈":1536,"暖":1537,"暗":1538,"暫":1539,"曇":1540,"曝":1541,"曰":1542,"曱":1543,"曲":1544,"曳":1545,"更":1546,"書":1547,"曹":1548,"替":1549,"最":1550,"會":1551,"月":1552,"有":1553,"服":1554,"朗":1555,"望":1556,"期":1557,"木":1558,"未":1559,"末":1560,"本":1561,"札":1562,"朮":1563,"术":1564,"朱":1565,"朴":1566,"机":1567,"朽":1568,"杆":1569,"杉":1570,"杏":1571,"材":1572,"杜":1573,"束":1574,"条":1575,"杢":1576,"来":1577,"杭":1578,"杯":1579,"東":1580,"松":1581,"板":1582,"构":1583,"析":1584,"枕":1585,"林":1586,"枚":1587,"果":1588,"枝":1589,"枠":1590,"枡":1591,"枢":1592,"枯":1593,"架":1594,"枷":1595,"柄":1596,"染":1597,"柔":1598,"柱":1599,"柳":1600,"査":1601,"柿":1602,"栄":1603,"栓":1604,"栗":1605,"株":1606,"样":1607,"核":1608,"根":1609,"格":1610,"桁":1611,"桂":1612,"桃":1613,"框":1614,"案":1615,"桐":1616,"桑":1617,"桜":1618,"桝":1619,"桟":1620,"桿":1621,"梁":1622,"梅":1623,"梓":1624,"梗":1625,"梢":1626,"梨":1627,"梯":1628,"械":1629,"梱":1630,"梳":1631,"检":1632,"棄":1633,"棉":1634,"棒":1635,"棗":1636,"棘":1637,"棚":1638,"森":1639,"棲":1640,"椀":1641,"椋":1642,"植":1643,"椎":1644,"椏":1645,"椒":1646,"検":1647,"椹":1648,"楊":1649,"楔":1650,"楕":1651,"楡":1652,"業":1653,"楮":1654,"極":1655,"概":1656,"榔":1657,"榛":1658,"構":1659,"槌":1660,"槐":1661,"様":1662,"槙":1663,"槲":1664,"槽":1665,"槿":1666,"樋":1667,"標":1668,"樟":1669,"模":1670,"樣":1671,"横":1672,"樸":1673,"樹":1674,"橋":1675,"橘":1676,"橙":1677,"機":1678,"檜":1679,"櫛":1680,"櫨":1681,"櫻":1682,"欄":1683,"欠":1684,"次":1685,"欲":1686,"款":1687,"歓":1688,"止":1689,"正":1690,"此":1691,"歩":1692,"歪":1693,"歯":1694,"歴":1695,"死":1696,"殆":1697,"殊":1698,"残":1699,"段":1700,"殺":1701,"殻":1702,"母":1703,"毎":1704,"每":1705,"毒":1706,"比":1707,"毛":1708,"毫":1709,"気":1710,"水":1711,"氷":1712,"汁":1713,"求":1714,"汗":1715,"汚":1716,"江":1717,"池":1718,"汲":1719,"決":1720,"沃":1721,"沈":1722,"沙":1723,"没":1724,"沢":1725,"沫":1726,"河":1727,"沸":1728,"油":1729,"治":1730,"沿":1731,"況":1732,"泌":1733,"法":1734,"泡":1735,"波":1736,"泣":1737,"泥":1738,"注":1739,"泰":1740,"泳":1741,"洋":1742,"洗":1743,"洞":1744,"津":1745,"洩":1746,"活":1747,"流":1748,"浄":1749,"浅":1750,"测":1751,"浮":1752,"浴":1753,"海":1754,"浸":1755,"消":1756,"涉":1757,"涙":1758,"液":1759,"涼":1760,"淡":1761,"淫":1762,"深":1763,"淵":1764,"混":1765,"添":1766,"清":1767,"渇":1768,"済":1769,"渉":1770,"渋":1771,"減":1772,"渡":1773,"渣":1774,"渦":1775,"温":1776,"測":1777,"港":1778,"湯":1779,"湾":1780,"湿":1781,"満":1782,"溌":1783,"源":1784,"準":1785,"溜":1786,"溝":1787,"溢":1788,"溥":1789,"溶":1790,"滅":1791,"滋":1792,"滑":1793,"滓":1794,"滚":1795,"滞":1796,"滲":1797,"滴":1798,"漂":1799,"漆":1800,"漉":1801,"漏":1802,"演":1803,"漕":1804,"漬":1805,"漸":1806,"漿":1807,"潅":1808,"潜":1809,"潤":1810,"潰":1811,"澄":1812,"澱":1813,"激":1814,"濁":1815,"濃":1816,"濕":1817,"濡":1818,"濯":1819,"濾":1820,"瀉":1821,"瀘":1822,"灌":1823,"火":1824,"灯":1825,"灰":1826,"炉":1827,"炊":1828,"炎":1829,"炒":1830,"炭":1831,"点":1832,"為":1833,"烏":1834,"焉":1835,"焙":1836,"焚":1837,"無":1838,"焦":1839,"然":1840,"焼":1841,"煉":1842,"煎":1843,"煙":1844,"煤":1845,"照":1846,"煩":1847,"煮":1848,"熊":1849,"熔":1850,"熟":1851,"熱":1852,"燃":1853,"燈":1854,"燐":1855,"燒":1856,"燥":1857,"燻":1858,"爆":1859,"爪":1860,"爱":1861,"爽":1862,"片":1863,"版":1864,"牛":1865,"牝":1866,"牧":1867,"物":1868,"牲":1869,"特":1870,"牽":1871,"状":1872,"狗":1873,"独":1874,"狭":1875,"狼":1876,"猪":1877,"献":1878,"獨":1879,"玄":1880,"率":1881,"玉":1882,"王":1883,"环":1884,"现":1885,"珠":1886,"珪":1887,"現":1888,"球":1889,"理":1890,"瑞":1891,"璧":1892,"環":1893,"瓜":1894,"瓶":1895,"甘":1896,"甜":1897,"生":1898,"産":1899,"用":1900,"田":1901,"由":1902,"甲":1903,"申":1904,"町":1905,"画":1906,"界":1907,"畑":1908,"畔":1909,"留":1910,"畜":1911,"畝":1912,"略":1913,"畦":1914,"番":1915,"異":1916,"畳":1917,"疎":1918,"疑":1919,"疗":1920,"疥":1921,"疫":1922,"疱":1923,"疲":1924,"疹":1925,"痂":1926,"病":1927,"症":1928,"痒":1929,"痕":1930,"痙":1931,"痛":1932,"痰":1933,"痾":1934,"瘡":1935,"瘻":1936,"療":1937,"癌":1938,"癖":1939,"癬":1940,"癰":1941,"癸":1942,"発":1943,"登":1944,"發":1945,"白":1946,"的":1947,"皮":1948,"皴":1949,"皿":1950,"盆":1951,"益":1952,"盒":1953,"盗":1954,"盘":1955,"盛":1956,"監":1957,"盤":1958,"目":1959,"盲":1960,"直":1961,"相":1962,"盾":1963,"省":1964,"眉":1965,"看":1966,"真":1967,"眠":1968,"眩":1969,"眼":1970,"着":1971,"睡":1972,"瞬":1973,"瞳":1974,"瞼":1975,"瞿":1976,"矛":1977,"矢":1978,"矣":1979,"知":1980,"矩":1981,"短":1982,"矮":1983,"矯":1984,"石":1985,"码":1986,"砂":1987,"砒":1988,"研":1989,"砕":1990,"砥":1991,"破":1992,"硅":1993,"硝":1994,"硫":1995,"硬":1996,"确":1997,"硼":1998,"碁":1999,"碇":2000,"碎":2001,"碩":2002,"碲":2003,"確":2004,"磁":2005,"磨":2006,"磯":2007,"礁":2008,"礎":2009,"礒":2010,"示":2011,"社":2012,"祁":2013,"祈":2014,"祖":2015,"神":2016,"禹":2017,"离":2018,"禿":2019,"秋":2020,"种":2021,"科":2022,"秒":2023,"秘":2024,"租":2025,"秤":2026,"秦":2027,"称":2028,"移":2029,"稀":2030,"稈":2031,"程":2032,"稍":2033,"稔":2034,"稚":2035,"稜":2036,"稠":2037,"種":2038,"稿":2039,"穀":2040,"穂":2041,"積":2042,"穏":2043,"穩":2044,"穴":2045,"究":2046,"空":2047,"穿":2048,"突":2049,"窄":2050,"窒":2051,"窓":2052,"窩":2053,"窪":2054,"窯":2055,"竈":2056,"立":2057,"竜":2058,"竣":2059,"竪":2060,"端":2061,"競":2062,"竹":2063,"竺":2064,"笛":2065,"笠":2066,"符":2067,"第":2068,"笹":2069,"笾":2070,"筆":2071,"等":2072,"筋":2073,"筐":2074,"筑":2075,"筒":2076,"答":2077,"策":2078,"筬":2079,"筺":2080,"箇":2081,"箔":2082,"箕":2083,"算":2084,"管":2085,"箱":2086,"節":2087,"範":2088,"築":2089,"篛":2090,"篠":2091,"篩":2092,"篭":2093,"簡":2094,"簧":2095,"簿":2096,"籐":2097,"籠":2098,"籤":2099,"米":2100,"粁":2101,"粉":2102,"粒":2103,"粕":2104,"粗":2105,"粘":2106,"粧":2107,"粱":2108,"精":2109,"糊":2110,"糖":2111,"糞":2112,"糠":2113,"糸":2114,"系":2115,"約":2116,"紅":2117,"紋":2118,"納":2119,"紐":2120,"純":2121,"紗":2122,"紙":2123,"級":2124,"紛":2125,"素":2126,"紡":2127,"索":2128,"紧":2129,"紫":2130,"累":2131,"細":2132,"終":2133,"組":2134,"絆":2135,"経":2136,"結":2137,"絖":2138,"絞":2139,"絡":2140,"給":2141,"統":2142,"絵":2143,"絶":2144,"經":2145,"継":2146,"続":2147,"綜":2148,"維":2149,"綱":2150,"網":2151,"綴":2152,"綾":2153,"綿":2154,"緊":2155,"総":2156,"緑":2157,"線":2158,"締":2159,"編":2160,"緩":2161,"緯":2162,"練":2163,"緻":2164,"縁":2165,"縛":2166,"縣":2167,"縦":2168,"縫":2169,"縮":2170,"縷":2171,"績":2172,"繁":2173,"繊":2174,"繋":2175,"織":2176,"繰":2177,"續":2178,"纳":2179,"组":2180,"细":2181,"经":2182,"结":2183,"给":2184,"续":2185,"缀":2186,"缩":2187,"缶":2188,"罫":2189,"置":2190,"羊":2191,"羌":2192,"美":2193,"群":2194,"義":2195,"羽":2196,"翁":2197,"翅":2198,"習":2199,"翹":2200,"翻":2201,"翼":2202,"耀":2203,"考":2204,"者":2205,"而":2206,"耐":2207,"耕":2208,"耗":2209,"耳":2210,"耷":2211,"聖":2212,"聞":2213,"聡":2214,"聴":2215,"職":2216,"肉":2217,"肋":2218,"肌":2219,"肝":2220,"股":2221,"肥":2222,"肩":2223,"肪":2224,"肺":2225,"胃":2226,"胆":2227,"背":2228,"胎":2229,"胖":2230,"胚":2231,"胞":2232,"胡":2233,"胴":2234,"胸":2235,"能":2236,"脂":2237,"脆":2238,"脇":2239,"脈":2240,"脊":2241,"脚":2242,"脛":2243,"脱":2244,"脳":2245,"脹":2246,"脾":2247,"腋":2248,"腎":2249,"腐":2250,"腑":2251,"腔":2252,"腕":2253,"腫":2254,"腰":2255,"腸":2256,"腹":2257,"腺":2258,"腿":2259,"膊":2260,"膏":2261,"膚":2262,"膜":2263,"膝":2264,"膠":2265,"膣":2266,"膨":2267,"膵":2268,"膿":2269,"臀":2270,"臓":2271,"臥":2272,"臨":2273,"自":2274,"臭":2275,"至":2276,"致":2277,"臼":2278,"興":2279,"舌":2280,"舎":2281,"舒":2282,"舗":2283,"舞":2284,"舟":2285,"舢":2286,"航":2287,"般":2288,"舵":2289,"舷":2290,"船":2291,"艮":2292,"良":2293,"色":2294,"艶":2295,"艾":2296,"节":2297,"芍":2298,"芒":2299,"芝":2300,"芥":2301,"芦":2302,"芫":2303,"芯":2304,"花":2305,"芳":2306,"芽":2307,"苑":2308,"苓":2309,"苔":2310,"苗":2311,"苛":2312,"苞":2313,"若":2314,"苦":2315,"范":2316,"茎":2317,"茘":2318,"茜":2319,"茯":2320,"茱":2321,"茲":2322,"茵":2323,"茶":2324,"茹":2325,"草":2326,"荊":2327,"荒":2328,"荷":2329,"莉":2330,"莪":2331,"菁":2332,"菅":2333,"菊":2334,"菌":2335,"菓":2336,"菜":2337,"菩":2338,"華":2339,"菱":2340,"菲":2341,"萍":2342,"萎":2343,"萸":2344,"落":2345,"葉":2346,"著":2347,"葛":2348,"葦":2349,"葵":2350,"葸":2351,"葺":2352,"蒂":2353,"蒔":2354,"蒙":2355,"蒜":2356,"蒲":2357,"蒸":2358,"蒼":2359,"蒿":2360,"蓄":2361,"蓉":2362,"蓋":2363,"蓚":2364,"蓮":2365,"蓼":2366,"蔓":2367,"蔕":2368,"蔵":2369,"蔽":2370,"蕃":2371,"蕪":2372,"蕾":2373,"薄":2374,"薈":2375,"薊":2376,"薗":2377,"薤":2378,"薫":2379,"薬":2380,"藁":2381,"藍":2382,"藤":2383,"藻":2384,"蘆":2385,"蘇":2386,"蘭":2387,"虎":2388,"虚":2389,"虛":2390,"虫":2391,"虱":2392,"蚊":2393,"蛇":2394,"蛋":2395,"蛍":2396,"蛛":2397,"蛞":2398,"蛭":2399,"蜀":2400,"蜍":2401,"蜜":2402,"蝉":2403,"蝋":2404,"蝓":2405,"蝕":2406,"蝶":2407,"融":2408,"螺":2409,"蟹":2410,"蟻":2411,"蟾":2412,"血":2413,"衆":2414,"行":2415,"術":2416,"衛":2417,"衝":2418,"衣":2419,"表":2420,"衰":2421,"袋":2422,"袢":2423,"被":2424,"裁":2425,"裂":2426,"装":2427,"裏":2428,"裕":2429,"補":2430,"裝":2431,"裡":2432,"裸":2433,"製":2434,"裾":2435,"複":2436,"褐":2437,"褥":2438,"褪":2439,"褶":2440,"襠":2441,"西":2442,"要":2443,"覆":2444,"見":2445,"規":2446,"視":2447,"覗":2448,"覚":2449,"親":2450,"视":2451,"角":2452,"解":2453,"触":2454,"言":2455,"訂":2456,"計":2457,"託":2458,"記":2459,"設":2460,"許":2461,"訳":2462,"訶":2463,"診":2464,"註":2465,"証":2466,"評":2467,"詞":2468,"試":2469,"詰":2470,"話":2471,"該":2472,"詳":2473,"認":2474,"誘":2475,"語":2476,"誠":2477,"誤":2478,"説":2479,"読":2480,"課":2481,"調":2482,"請":2483,"論":2484,"諧":2485,"謂":2486,"謙":2487,"講":2488,"謨":2489,"謬":2490,"識":2491,"警":2492,"護":2493,"设":2494,"证":2495,"试":2496,"该":2497,"详":2498,"说":2499,"谷":2500,"豆":2501,"豊":2502,"豚":2503,"象":2504,"貝":2505,"負":2506,"財":2507,"貧":2508,"販":2509,"貪":2510,"貫":2511,"貯":2512,"貴":2513,"買":2514,"費":2515,"貼":2516,"資":2517,"賊":2518,"賞":2519,"賢":2520,"賦":2521,"質":2522,"賺":2523,"贅":2524,"赚":2525,"赤":2526,"赦":2527,"走":2528,"起":2529,"超":2530,"越":2531,"趙":2532,"趣":2533,"足":2534,"趾":2535,"跖":2536,"距":2537,"跡":2538,"跨":2539,"路":2540,"踏":2541,"踝":2542,"踵":2543,"蹄":2544,"蹟":2545,"蹠":2546,"蹴":2547,"身":2548,"車":2549,"軌":2550,"軟":2551,"転":2552,"軸":2553,"軽":2554,"較":2555,"載":2556,"輝":2557,"輪":2558,"輸":2559,"輻":2560,"轄":2561,"转":2562,"软":2563,"轴":2564,"载":2565,"输":2566,"辛":2567,"農":2568,"辺":2569,"込":2570,"达":2571,"过":2572,"迎":2573,"运":2574,"近":2575,"返":2576,"还":2577,"进":2578,"远":2579,"述":2580,"迷":2581,"追":2582,"退":2583,"送":2584,"适":2585,"逃":2586,"逆":2587,"选":2588,"透":2589,"逐":2590,"逓":2591,"途":2592,"這":2593,"通":2594,"速":2595,"造":2596,"逢":2597,"連":2598,"週":2599,"進":2600,"逸":2601,"遂":2602,"遅":2603,"遇":2604,"遊":2605,"運":2606,"遍":2607,"過":2608,"道":2609,"達":2610,"違":2611,"遠":2612,"遣":2613,"遥":2614,"適":2615,"遮":2616,"遷":2617,"選":2618,"避":2619,"還":2620,"邪":2621,"郎":2622,"郡":2623,"部":2624,"郭":2625,"配":2626,"酢":2627,"酩":2628,"酪":2629,"酸":2630,"醍":2631,"醒":2632,"采":2633,"釈":2634,"釉":2635,"重":2636,"野":2637,"量":2638,"金":2639,"釘":2640,"釜":2641,"針":2642,"釣":2643,"釦":2644,"鈍":2645,"鈎":2646,"鈑":2647,"鈴":2648,"鉄":2649,"鉗":2650,"鉛":2651,"鉢":2652,"鉤":2653,"鉱":2654,"銀":2655,"銅":2656,"銑":2657,"銘":2658,"銜":2659,"銭":2660,"鋏":2661,"鋤":2662,"鋪":2663,"鋭":2664,"鋳":2665,"鋸":2666,"鋼":2667,"錆":2668,"錐":2669,"錘":2670,"錠":2671,"錫":2672,"錬":2673,"錯":2674,"録":2675,"鍋":2676,"鍔":2677,"鍛":2678,"鍮":2679,"鍵":2680,"鍾":2681,"鎖":2682,"鎭":2683,"鎮":2684,"鏃":2685,"鏗":2686,"鏝":2687,"鏡":2688,"鐘":2689,"鐵":2690,"鑑":2691,"鑞":2692,"鑢":2693,"铸":2694,"長":2695,"門":2696,"閃":2697,"閉":2698,"開":2699,"閑":2700,"間":2701,"関":2702,"閾":2703,"问":2704,"间":2705,"防":2706,"阶":2707,"阻":2708,"阿":2709,"附":2710,"降":2711,"限":2712,"除":2713,"陥":2714,"陰":2715,"陵":2716,"陶":2717,"陸":2718,"険":2719,"陽":2720,"隅":2721,"隆":2722,"隈":2723,"階":2724,"随":2725,"隔":2726,"隗":2727,"隙":2728,"障":2729,"隠":2730,"隣":2731,"雀":2732,"雄":2733,"雅":2734,"集":2735,"雇":2736,"雌":2737,"雑":2738,"雛":2739,"雜":2740,"離":2741,"難":2742,"雨":2743,"雪":2744,"雰":2745,"雲":2746,"電":2747,"需":2748,"霄":2749,"震":2750,"霊":2751,"霜":2752,"露":2753,"青":2754,"靖":2755,"静":2756,"靜":2757,"非":2758,"靠":2759,"面":2760,"靭":2761,"靱":2762,"鞄":2763,"鞍":2764,"鞘":2765,"鞣":2766,"鞭":2767,"韮":2768,"音":2769,"響":2770,"頁":2771,"頂":2772,"頃":2773,"項":2774,"順":2775,"領":2776,"頚":2777,"頭":2778,"頻":2779,"頼":2780,"顆":2781,"題":2782,"額":2783,"顎":2784,"顔":2785,"顕":2786,"願":2787,"類":2788,"顧":2789,"顶":2790,"顺":2791,"预":2792,"领":2793,"题":2794,"風":2795,"飛":2796,"食":2797,"飢":2798,"飯":2799,"飲":2800,"飴":2801,"飼":2802,"飽":2803,"飾":2804,"餅":2805,"養":2806,"餌":2807,"餡":2808,"首":2809,"香":2810,"馬":2811,"馴":2812,"駄":2813,"駅":2814,"駆":2815,"駐":2816,"駒":2817,"駿":2818,"験":2819,"騰":2820,"驱":2821,"骨":2822,"骸":2823,"髄":2824,"體":2825,"高":2826,"髙":2827,"髪":2828,"髭":2829,"鬆":2830,"鬚":2831,"鬱":2832,"魏":2833,"魚":2834,"鮮":2835,"鯛":2836,"鰭":2837,"鱗":2838,"鲁":2839,"鳥":2840,"鳩":2841,"鳳":2842,"鳴":2843,"鴨":2844,"鵝":2845,"鶉":2846,"鶏":2847,"鶴":2848,"鸛":2849,"鹙":2850,"麗":2851,"麟":2852,"麦":2853,"麩":2854,"麹":2855,"麺":2856,"麻":2857,"黄":2858,"黒":2859,"黴":2860,"黾":2861,"鼓":2862,"鼠":2863,"鼻":2864,"鼾":2865,"齎":2866,"齐":2867,"齢":2868,"齲":2869,"龍":2870,"":2871,"":2872,"":2873,"":2874,"":2875,"":2876,"":2877,"":2878,"":2879,"":2880,"":2881,"":2882,"":2883,"":2884,"":2885,"":2886,"":2887,"":2888,"":2889,"":2890,"":2891,"":2892,"":2893,"":2894,"":2895,"":2896,"":2897,"":2898,"":2899,"":2900,"":2901,"":2902,"":2903,"":2904,"":2905,"":2906,"":2907,"":2908,"":2909,"":2910,"":2911,"":2912,"":2913,"":2914,"":2915,"":2916,"":2917,"":2918,"":2919,"":2920,"":2921,"":2922,"":2923,"":2924,"":2925,"":2926,"":2927,"":2928,"":2929,"":2930,"":2931,"":2932,"":2933,"":2934,"":2935,"":2936,"":2937,"":2938,"":2939,"":2940,"":2941,"":2942,"":2943,"":2944,"":2945,"":2946,"":2947,"":2948,"":2949,"":2950,"":2951,"":2952,"":2953,"":2954,"":2955,"":2956,"":2957,"":2958,"":2959,"":2960,"":2961,"":2962,"":2963,"":2964,"":2965,"":2966,"":2967,"":2968,"":2969,"":2970,"":2971,"":2972,"":2973,"":2974,"":2975,"":2976,"":2977,"":2978,"":2979,"":2980,"":2981,"":2982,"":2983,"":2984,"":2985,"":2986,"":2987,"":2988,"":2989,"":2990,"":2991,"":2992,"":2993,"":2994,"":2995,"ﬁ":2996,"︶":2997,"︷":2998,"︸":2999,"％":3000,"（":3001,"）":3002,"＊":3003,"＋":3004,"，":3005,"－":3006,"．":3007,"／":3008,"０":3009,"１":3010,"２":3011,"３":3012,"４":3013,"５":3014,"６":3015,"７":3016,"８":3017,"９":3018,"：":3019,"；":3020,"＜":3021,"＝":3022,"＞":3023,"？":3024,"［":3025,"］":3026,"ａ":3027,"ｃ":3028,"ｄ":3029,"ｅ":3030,"ｆ":3031,"ｇ":3032,"ｉ":3033,"ｌ":3034,"ｍ":3035,"ｎ":3036,"ｏ":3037,"ｒ":3038,"ｓ":3039,"ｔ":3040,"ｕ":3041,"ｖ":3042,"ｗ":3043,"｜":3044,"｝":3045,"～":3046,"￡":3047,"##t":3048,"##g":3049,"##a":3050,"##c":3051,"##l":3052,"##b":3053,"##e":3054,"##r":3055,"##i":3056,"##o":3057,"##u":3058,"##y":3059,"##s":3060,"##q":3061,"##v":3062,"##k":3063,"##m":3064,"##w":3065,"##_":3066,"##n":3067,"##d":3068,"##h":3069,"##p":3070,"##f":3071,"##z":3072,"##x":3073,"##j":3074,"##π":3075,"##-":3076,"##:":3077,"##”":3078,"##)":3079,"##.":3080,"##\"":3081,"##,":3082,"##導":3083,"##入":3084,"##θ":3085,"##の":3086,"##半":3087,"##値":3088,"##幅":3089,"##τ":3090,"##’":3091,"##&":3092,"##“":3093,"##|":3094,"##?":3095,"##α":3096,"##δ":3097,"##η":3098,"##ル":3099,"##ス":3100,"##流":3101,"##液":3102,"##@":3103,"##β":3104,"##—":3105,"##'":3106,"##シ":3107,"##ク":3108,"##ロ":3109,"##ア":3110,"##キ":3111,"##タ":3112,"##フ":3113,"##モ":3114,"##λ":3115,"##ν":3116,"##=":3117,"##;":3118,"##ナ":3119,"##コ":3120,"##ー":3121,"##©":3122,"##支":3123,"##×":3124,"##[":3125,"###":3126,"##]":3127,"##‘":3128,"##μ":3129,"##(":3130,"##∏":3131,"##+":3132,"##∇":3133,"##γ":3134,"##れ":3135,"##ら":3136,"##突":3137,"##":3138,"##!":3139,"##/":3140,"##ø":3141,"##－":3142,"##ε":3143,"##リ":3144,"##メ":3145,"##チ":3146,"##ヘ":3147,"##ン":3148,"##：":3149,"##∑":3150,"##ッ":3151,"##ホ":3152,"##−":3153,"##ω":3154,"##∞":3155,"##∘":3156,"##性":3157,"##黒":3158,"##…":3159,"##υ":3160,"##ニ":3161,"##オ":3162,"##□":3163,"##◯":3164,"##%":3165,"##{":3166,"##≤":3167,"##↓":3168,"##ェ":3169,"##*":3170,"##\\":3171,"##ι":3172,"##⇓":3173,"##└":3174,"##イ":3175,"##ミ":3176,"##ソ":3177,"##ウ":3178,"##ム":3179,"##χ":3180,"##換":3181,"##浴":3182,"##}":3183,"##⁢":3184,"##∂":3185,"##φ":3186,"##ト":3187,"##カ":3188,"##ヤ":3189,"##ァ":3190,"##®":3191,"##∫":3192,"##":3193,"##た":3194,"##′":3195,"##構":3196,"##造":3197,"##ρ":3198,"##ォ":3199,"##˜":3200,"##皮":3201,"##┐":3202,"##│":3203,"##":3204,"##持":3205,"##∥":3206,"##ハ":3207,"##サ":3208,"##存":3209,"##対":3210,"##·":3211,"##ゑ":3212,"##結":3213,"##合":3214,"##力":3215,"##受":3216,"##動":3217,"##作":3218,"##テ":3219,"##ⅆ":3220,"##о":3221,"##з":3222,"##е":3223,"##г":3224,"##$":3225,"##セ":3226,"##″":3227,"##•":3228,"##熱":3229,"##源":3230,"##∠":3231,"##⌊":3232,"##❘":3233,"##凹":3234,"##~":3235,"##ξ":3236,"##":3237,"##ˆ":3238,"##σ":3239,"##芳":3240,"##香":3241,"##族":3242,"##化":3243,"##レ":3244,"##–":3245,"##ィ":3246,"##延":3247,"##後":3248,"##ノ":3249,"##":3250,"##ο":3251,"##色":3252,"##補":3253,"##正":3254,"##真":3255,"##空":3256,"##√":3257,"##ュ":3258,"##融":3259,"##ケ":3260,"##防":3261,"##巳":3262,"##マ":3263,"##▴":3264,"##置":3265,"##†":3266,"##束":3267,"##ß":3268,"##缶":3269,"##み":3270,"##込":3271,"##ラ":3272,"##エ":3273,"##™":3274,"##止":3275,"##梁":3276,"##は":3277,"##足":3278,"##り":3279,"##る":3280,"##^":3281,"##→":3282,"##ᅮ":3283,"##ᄇ":3284,"##ᅵ":3285,"##ᄃ":3286,"##ᅬ":3287,"##ᆫ":3288,"##ᅡ":3289,"##伝":3290,"##搬":3291,"##瓜":3292,"##∮":3293,"##ζ":3294,"##替":3295,"##︸":3296,"##ゥ":3297,"##放":3298,"##か":3299,"##し":3300,"##△":3301,"##物":3302,"##体":3303,"##．":3304,"##ψ":3305,"##引":3306,"##ひ":3307,"##け":3308,"##⊖":3309,"##腫":3310,"##°":3311,"##±":3312,"##∵":3313,"##κ":3314,"##●":3315,"##↑":3316,"##␣":3317,"##溝":3318,"##部":3319,"##微":3320,"##粒":3321,"##子":3322,"##æ":3323,"##保":3324,"##護":3325,"##基":3326,"##ツ":3327,"##計":3328,"##測":3329,"##記":3330,"##磁":3331,"##歪":3332,"##被":3333,"##═":3334,"##⊥":3335,"##с":3336,"##炭":3337,"##素":3338,"##原":3339,"##貫":3340,"##き":3341,"##穴":3342,"##∝":3343,"##鋳":3344,"##（":3345,"##を":3346,"##用":3347,"##い":3348,"##£":3349,"##♯":3350,"##酸":3351,"##電":3352,"##界":3353,"##強":3354,"##度":3355,"##≧":3356,"##ヒ":3357,"##湿":3358,"##提":3359,"##案":3360,"##¢":3361,"##光":3362,"##窓":3363,"##":3364,"##≦":3365,"##▾":3366,"##荷":3367,"##ネ":3368,"##幡":3369,"##博":3370,"##状":3371,"##単":3372,"##":3373,"##回":3374,"##⊙":3375,"##端":3376,"##≡":3377,"##〉":3378,"##":3379,"##行":3380,"##`":3381,"##戻":3382,"##µ":3383,"##豆":3384,"##杉":3385,"##←":3386,"##∈":3387,"##形":3388,"##層":3389,"##♭":3390,"##⋓":3391,"##⁡":3392,"##製":3393,"##こ":3394,"##⊕":3395,"##ⅈ":3396,"##ϕ":3397,"##":3398,"##ᅥ":3399,"##ᄋ":3400,"##ᆨ":3401,"##≈":3402,"##含":3403,"##":3404,"##質":3405,"##当":3406,"##接":3407,"##透":3408,"##ワ":3409,"##ャ":3410,"##»":3411,"##筒":3412,"##ヨ":3413,"##伸":3414,"##∴":3415,"##金":3416,"##否":3417,"##藻":3418,"##塵":3419,"##∪":3420,"##狭":3421,"##出":3422,"##■":3423,"##餌":3424,"##っ":3425,"##⌋":3426,"##重":3427,"##量":3428,"##乗":3429,"##球":3430,"##示":3431,"##す":3432,"##架":3433,"##⋮":3434,"##寄":3435,"##┘":3436,"##ᄏ":3437,"##ᅳ":3438,"##∀":3439,"##↤":3440,"##殻":3441,"##、":3442,"##消":3443,"##滅":3444,"##な":3445,"##鍔":3446,"##上":3447,"##ɛ":3448,"##わ":3449,"##葉":3450,"##段":3451,"##泡":3452,"##盛":3453,"##傷":3454,"##創":3455,"##ᄆ":3456,"##ᆼ":3457,"##塗":3458,"##工":3459,"##初":3460,"##期":3461,"##↔":3462,"##波":3463,"##位":3464,"##せ":3465,"##肉":3466,"##÷":3467,"##声":3468,"##篛":3469,"##⊆":3470,"##и":3471,"##範":3472,"##囲":3473,"##呼":3474,"##着":3475,"##溶":3476,"##極":3477,"##§":3478,"##≥":3479,"##":3480,"##骨":3481,"##草":3482,"##損":3483,"##▪":3484,"##„":3485,"##动":3486,"##试":3487,"##管":3488,"##去":3489,"##嵌":3490,"##係":3491,"##青":3492,"##角":3493,"##開":3494,"##口":3495,"##ς":3496,"##約":3497,"##可":3498,"##て":3499,"##厚":3500,"##路":3501,"##徐":3502,"##程":3503,"##ま":3504,"##⊚":3505,"##温":3506,"##转":3507,"##过":3508,"##中":3509,"##難":3510,"##針":3511,"##⊗":3512,"##ᄀ":3513,"##ᅪ":3514,"##ᄅ":3515,"##ᆯ":3516,"##離":3517,"##時":3518,"##環":3519,"##窪":3520,"##清":3521,"##ユ":3522,"##油":3523,"##ƒ":3524,"##積":3525,"##載":3526,"##":3527,"##細":3528,"##糊":3529,"##紫":3530,"##外":3531,"##域":3532,"##⊂":3533,"##射":3534,"##​":3535,"##銅":3536,"##箔":3537,"##⇒":3538,"##石":3539,"##燃":3540,"##料":3541,"##由":3542,"##花":3543,"##⇄":3544,"##点":3545,"##推":3546,"##ᄌ":3547,"##ᅦ":3548,"##ᆷ":3549,"##ᄒ":3550,"##ᄉ":3551,"##面":3552,"##縁":3553,"##凸":3554,"##疲":3555,"##労":3556,"##方":3557,"##向":3558,"##移":3559,"##限":3560,"##ち":3561,"##態":3562,"##≺":3563,"##縮":3564,"##締":3565,"##晶":3566,"##練":3567,"##径":3568,"##圧":3569,"##⋯":3570,"##盤":3571,"##ℜ":3572,"##貼":3573,"##∩":3574,"##":3575,"##貴":3576,"##頭":3577,"##孔":3578,"##具":3579,"##え":3580,"##片":3581,"##通":3582,"##守":3583,"##情":3584,"##報":3585,"##釦":3586,"##画":3587,"##そ":3588,"##成":3589,"##ゝ":3590,"##非":3591,"##胴":3592,"##翅":3593,"##表":3594,"##所":3595,"##ᄑ":3596,"##ᄂ":3597,"##と":3598,"##傾":3599,"##斜":3600,"##振":3601,"##小":3602,"##さ":3603,"##‰":3604,"##∃":3605,"##«":3606,"##号":3607,"##走":3608,"##ᄎ":3609,"##ᅧ":3610,"##付":3611,"##活":3612,"##":3613,"##":3614,"##害":3615,"##芍":3616,"##薬":3617,"##加":3618,"##附":3619,"##湯":3620,"##身":3621,"##靱":3622,"##ョ":3623,"##発":3624,"##舌":3625,"##末":3626,"##く":3627,"##ぬ":3628,"##糸":3629,"##軸":3630,"##≅":3631,"##影":3632,"##長":3633,"##種":3634,"##字":3635,"##♦":3636,"##処":3637,"##理":3638,"##集":3639,"##信":3640,"##気":3641,"##特":3642,"##▲":3643,"##条":3644,"##件":3645,"##冷":3646,"##機":3647,"##械":3648,"##媒":3649,"##溜":3650,"##ⅇ":3651,"##歯":3652,"##押":3653,"##♣":3654,"##要":3655,"##⋄":3656,"##爪":3657,"##使":3658,"##広":3659,"##準":3660,"##軌":3661,"##設":3662,"##⋰":3663,"##ᅩ":3664,"##〈":3665,"##竹":3666,"##水":3667,"##濃":3668,"##器":3669,"##拡":3670,"##率":3671,"##音":3672,"##篩":3673,"##速":3674,"##槽":3675,"##超":3676,"##黄":3677,"##魚":3678,"##ょ":3679,"##ん":3680,"##蒿":3681,"##低":3682,"##下":3683,"##虫":3684,"##殺":3685,"##属":3686,"##手":3687,"##台":3688,"##ヌ":3689,"##¯":3690,"##¥":3691,"##ゆ":3692,"##遅":3693,"##む":3694,"##装":3695,"##閉":3696,"##捧":3697,"##転":3698,"##斑":3699,"##病":3700,"##盒":3701,"##至":3702,"##少":3703,"##捡":3704,"##取":3705,"##一":3706,"##个":3707,"##选":3708,"##定":3709,"##的":3710,"##相":3711,"##前":3712,"##醍":3713,"##樹":3714,"##側":3715,"##固":3716,"##各":3717,"##揃":3718,"##陵":3719,"##菜":3720,"##ᄐ":3721,"##助":3722,"##立":3723,"##遠":3724,"##¦":3725,"##求":3726,"##核":3727,"##攻":3728,"##撃":3729,"##決":3730,"##め":3731,"##і":3732,"##≐":3733,"##濾":3734,"##過":3735,"##折":3736,"##系":3737,"##関":3738,"##言":3739,"##¤":3740,"##杆":3741,"##予":3742,"##備":3743,"##式":3744,"##培":3745,"##養":3746,"##操":3747,"##塞":3748,"##症":3749,"##脱":3750,"##樋":3751,"##⊃":3752,"##鋼":3753,"##材":3754,"##著":3755,"##へ":3756,"##п":3757,"##う":3758,"##┬":3759,"##供":3760,"##給":3761,"##★":3762,"##┌":3763,"##⁣":3764,"##弁":3765,"##稔":3766,"##✓":3767,"##伴":3768,"##ᅢ":3769,"##冶":3770,"##勢":3771,"##臭":3772,"##枝":3773,"##摺":3774,"##調":3775,"##先":3776,"##亢":3777,"##進":3778,"##‡":3779,"##布":3780,"##承":3781,"##腐":3782,"##線":3783,"##撓":3784,"##像":3785,"##⋆":3786,"##⇑":3787,"##※":3788,"##欠":3789,"##抜":3790,"##析":3791,"##у":3792,"##菓":3793,"##寿":3794,"##命":3795,"##平":3796,"##車":3797,"##銀":3798,"##ᅨ":3799,"##帯":3800,"##周":3801,"##弗":3802,"##鉄":3803,"##":3804,"##芝":3805,"##境":3806,"##脚":3807,"##脂":3808,"##￡":3809,"##摩":3810,"##擦":3811,"##利":3812,"##为":3813,"##在":3814,"##指":3815,"##趾":3816,"##節":3817,"##硝":3818,"##算":3819,"##映":3820,"##翼":3821,"##膣":3822,"##＋":3823,"##淵":3824,"##轴":3825,"##腺":3826,"##紙":3827,"##混":3828,"##菌":3829,"##土":3830,"##陽":3831,"##刻":3832,"##雇":3833,"##后":3834,"##分":3835,"##检":3836,"##测":3837,"##结":3838,"##⌈":3839,"##比":3840,"##誘":3841,"##漏":3842,"##ᆻ":3843,"##":3844,"##裂":3845,"##紋":3846,"##鶉":3847,"##直":3848,"##衝":3849,"##送":3850,"##＊":3851,"##⋃":3852,"##等":3853,"##仰":3854,"##試":3855,"##験":3856,"##弹":3857,"##簧":3858,"##∅":3859,"##底":3860,"##该":3861,"##套":3862,"##板":3863,"##容":3864,"##江":3865,"##南":3866,"##写":3867,"##洗":3868,"##交":3869,"##尖":3870,"##標":3871,"##識":3872,"##想":3873,"##撚":3874,"##封":3875,"##除":3876,"##差":3877,"##領":3878,"##嚢":3879,"##効":3880,"##床":3881,"##あ":3882,"##":3883,"##明":3884,"##鑞":3885,"##隣":3886,"##や":3887,"##軽":3888,"##大":3889,"##図":3890,"##型":3891,"##配":3892,"##両":3893,"##茶":3894,"##ᅣ":3895,"##袋":3896,"##排":3897,"##捕":3898,"##壌":3899,"##埃":3900,"##列":3901,"##矩":3902,"##筋":3903,"##経":3904,"##℃":3905,"##♀":3906,"##仙":3907,"##ᇂ":3908,"##食":3909,"##◎":3910,"##挿":3911,"##粗":3912,"##塩":3913,"##輪":3914,"##内":3915,"##掻":3916,"##尿":3917,"##巻":3918,"##耐":3919,"##国":3920,"##专":3921,"##公":3922,"##开":3923,"##了":3924,"##种":3925,"##处":3926,"##血":3927,"##制":3928,"##品":3929,"##样":3930,"##汚":3931,"##染":3932,"##互":3933,"##断":3934,"##屑":3935,"##肪":3936,"##残":3937,"##я":3938,"##ш":3939,"##滴":3940,"##許":3941,"##早":3942,"##糖":3943,"##♪":3944,"##留":3945,"##辺":3946,"##曲":3947,"##挙":3948,"##陰":3949,"##倒":3950,"##再":3951,"##第":3952,"##技":3953,"##⋁":3954,"##ろ":3955,"##風":3956,"##生":3957,"##棲":3958,"##春":3959,"##策":3960,"##無":3961,"##切":3962,"##ふ":3963,"##窩":3964,"##将":3965,"##详":3966,"##细":3967,"##说":3968,"##间":3969,"##匀":3970,"##ね":3971,"##∓":3972,"##繊":3973,"##績":3974,"##ℓ":3975,"##つ":3976,"##海":3977,"##島":3978,"##":3979,"##視":3980,"##窒":3981,"##最":3982,"##跡":3983,"##々":3984,"##幼":3985,"##皿":3986,"##ℏ":3987,"##┼":3988,"##雪":3989,"##藤":3990,"##鉱":3991,"##剤":3992,"##":3993,"##":3994,"##œ":3995,"##室":3996,"##兼":3997,"##縦":3998,"##¶":3999,"##―":4000,"##白":4001,"##粧":4002,"##局":4003,"##根":4004,"##葺":4005,"##心":4006,"##羊":4007,"##本":4008,"##载":4009,"##盘":4010,"##和":4011,"##滑":4012,"##地":4013,"##设":4014,"##块":4015,"##濡":4016,"##в":4017,"##ђ":4018,"##に":4019,"##蒙":4020,"##芯":4021,"##塑":4022,"##⇔":4023,"##弦":4024,"##道":4025,"##数":4026,"##密":4027,"##却":4028,"##検":4029,"##絡":4030,"##田":4031,"##施":4032,"##天":4033,"##拝":4034,"##":4035,"##":4036,"##及":4037,"##ц":4038,"##刃":4039,"##丈":4040,"##減":4041,"##駆":4042,"##考":4043,"##退":4044,"##能":4045,"##座":4046,"##ほ":4047,"##％":4048,"##）":4049,"##∋":4050,"##代":4051,"##倍":4052,"##研":4053,"##充":4054,"##填":4055,"##浸":4056,"##栓":4057,"##有":4058,"##寸":4059,"##応":4060,"##м":4061,"##破":4062,"##果":4063,"##抑":4064,"##連":4065,"##▽":4066,"##或":4067,"##お":4068,"##т":4069,"##л":4070,"##裁":4071,"##吸":4072,"##詰":4073,"##浄":4074,"##睡":4075,"##眠":4076,"##間":4077,"##収":4078,"##∧":4079,"##冬":4080,"##ｔ":4081,"##ｇ":4082,"##ｃ":4083,"##ａ":4084,"##渉":4085,"##名":4086,"##精":4087,"##伏":4088,"##縷":4089,"##筺":4090,"##組":4091,"##р":4092,"##昇":4093,"##解":4094,"##砕":4095,"##逆":4096,"##夏":4097,"##朴":4098,"##爆":4099,"##ϑ":4100,"##€":4101,"##丸":4102,"##胞":4103,"##芽":4104,"##反":4105,"##よ":4106,"##次":4107,"##沈":4108,"##降":4109,"##隔":4110,"##知":4111,"##燐":4112,"##掃":4113,"##耳":4114,"##穂":4115,"##協":4116,"##會":4117,"##抗":4118,"##㎍":4119,"##費":4120,"##别":4121,"##抓":4122,"##円":4123,"##涼":4124,"##錐":4125,"##問":4126,"##題":4127,"##ᆸ":4128,"##維":4129,"##✔":4130,"##○":4131,"##":4132,"##":4133,"##ᅴ":4134,"##網":4135,"##不":4136,"##編":4137,"##確":4138,"##ᇀ":4139,"##太":4140,"##貯":4141,"##述":4142,"##裏":4143,"##増":4144,"##∼":4145,"##途":4146,"##⨯":4147,"##主":4148,"##索":4149,"##汲":4150,"##錠":4151,"##姿":4152,"##蛋":4153,"##番":4154,"##仁":4155,"##弧":4156,"##益":4157,"##軟":4158,"##幹":4159,"##致":4160,"##従":4161,"##此":4162,"##实":4163,"##现":4164,"##对":4165,"##进":4166,"##完":4167,"##全":4168,"##自":4169,"##貧":4170,"##":4171,"##碎":4172,"##顔":4173,"##剥":4174,"##謂":4175,"##":4176,"##続":4177,"##株":4178,"##鈎":4179,"##託":4180,"##隙":4181,"##変":4182,"##硫":4183,"##繰":4184,"##得":4185,"##返":4186,"##乾":4187,"##。":4188,"##⋅":4189,"##焚":4190,"##汁":4191,"##探":4192,"##触":4193,"##釉":4194,"##謨":4195,"##起":4196,"##概":4197,"##多":4198,"##毛":4199,"##浅":4200,"##錆":4201,"##扱":4202,"##照":4203,"##于":4204,"##⩓":4205,"##蓄":4206,"##ʹ":4207,"##ᅱ":4208,"##覆":4209,"##聞":4210,"##≃":4211,"##珠":4212,"##⊳":4213,"##橋":4214,"##鉢":4215,"##削":4216,"##鳴":4217,"##尺":4218,"##▭":4219,"##腸":4220,"##人":4221,"##覚":4222,"##思":4223,"##ᅯ":4224,"##ϖ":4225,"##池":4226,"##未":4227,"##査":4228,"##坦":4229,"##撥":4230,"##壁":4231,"##函":4232,"##咳":4233,"##右":4234,"##刷":4235,"##膜":4236,"##":4237,"##":4238,"##粕":4239,"##論":4240,"##＜":4241,"##・":4242,"##硬":4243,"##敷":4244,"##易":4245,"##複":4246,"##包":4247,"##抵":4248,"##壊":4249,"##銭":4250,"##柳":4251,"##産":4252,"##孤":4253,"##偶":4254,"##遊":4255,"##星":4256,"##話":4257,"##扞":4258,"##〔":4259,"##更":4260,"##同":4261,"##¬":4262,"##塊":4263,"##‐":4264,"##":4265,"##悦":4266,"##短":4267,"##衰":4268,"##够":4269,"##驱":4270,"##启":4271,"##♡":4272,"##価":4273,"##棚":4274,"##距":4275,"##ᆾ":4276,"##码":4277,"##央":4278,"##因":4279,"##幕":4280,"##介":4281,"##б":4282,"##落":4283,"##滓":4284,"##璧":4285,"##法":4286,"##例":4287,"##蒸":4288,"##⊢":4289,"##夫":4290,"##竺":4291,"##負":4292,"##桿":4293,"##深":4294,"##麻":4295,"##":4296,"##均":4297,"##吹":4298,"##乏":4299,"##州":4300,"##芦":4301,"##散":4302,"##ᅭ":4303,"##骸":4304,"##象":4305,"##川":4306,"##雑":4307,"##仪":4308,"##廣":4309,"##舵":4310,"##織":4311,"##紐":4312,"##鮮":4313,"##誤":4314,"##駿":4315,"##哥":4316,"##王":4317,"##之":4318,"##播":4319,"##個":4320,"##松":4321,"##":4322,"##熊":4323,"##目":4324,"##":4325,"##胚":4326,"##强":4327,"##肋":4328,"##以":4329,"##四":4330,"##发":4331,"##競":4332,"##業":4333,"##資":4334,"##⪢":4335,"##⇐":4336,"##輝":4337,"##吊":4338,"##評":4339,"##錘":4340,"##☆":4341,"##何":4342,"##埋":4343,"##感":4344,"##〜":4345,"##選":4346,"##":4347,"##三":4348,"##毒":4349,"##綱":4350,"##熟":4351,"##賦":4352,"##碩":4353,"##康":4354,"##畳":4355,"##ℑ":4356,"##к":4357,"##欲":4358,"##坂":4359,"##壜":4360,"##該":4361,"##絞":4362,"##総":4363,"##頃":4364,"##張":4365,"##暖":4366,"##燈":4367,"##安":4368,"##規":4369,"##":4370,"##捨":4371,"##高":4372,"##硅":4373,"##潜":4374,"##构":4375,"##渋":4376,"##抄":4377,"##委":4378,"##凝":4379,"##":4380,"##展":4381,"##腔":4382,"##潤":4383,"##沸":4384,"##働":4385,"##⟵":4386,"##閑":4387,"##ゅ":4388,"##復":4389,"##鬆":4390,"##磨":4391,"##侧":4392,"##横":4393,"##炎":4394,"##▼":4395,"##飽":4396,"##蕾":4397,"##願":4398,"##⋂":4399,"##丽":4400,"##弾":4401,"##実":4402,"##凋":4403,"##柄":4404,"##宿":4405,"##桂":4406,"##姜":4407,"##朮":4408,"##甘":4409,"##盆":4410,"##抱":4411,"##飲":4412,"##焼":4413,"##滚":4414,"##ᆺ":4415,"##順":4416,"##谷":4417,"##澄":4418,"##逃":4419,"##‵":4420,"##左":4421,"##稜":4422,"##癰":4423,"##痕":4424,"##粘":4425,"##御":4426,"##区":4427,"##":4428,"##酢":4429,"##揮":4430,"##［":4431,"##掛":4432,"##侫":4433,"##泥":4434,"##痒":4435,"##団":4436,"##胆":4437,"##∗":4438,"##木":4439,"##ℰ":4440,"##薈":4441,"##黴":4442,"##も":4443,"##а":4444,"##籠":4445,"##∖":4446,"##漕":4447,"##籐":4448,"##甲":4449,"##蜜":4450,"##綿":4451,"##俊":4452,"##背":4453,"##適":4454,"##君":4455,"##秤":4456,"##耷":4457,"##拖":4458,"##拽":4459,"##勾":4460,"##択":4461,"##棒":4462,"##桁":4463,"##´":4464,"##美":4465,"##奇":4466,"##":4467,"##鱗":4468,"##別":4469,"##鬚":4470,"##便":4471,"##♂":4472,"##学":4473,"##判":4474,"##硼":4475,"##麗":4476,"##講":4477,"##捻":4478,"##始":4479,"##":4480,"##津":4481,"##":4482,"##ᅲ":4483,"##描":4484,"##沿":4485,"##希":4486,"##釈":4487,"##ｒ":4488,"##ｎ":4489,"##良":4490,"##塔":4491,"##葦":4492,"##橘":4493,"##腹":4494,"##垂":4495,"##⩵":4496,"##買":4497,"##ぃ":4498,"##煮":4499,"##術":4500,"##ゃ":4501,"##氷":4502,"##紡":4503,"##偏":4504,"##㏁":4505,"##腕":4506,"##縫":4507,"##⋐":4508,"##湾":4509,"##羽":4510,"##蝕":4511,"##満":4512,"##箇":4513,"##植":4514,"##业":4515,"##时":4516,"##類":4517,"##癌":4518,"##違":4519,"##十":4520,"##环":4521,"##釣":4522,"##├":4523,"##符":4524,"##漬":4525,"##鋤":4526,"##必":4527,"##灯":4528,"##二":4529,"##升":4530,"##埼":4531,"##丁":4532,"##椒":4533,"##閾":4534,"##盾":4535,"##文":4536,"##帛":4537,"##焦":4538,"##":4539,"##家":4540,"##刀":4541,"##如":4542,"##ǝ":4543,"##拠":4544,"##梢":4545,"##胸":4546,"##運":4547,"##幽":4548,"##干":4549,"##改":4550,"##善":4551,"##斉":4552,"##冨":4553,"##щ":4554,"##異":4555,"##到":4556,"##∯":4557,"##癖":4558,"##鞘":4559,"##⋀":4560,"##柱":4561,"##格":4562,"##托":4563,"##穿":4564,"##刺":4565,"##采":4566,"##鋭":4567,"##㎟":4568,"##⋱":4569,"##紛":4570,"##瀉":4571,"##痰":4572,"##揚":4573,"##穀":4574,"##侵":4575,"##桟":4576,"##鈍":4577,"##н":4578,"##事":4579,"##缩":4580,"##町":4581,"##現":4582,"##印":4583,"##意":4584,"##图":4585,"##米":4586,"##市":4587,"##販":4588,"##蹟":4589,"##组":4590,"##鼻":4591,"##≲":4592,"##元":4593,"##吐":4594,"##打":4595,"##終":4596,"##枚":4597,"##望":4598,"##般":4599,"##味":4600,"##":4601,"##袢":4602,"##，":4603,"##蓮":4604,"##秘":4605,"##櫛":4606,"##膿":4607,"##俟":4608,"##宇":4609,"##梗":4610,"##耗":4611,"##訳":4612,"##巣":4613,"##継":4614,"##余":4615,"##己":4616,"##鉛":4617,"##ˇ":4618,"##錬":4619,"##葵":4620,"##割":4621,"##山":4622,"##扉":4623,"##⫬":4624,"##士":4625,"##˝":4626,"##⟷":4627,"##":4628,"##親":4629,"##栄":4630,"##坐":4631,"##奥":4632,"##¨":4633,"##撮":4634,"##避":4635,"##煙":4636,"##棘":4637,"##失":4638,"##脈":4639,"##瘻":4640,"##版":4641,"##鞭":4642,"##薄":4643,"##略":4644,"##麦":4645,"##況":4646,"##瘡":4647,"##野":4648,"##需":4649,"##┴":4650,"##常":4651,"##乳":4652,"##牲":4653,"##裝":4654,"##泌":4655,"##≳":4656,"##瞳":4657,"##説":4658,"##遂":4659,"##舗":4660,"##餅":4661,"##¡":4662,"##¿":4663,"##証":4664,"##待":4665,"##露":4666,"##ℒ":4667,"##":4668,"##；":4669,"##篠":4670,"##椎":4671,"##芥":4672,"##":4673,"##寒":4674,"##注":4675,"##ℤ":4676,"##剃":4677,"##煎":4678,"##矯":4679,"##堤":4680,"##恒":4681,"##整":4682,"##":4683,"##砂":4684,"##脳":4685,"##續":4686,"##綜":4687,"##鍛":4688,"##幣":4689,"##売":4690,"##添":4691,"##窄":4692,"##槌":4693,"##楡":4694,"##渡":4695,"##究":4696,"##珪":4697,"##険":4698,"##占":4699,"##語":4700,"##蹄":4701,"##枯":4702,"##桃":4703,"##呉":4704,"##茱":4705,"##萸":4706,"##堂":4707,"##蝓":4708,"##飯":4709,"##聴":4710,"##燥":4711,"##⟶":4712,"##菱":4713,"##与":4714,"##►":4715,"##亜":4716,"##雌":4717,"##肩":4718,"##∷":4719,"##溥":4720,"##⇌":4721,"##官":4722,"##д":4723,"##藁":4724,"##趣":4725,"##停":4726,"##舟":4727,"##鍵":4728,"##船":4729,"##好":4730,"##卡":4731,"##炉":4732,"##陥":4733,"##眩":4734,"##麹":4735,"##菅":4736,"##鎖":4737,"##達":4738,"##潰":4739,"##廻":4740,"##⊲":4741,"##郭":4742,"##辛":4743,"##蔵":4744,"##ᄁ":4745,"##挟":4746,"##臥":4747,"##ヵ":4748,"##仕":4749,"##ℙ":4750,"##蓼":4751,"##":4752,"##租":4753,"##曇":4754,"##鏡":4755,"##玉":4756,"##鶏":4757,"##蝋":4758,"##⩔":4759,"##雰":4760,"##痙":4761,"##椹":4762,"##～":4763,"##踏":4764,"##ᆹ":4765,"##息":4766,"##没":4767,"##純":4768,"##肺":4769,"##从":4770,"##传":4771,"##沫":4772,"##":4773,"##医":4774,"##夷":4775,"##":4776,"##":4777,"##紗":4778,"##項":4779,"##粉":4780,"##社":4781,"##预":4782,"##逐":4783,"##":4784,"##模":4785,"##畔":4786,"##房":4787,"##昭":4788,"##槿":4789,"##戸":4790,"##":4791,"##领":4792,"##术":4793,"##员":4794,"##亟":4795,"##决":4796,"##问":4797,"##题":4798,"##⇀":4799,"##錯":4800,"##脆":4801,"##較":4802,"##飾":4803,"##达":4804,"##适":4805,"##鋸":4806,"##赤":4807,"##":4808,"##採":4809,"##卵":4810,"##騰":4811,"##膨":4812,"##屈":4813,"##門":4814,"##漂":4815,"##舞":4816,"##統":4817,"##鈑":4818,"##飛":4819,"##浮":4820,"##兎":4821,"##雄":4822,"##郎":4823,"##死":4824,"##顆":4825,"##确":4826,"##杏":4827,"##捺":4828,"##撲":4829,"##茎":4830,"##捩":4831,"##稿":4832,"##︷":4833,"##火":4834,"##倉":4835,"##庫":4836,"##糞":4837,"##渣":4838,"##律":4839,"##⌉":4840,"##絶":4841,"##括":4842,"##陸":4843,"##鉤":4844,"##搾":4845,"##昧":4846,"##峰":4847,"##来":4848,"##淡":4849,"##諧":4850,"##滲":4851,"##乍":4852,"##震":4853,"##稠":4854,"##撒":4855,"##会":4856,"##ᆽ":4857,"##撤":4858,"##令":4859,"##弱":4860,"##豚":4861,"##舎":4862,"##夹":4863,"##叙":4864,"##":4865,"##崩":4866,"##输":4867,"##效":4868,"##已":4869,"##经":4870,"##摇":4871,"##抽":4872,"##给":4873,"##並":4874,"##井":4875,"##每":4876,"##两":4877,"##旋":4878,"##登":4879,"##扼":4880,"##潅":4881,"##蘭":4882,"##":4883,"##渦":4884,"##担":4885,"##扰":4886,"##母":4887,"##≒":4888,"##":4889,"##眼":4890,"##捲":4891,"##‥":4892,"##宣":4893,"##快":4894,"##共":4895,"##濁":4896,"##运":4897,"##⇆":4898,"##払":4899,"##⁺":4900,"##衆":4901,"##帳":4902,"##‗":4903,"##并":4904,"##剖":4905,"##视":4906,"##鐵":4907,"##答":4908,"##":4909,"##桝":4910,"##書":4911,"##":4912,"##⪡":4913,"##日":4914,"##坑":4915,"##神":4916,"##演":4917,"##頂":4918,"##焉":4919,"##х":4920,"##":4921,"##診":4922,"##鐘":4923,"##叉":4924,"##梅":4925,"##為":4926,"##筆":4927,"##棗":4928,"##柔":4929,"##役":4930,"##富":4931,"##洞":4932,"##≂":4933,"##静":4934,"##优":4935,"##范":4936,"##围":4937,"##〗":4938,"##裾":4939,"##様":4940,"##叢":4941,"##錫":4942,"##岐":4943,"##華":4944,"##ⓞ":4945,"##噛":4946,"##­":4947,"##憶":4948,"##佑":4949,"##劣":4950,"##才":4951,"##農":4952,"##擢":4953,"##晒":4954,"##攪":4955,"##拌":4956,"##似":4957,"##弓":4958,"##髪":4959,"##徳":4960,"##喰":4961,"##":4962,"##義":4963,"##近":4964,"##徴":4965,"##奏":4966,"##蟻":4967,"##臓":4968,"##丘":4969,"##鬱":4970,"##裕":4971,"##姑":4972,"##带":4973,"##釜":4974,"##隆":4975,"##龍":4976,"##纳":4977,"##健":4978,"##节":4979,"##省":4980,"##ы":4981,"##刑":4982,"##宰":4983,"##沃":4984,"##剛":4985,"##煤":4986,"##↦":4987,"##朱":4988,"##堰":4989,"##歩":4990,"##矢":4991,"##":4992,"##翁":4993,"##蛍":4994,"##嶺":4995,"##ℐ":4996,"##朽":4997,"##越":4998,"##膠":4999,"##ｅ":5000,"##ｕ":5001,"##ｏ":5002,"##ｆ":5003,"##ｉ":5004,"##ｌ":5005,"##ｍ":5006,"##▬":5007,"##監":5008,"##续":5009,"##看":5010,"##阻":5011,"##擲":5012,"##<":5013,"##垢":5014,"##苗":5015,"##暈":5016,"##":5017,"##年":5018,"##枠":5019,"##仲":5020,"##即":5021,"##秋":5022,"##］":5023,"##勝":5024,"##券":5025,"##罫":5026,"##哺":5027,"##∐":5028,"##駒":5029,"##把":5030,"##師":5031,"##楊":5032,"##其":5033,"##階":5034,"##級":5035,"##捏":5036,"##揺":5037,"##顕":5038,"##員":5039,"##⇋":5040,"##":5041,"##住":5042,"##蒂":5043,"##┤":5044,"##献":5045,"##屁":5046,"##激":5047,"##嗅":5048,"##ℋ":5049,"##膚":5050,"##叩":5051,"##卑":5052,"##痛":5053,"##鈴":5054,"##智":5055,"##宏":5056,"##篭":5057,"##萎":5058,"##丄":5059,"##帰":5060,"##艾":5061,"##苦":5062,"##朗":5063,"##苑":5064,"##脊":5065,"##卸":5066,"##翹":5067,"##斛":5068,"##爽":5069,"##鳥":5070,"##屠":5071,"##牛":5072,"##倚":5073,"##励":5074,"##商":5075,"##呈":5076,"##ᄄ":5077,"##ᆲ":5078,"##蓋":5079,"##ｗ":5080,"##ｄ":5081,"##远":5082,"##离":5083,"##請":5084,"##杭":5085,"##漸":5086,"##見":5087,"##厭":5088,"##礁":5089,"##者":5090,"##響":5091,"##霄":5092,"##疹":5093,"##ᆱ":5094,"##":5095,"##履":5096,"##歴":5097,"##副":5098,"##ϱ":5099,"##瞼":5100,"##釘":5101,"##腿":5102,"##築":5103,"##傘":5104,"##藍":5105,"##螺":5106,"##华":5107,"##絵":5108,"##舒":5109,"##雲":5110,"##艶":5111,"##併":5112,"##仮":5113,"##寝":5114,"##謙":5115,"##絖":5116,"##曹":5117,"##漿":5118,"##汗":5119,"##暗":5120,"##霊":5121,"##瓶":5122,"##慎":5123,"##駅":5124,"##":5125,"##褪":5126,"##尾":5127,"##霜":5128,"##萍":5129,"##壮":5130,"##畦":5131,"##喉":5132,"##脛":5133,"##耀":5134,"##♥":5135,"##唄":5136,"##庇":5137,"##◆":5138,"##∢":5139,"##脇":5140,"##読":5141,"##杯":5142,"##拭":5143,"##摸":5144,"##習":5145,"##ぇ":5146,"##東":5147,"##賢":5148,"##療":5149,"##蹠":5150,"##ｖ":5151,"##ｓ":5152,"##祈":5153,"##苓":5154,"##扁":5155,"##苔":5156,"##癬":5157,"##◇":5158,"##仅":5159,"##证":5160,"##∛":5161,"##又":5162,"##称":5163,"##":5164,"##雜":5165,"##砒":5166,"##榛":5167,"##茹":5168,"##狗":5169,"##腎":5170,"##框":5171,"##認":5172,"##顶":5173,"##靠":5174,"##建":5175,"##首":5176,"##舷":5177,"##烏":5178,"##狼":5179,"##然":5180,"##廃":5181,"##赦":5182,"##庭":5183,"##灰":5184,"##麩":5185,"##衣":5186,"##投":5187,"##魏":5188,"##据":5189,"##涉":5190,"##疗":5191,"##卫":5192,"##蓉":5193,"##另":5194,"##蒜":5195,"##噴":5196,"##茯":5197,"##轄":5198,"##胃":5199,"##邪":5200,"##臨":5201,"##嗽":5202,"##賞":5203,"##遣":5204,"##糠":5205,"##ヽ":5206,"##免":5207,"##疫":5208,"##℄":5209,"##梱":5210,"##鍋":5211,"##隅":5212,"##午":5213,"##且":5214,"##障":5215,"##陶":5216,"##ᆭ":5217,"##卉":5218,"##菁":5219,"##樟":5220,"##額":5221,"##虱":5222,"##擁":5223,"##股":5224,"##增":5225,"##沙":5226,"##抬":5227,"##追":5228,"##↘":5229,"##燒":5230,"##毎":5231,"##蜍":5232,"##優":5233,"##仔":5234,"##勤":5235,"##盗":5236,"##堀":5237,"##店":5238,"##抹":5239,"##拘":5240,"##嵩":5241,"##俯":5242,"##財":5243,"##∨":5244,"##":5245,"##乱":5246,"##墨":5247,"##〃":5248,"##懸":5249,"##腰":5250,"##搭":5251,"##肌":5252,"##休":5253,"##关":5254,"##新":5255,"##恐":5256,"##芒":5257,"##學":5258,"##随":5259,"##済":5260,"##揉":5261,"##岩":5262,"##既":5263,"##修":5264,"##擬":5265,"##掘":5266,"##":5267,"##臼":5268,"##ь":5269,"##膝":5270,"##顎":5271,"##綾":5272,"##郡":5273,"##屋":5274,"##º":5275,"##隈":5276,"##蒲":5277,"##箕":5278,"##服":5279,"##＞":5280,"##筐":5281,"##椀":5282,"##牧":5283,"##跖":5284,"##河":5285,"##什":5286,"##宜":5287,"##欄":5288,"##絆":5289,"##晟":5290,"##棄":5291,"##蒔":5292,"##沢":5293,"##緑":5294,"##阶":5295,"##濯":5296,"##俣":5297,"##馬":5298,"##ϰ":5299,"##笹":5300,"##裡":5301,"##挨":5302,"##岸":5303,"##齢":5304,"##幸":5305,"##㎠":5306,"##荒":5307,"##場":5308,"##脾":5309,"##緊":5310,"##渇":5311,"##呂":5312,"##〕":5313,"##彫":5314,"##熔":5315,"##稈":5316,"##⁠":5317,"##粁":5318,"##ч":5319,"##飴":5320,"##濕":5321,"##楔":5322,"##寂":5323,"##复":5324,"##he":5325,"the":5326,"##on":5327,"##er":5328,"##ti":5329,"##in":5330,"##en":5331,"##ed":5332,"##or":5333,"##es":5334,"in":5335,"##at":5336,"of":5337,"an":5338,"##tion":5339,"##al":5340,"##ing":5341,"##ro":5342,"##an":5343,"##re":5344,"##ic":5345,"##le":5346,"to":5347,"##ent":5348,"##it":5349,"##ar":5350,"and":5351,"##ec":5352,"##st":5353,"is":5354,"##et":5355,"##ac":5356,"##mp":5357,"##ig":5358,"th":5359,"##ation":5360,"##ly":5361,"co":5362,"##is":5363,"##as":5364,"##ur":5365,"con":5366,"be":5367,"##id":5368,"##ay":5369,"for":5370,"##od":5371,"or":5372,"##ve":5373,"re":5374,"##ut":5375,"##ll":5376,"as":5377,"pro":5378,"##ment":5379,"##ow":5380,"##uc":5381,"##ag":5382,"on":5383,"##ul":5384,"##mb":5385,"st":5386,"ex":5387,"##ir":5388,"##ess":5389,"##ot":5390,"##ith":5391,"##os":5392,"##tin":5393,"##ter":5394,"with":5395,"##ol":5396,"##ri":5397,"##us":5398,"##ting":5399,"ac":5400,"de":5401,"##ce":5402,"##ate":5403,"##ab":5404,"may":5405,"##her":5406,"##pp":5407,"##am":5408,"##un":5409,"##il":5410,"comp":5411,"us":5412,"by":5413,"that":5414,"di":5415,"are":5416,"##tic":5417,"##ated":5418,"fig":5419,"##fer":5420,"su":5421,"at":5422,"##ver":5423,"##lu":5424,"##rom":5425,"se":5426,"##ad":5427,"##ct":5428,"cont":5429,"##odi":5430,"##im":5431,"sh":5432,"en":5433,"al":5434,"##oc":5435,"##ect":5436,"pr":5437,"##age":5438,"inc":5439,"##ure":5440,"##ain":5441,"wh":5442,"##ding":5443,"##qu":5444,"from":5445,"##om":5446,"##tive":5447,"can":5448,"##el":5449,"##amp":5450,"tr":5451,"emb":5452,"##ap":5453,"##ven":5454,"embodi":5455,"##em":5456,"##ther":5457,"embodiment":5458,"res":5459,"##for":5460,"##yl":5461,"dis":5462,"ad":5463,"ch":5464,"##ide":5465,"##ion":5466,"##ally":5467,"##ich":5468,"##vic":5469,"##ans":5470,"sec":5471,"##ition":5472,"##able":5473,"which":5474,"app":5475,"##lect":5476,"##um":5477,"one":5478,"##ity":5479,"op":5480,"examp":5481,"##ers":5482,"##igh":5483,"whe":5484,"un":5485,"sp":5486,"##ond":5487,"##str":5488,"par":5489,"des":5490,"devic":5491,"##vention":5492,"##uch":5493,"inclu":5494,"##ts":5495,"##de":5496,"pl":5497,"##cess":5498,"##form":5499,"sy":5500,"##ine":5501,"ab":5502,"example":5503,"met":5504,"##ace":5505,"trans":5506,"invention":5507,"such":5508,"##ign":5509,"##ore":5510,"form":5511,"##ication":5512,"##se":5513,"pre":5514,"##eri":5515,"##pl":5516,"##esent":5517,"##ch":5518,"##erm":5519,"me":5520,"le":5521,"fir":5522,"rec":5523,"##th":5524,"sub":5525,"mo":5526,"dat":5527,"##ase":5528,"first":5529,"device":5530,"this":5531,"##iz":5532,"##ating":5533,"##ens":5534,"det":5535,"##ach":5536,"po":5537,"##stem":5538,"acc":5539,"not":5540,"it":5541,"show":5542,"system":5543,"##rou":5544,"int":5545,"other":5546,"##ted":5547,"prov":5548,"##etw":5549,"ar":5550,"##ous":5551,"data":5552,"##cri":5553,"##if":5554,"##ge":5555,"second":5556,"process":5557,"inter":5558,"##ction":5559,"##ight":5560,"present":5561,"por":5562,"elect":5563,"abo":5564,"ha":5565,"##ence":5566,"),":5567,"so":5568,"contro":5569,"##ell":5570,"##duc":5571,"##mm":5572,"meth":5573,"descri":5574,"##ep":5575,"out":5576,"##ance":5577,"more":5578,"##ving":5579,"there":5580,"##ill":5581,"##all":5582,"##ist":5583,"##ib":5584,"##der":5585,"##ast":5586,"sign":5587,"sc":5588,"##ack":5589,"##ard":5590,"##op":5591,"cl":5592,"lay":5593,"gen":5594,"##and":5595,"sur":5596,"##mber":5597,"pos":5598,"##ant":5599,"##ary":5600,"##face":5601,"##og":5602,"accor":5603,"used":5604,"##ram":5605,"##ip":5606,"##ical":5607,"##oun":5608,"mat":5609,"##gh":5610,"##lement":5611,"##ff":5612,"portion":5613,"each":5614,"vi":5615,"ph":5616,"##ermin":5617,"##act":5618,"signal":5619,"##ates":5620,"##ular":5621,".,":5622,"##ere":5623,"str":5624,"##so":5625,"##yp":5626,"appl":5627,"mod":5628,"provid":5629,"oper":5630,"##ew":5631,"add":5632,"fl":5633,"when":5634,"##put":5635,").":5636,"layer":5637,"im":5638,"##ative":5639,"per":5640,"##uct":5641,"gener":5642,"also":5643,"he":5644,"##ock":5645,"##formation":5646,"no":5647,"method":5648,"embodiments":5649,"tim":5650,"##des":5651,"shown":5652,"conn":5653,"##een":5654,"val":5655,"describ":5656,"user":5657,"##ower":5658,"comm":5659,"##ue":5660,"##ari":5661,"##etween":5662,"unit":5663,"bl":5664,"##mpl":5665,"was":5666,"refer":5667,"between":5668,"##__":5669,"according":5670,"information":5671,"reg":5672,"compr":5673,"##end":5674,"has":5675,"##ix":5676,"ob":5677,"ser":5678,"ill":5679,"control":5680,"man":5681,"##ile":5682,"described":5683,"all":5684,"surface":5685,"cell":5686,"fil":5687,"##irc":5688,"te":5689,"poly":5690,"##ved":5691,"##erial":5692,"prefer":5693,"##rough":5694,"rel":5695,"##ustr":5696,"li":5697,"pat":5698,"##ass":5699,"##ak":5700,"car":5701,"##ator":5702,"illustr":5703,"##ations":5704,"##ffer":5705,"##les":5706,"circ":5707,"end":5708,"material":5709,"##ied":5710,"through":5711,"cor":5712,"##enti":5713,"supp":5714,"typ":5715,"where":5716,"into":5717,"##ection":5718,"am":5719,"dire":5720,"include":5721,"ne":5722,"position":5723,"displ":5724,"##pon":5725,"##ome":5726,"##tern":5727,"##ric":5728,"fur":5729,"imp":5730,"vari":5731,"fo":5732,"##ail":5733,"step":5734,"##cl":5735,"##ents":5736,"partic":5737,"##ub":5738,"##ork":5739,"rece":5740,"compris":5741,"##vel":5742,"further":5743,"id":5744,"chan":5745,"element":5746,"##ong":5747,"recei":5748,"##tain":5749,"sol":5750,"time":5751,"conf":5752,"display":5753,"##ased":5754,"spec":5755,"ass":5756,"ind":5757,"##ected":5758,"##ra":5759,"will":5760,"##pos":5761,"about":5762,"##ron":5763,"any":5764,"image":5765,"light":5766,"##uit":5767,"stor":5768,"##ame":5769,"using":5770,"##enc":5771,"##edi":5772,"##pr":5773,"if":5774,"application":5775,"##ox":5776,"##ater":5777,"##par":5778,"##ati":5779,"above":5780,"least":5781,"##te":5782,"view":5783,"set":5784,"than":5785,"differ":5786,"includes":5787,"##ured":5788,"tw":5789,"having":5790,"have":5791,"##ory":5792,"vol":5793,"##ective":5794,"config":5795,"side":5796,"##est":5797,"produc":5798,"##ech":5799,"##ound":5800,"##ably":5801,"ag":5802,"electro":5803,"##mit":5804,"loc":5805,"##roup":5806,"ins":5807,"here":5808,"##unction":5809,"group":5810,"ext":5811,"##ft":5812,"##res":5813,"circuit":5814,"cur":5815,"##tical":5816,"##ry":5817,"##other":5818,"##yd":5819,"##ors":5820,"specif":5821,"we":5822,"##ject":5823,"cap":5824,"dri":5825,"compon":5826,"but":5827,"some":5828,"struct":5829,"##one":5830,"formed":5831,"section":5832,"##ient":5833,"perform":5834,"##hed":5835,"##ature":5836,"commun":5837,"contain":5838,"two":5839,"##ose":5840,"##ort":5841,"another":5842,"##red":5843,"##ution":5844,"ro":5845,"sens":5846,"provided":5847,"##ual":5848,"requ":5849,"##ust":5850,"power":5851,"##arg":5852,"##ures":5853,"##ran":5854,"then":5855,"over":5856,"nu":5857,"rem":5858,"acid":5859,"addition":5860,"##uring":5861,"use":5862,"##ves":5863,"##ph":5864,"##etwork":5865,"##own":5866,"et":5867,"network":5868,"##uld":5869,"##iss":5870,"##ire":5871,"within":5872,"function":5873,"resul":5874,"region":5875,"resp":5876,"based":5877,"block":5878,"##atus":5879,"##ke":5880,"line":5881,"##cc":5882,"##ite":5883,"##ural":5884,"##ody":5885,"flow":5886,"##ys":5887,"mem":5888,"##ized":5889,"appar":5890,"output":5891,"##ros":5892,"##ule":5893,"member":5894,"herein":5895,"##eld":5896,"cons":5897,"reference":5898,"number":5899,"##hes":5900,"fe":5901,"particular":5902,"part":5903,"dist":5904,"eff":5905,"direction":5906,"##fter":5907,"##ene":5908,"determin":5909,"##ible":5910,"flu":5911,"press":5912,"bot":5913,"##int":5914,"##ner":5915,"##ydro":5916,"memory":5917,"high":5918,"operation":5919,"##action":5920,"input":5921,"red":5922,"lim":5923,"col":5924,"temp":5925,"ho":5926,"preferably":5927,"sl":5928,"these":5929,"##ically":5930,"##und":5931,"substr":5932,"comput":5933,"mul":5934,"##tit":5935,"def":5936,"##rap":5937,"communication":5938,"processing":5939,"##iti":5940,"controll":5941,"up":5942,"##ption":5943,"##adi":5944,"same":5945,"select":5946,"##lec":5947,"##ired":5948,"lin":5949,"##eng":5950,"type":5951,"apparatus":5952,"##atic":5953,"##rent":5954,"under":5955,"multi":5956,"##llow":5957,"##are":5958,"sw":5959,"##urce":5960,"different":5961,"##ade":5962,"##agn":5963,"corres":5964,"value":5965,"pri":5966,"comb":5967,"##____":5968,"medi":5969,"##rop":5970,"char":5971,"substrate":5972,"##ud":5973,"fre":5974,"volt":5975,"rot":5976,"##ages":5977,"##ield":5978,"prog":5979,"##hen":5980,"##aus":5981,"##oci":5982,"current":5983,"structure":5984,"##ies":5985,"##tiv":5986,"##hem":5987,"temper":5988,"##eth":5989,"its":5990,"sequ":5991,"mic":5992,"film":5993,"compos":5994,"##nel":5995,"non":5996,"figs":5997,"att":5998,"##ord":5999,"##ility":6000,"##ive":6001,"termin":6002,"##ward":6003,"been":6004,"like":6005,"identi":6006,"dep":6007,"##ane":6008,"limit":6009,"indic":6010,"lo":6011,"##ments":6012,"including":6013,"##clos":6014,"meas":6015,"follow":6016,"sim":6017,"after":6018,"devices":6019,"being":6020,"##out":6021,"##ength":6022,"equ":6023,"voltage":6024,"cond":6025,"##ency":6026,"thus":6027,"##iv":6028,"hydro":6029,"anti":6030,"provide":6031,"dec":6032,"open":6033,"##gg":6034,"##old":6035,"do":6036,"##vent":6037,"##ring":6038,"##ick":6039,"##eter":6040,"level":6041,"body":6042,"##ross":6043,"wa":6044,"various":6045,"##eg":6046,"plural":6047,"reduc":6048,"adj":6049,"##ture":6050,"##semb":6051,"##ould":6052,"ret":6053,"##ize":6054,"back":6055,"temperature":6056,"ox":6057,"##ined":6058,"incre":6059,"##ount":6060,"associ":6061,"state":6062,"eng":6063,"case":6064,"##ind":6065,"computer":6066,"##of":6067,"##fore":6068,"compound":6069,"connected":6070,"conduc":6071,"source":6072,"mon":6073,"program":6074,"transmit":6075,"prop":6076,"##ode":6077,"object":6078,"##xim":6079,"##ange":6080,"assemb":6081,"electrode":6082,"area":6083,"access":6084,"plurality":6085,"identif":6086,"were":6087,"##ings":6088,"module":6089,"cou":6090,"means":6091,"how":6092,"disclos":6093,"main":6094,"storage":6095,"only":6096,"prot":6097,"channel":6098,"##na":6099,"pressure":6100,"shap":6101,"sm":6102,"##mer":6103,"tre":6104,"min":6105,"obtain":6106,"server":6107,"##pper":6108,"lower":6109,"repr":6110,"kn":6111,"##acter":6112,"allow":6113,"base":6114,"description":6115,"cells":6116,"swit":6117,"##hic":6118,"##ise":6119,"pass":6120,"##empl":6121,"bel":6122,"##ress":6123,"##vi":6124,"terminal":6125,"sa":6126,"##stan":6127,"bi":6128,"fram":6129,"read":6130,"##cent":6131,"##ial":6132,"mix":6133,"##struc":6134,"cy":6135,"anal":6136,"carb":6137,"##xt":6138,"sem":6139,"she":6140,"##ponding":6141,"ax":6142,"coupl":6143,"altern":6144,"respective":6145,"qu":6146,"content":6147,"magn":6148,"during":6149,"##tim":6150,"corresponding":6151,"asp":6152,"water":6153,"associated":6154,"radi":6155,"##olog":6156,"##ood":6157,"order":6158,"well":6159,"cent":6160,"bec":6161,"cal":6162,"optical":6163,"via":6164,"ref":6165,"field":6166,"configured":6167,"##gen":6168,"while":6169,"##ulation":6170,"peri":6171,"selected":6172,"##round":6173,"table":6174,"made":6175,"component":6176,"##ium":6177,"##uration":6178,"##etic":6179,"##echn":6180,"##less":6181,"art":6182,"##ission":6183,"##ever":6184,"exp":6185,"hand":6186,"sensor":6187,"##rid":6188,"##ector":6189,"aut":6190,"represent":6191,"condition":6192,"composition":6193,"specific":6194,"cross":6195,"##uted":6196,"compar":6197,"##ination":6198,"techn":6199,"gas":6200,"thre":6201,"liqu":6202,"pack":6203,"remo":6204,"wire":6205,"amount":6206,"air":6207,"fluid":6208,"##val":6209,"arran":6210,"metal":6211,"wherein":6212,"however":6213,"exempl":6214,"interface":6215,"contact":6216,"ed":6217,"##ces":6218,"##li":6219,"comprises":6220,"##urn":6221,"##til":6222,"electron":6223,"poss":6224,"##raw":6225,"components":6226,"##lex":6227,"liquid":6228,"detail":6229,"servic":6230,"##ension":6231,"subs":6232,"##row":6233,"shows":6234,"inst":6235,"##por":6236,"thereof":6237,"assembly":6238,"##ucle":6239,"scre":6240,"##atively":6241,"both":6242,"elements":6243,"activ":6244,"mm":6245,"##mission":6246,"##echan":6247,"##ethyl":6248,"##ues":6249,"##ness":6250,"pred":6251,"preferred":6252,"##ang":6253,"##rib":6254,"pur":6255,"implement":6256,"frequ":6257,"##ilar":6258,"gl":6259,"el":6260,"suit":6261,"top":6262,"##posed":6263,"samp":6264,"diag":6265,"similar":6266,"illustrated":6267,"plate":6268,"separ":6269,"disc":6270,"mechan":6271,"pattern":6272,"semic":6273,"##onduct":6274,"direct":6275,"exemplary":6276,"##ization":6277,"##ism":6278,"##ware":6279,"following":6280,"character":6281,"sil":6282,"##itor":6283,"low":6284,"connection":6285,"alk":6286,"design":6287,"##ending":6288,"##ffic":6289,"##gan":6290,"solution":6291,"enc":6292,"carri":6293,"##onductor":6294,"pers":6295,"gu":6296,"##ration":6297,"##av":6298,"diagram":6299,"##que":6300,"##tially":6301,"aspect":6302,"##ob":6303,"sing":6304,"draw":6305,"##ases":6306,"need":6307,"sequence":6308,"semiconductor":6309,"##ged":6310,"point":6311,"sk":6312,"##pt":6313,"switch":6314,"bu":6315,"cer":6316,"filter":6317,"ke":6318,"##odif":6319,"##ino":6320,"frame":6321,"##arget":6322,"without":6323,"conver":6324,"target":6325,"##ession":6326,"-(":6327,"##ten":6328,"support":6329,"##ie":6330,"modif":6331,"those":6332,"av":6333,"accord":6334,"##tt":6335,"mob":6336,"##by":6337,"mess":6338,"tub":6339,"single":6340,"examples":6341,"thir":6342,"##arge":6343,"methods":6344,"ve":6345,"##rical":6346,"accordance":6347,"##ause":6348,"##mal":6349,"br":6350,"cat":6351,"respon":6352,"prote":6353,"controller":6354,"##ced":6355,"es":6356,"wall":6357,"ver":6358,"transfer":6359,"ma":6360,"range":6361,"##ear":6362,"##oxy":6363,"act":6364,"configuration":6365,"down":6366,")-":6367,"moun":6368,"##min":6369,"third":6370,"upper":6371,"##ugh":6372,"adv":6373,"mode":6374,"prin":6375,"##ecting":6376,"known":6377,"limited":6378,"multip":6379,"heat":6380,"performed":6381,"suitable":6382,"##art":6383,"result":6384,"long":6385,"substan":6386,"##ake":6387,"dr":6388,"link":6389,"##ately":6390,"##oy":6391,"gre":6392,"along":6393,"##ended":6394,"resist":6395,"possible":6396,"syn":6397,"less":6398,"##struction":6399,"sin":6400,"cover":6401,"vehic":6402,"inf":6403,"ang":6404,"comprising":6405,"applied":6406,"path":6407,"mobile":6408,"provides":6409,"off":6410,"spe":6411,"frequency":6412,"##inal":6413,"##erg":6414,"##ray":6415,"signals":6416,"phot":6417,"weight":6418,"head":6419,"gate":6420,"electric":6421,"below":6422,"integ":6423,"##ug":6424,"prob":6425,"hous":6426,"protein":6427,"etc":6428,"##let":6429,"occ":6430,"##fact":6431,"##aces":6432,"calc":6433,"therefore":6434,"length":6435,"pan":6436,"##ential":6437,"generally":6438,"##ously":6439,"##ier":6440,"stored":6441,"exec":6442,"small":6443,"location":6444,"##ral":6445,"##lection":6446,"fix":6447,"systems":6448,"bo":6449,"dim":6450,"obtained":6451,"intern":6452,"##ixel":6453,"transmission":6454,"determined":6455,"electronic":6456,"micro":6457,"##ability":6458,"desired":6459,"##tide":6460,"##tal":6461,"##aced":6462,"memb":6463,"log":6464,"##ream":6465,"##ute":6466,"rep":6467,"processor":6468,"##raph":6469,"##aa":6470,"##itive":6471,"##ark":6472,"silic":6473,"##ameter":6474,"inser":6475,"pixel":6476,"thick":6477,"way":6478,"containing":6479,"size":6480,"cha":6481,"outer":6482,"##uting":6483,"their":6484,"load":6485,"##ty":6486,"move":6487,"##ision":6488,"service":6489,"##ges":6490,"polymer":6491,"##ying":6492,"organ":6493,"appro":6494,"term":6495,"vehicle":6496,"received":6497,"dig":6498,"nm":6499,"##up":6500,"ml":6501,"expr":6502,"should":6503,"##io":6504,"axis":6505,"##atter":6506,"bit":6507,"##ope":6508,"fu":6509,"##to":6510,"period":6511,"##ough":6512,"capac":6513,"##aging":6514,"tri":6515,"fib":6516,"prior":6517,"##led":6518,"inde":6519,"carbon":6520,"illustrates":6521,"##ulated":6522,"forming":6523,"cre":6524,"methyl":6525,"##ently":6526,"soft":6527,"##over":6528,"##henyl":6529,"##ules":6530,"nucle":6531,"sti":6532,"treat":6533,"substantially":6534,"pa":6535,"phase":6536,"##________":6537,"manu":6538,"##ention":6539,"four":6540,"portions":6541,"certain":6542,"##sor":6543,"housing":6544,"pu":6545,"pati":6546,"valve":6547,"rate":6548,"supply":6549,"eth":6550,"schem":6551,"##atures":6552,"##ulating":6553,"said":6554,"coupled":6555,"panel":6556,"color":6557,"initi":6558,"molec":6559,"reaction":6560,"##ning":6561,"medium":6562,"vide":6563,"##ryst":6564,"hol":6565,"three":6566,"sheet":6567,"effect":6568,"multiple":6569,"##tom":6570,"media":6571,"cle":6572,"##istic":6573,"energ":6574,"mach":6575,"seal":6576,"measure":6577,"response":6578,"concent":6579,"bar":6580,"port":6581,"product":6582,"option":6583,"##ded":6584,"drive":6585,"address":6586,"active":6587,"prepar":6588,"screen":6589,"##ides":6590,"shape":6591,"##way":6592,"play":6593,"additional":6594,"##ered":6595,"fac":6596,"mechanism":6597,"wireless":6598,"inner":6599,"##az":6600,"##ci":6601,"##lor":6602,"adjust":6603,"emit":6604,"video":6605,"##ront":6606,"occur":6607,"rele":6608,"transist":6609,"lens":6610,"proper":6611,"manner":6612,"##ital":6613,"receiving":6614,"comprise":6615,"work":6616,"message":6617,"amino":6618,"##ached":6619,"impro":6620,"##ulf":6621,"util":6622,"##ult":6623,"contin":6624,"front":6625,"vir":6626,"agent":6627,"gi":6628,"ther":6629,"##ms":6630,"resin":6631,"##rac":6632,"corre":6633,"defined":6634,"key":6635,"generated":6636,"combination":6637,"si":6638,"materials":6639,"chamber":6640,"##agement":6641,"engine":6642,"vis":6643,"imm":6644,"fr":6645,"##ask":6646,"disposed":6647,"disclosure":6648,"electrical":6649,"manufact":6650,"opening":6651,"energy":6652,"relative":6653,"##ither":6654,"added":6655,"antib":6656,"deli":6657,"call":6658,"new":6659,"##jection":6660,"deliver":6661,"distrib":6662,"plan":6663,"avail":6664,"##rr":6665,"##ice":6666,"magnetic":6667,"incor":6668,"values":6669,"##usion":6670,"change":6671,"hard":6672,"##etermin":6673,"related":6674,"sample":6675,"pol":6676,"mg":6677,"respectively":6678,"conductive":6679,"whether":6680,"treatment":6681,"ap":6682,"##etermined":6683,"thickness":6684,"##ok":6685,"detection":6686,"cryst":6687,"showing":6688,"predetermined":6689,"feed":6690,"upon":6691,"advant":6692,"node":6693,"roll":6694,"since":6695,"phys":6696,"tiss":6697,"incorpor":6698,"bottom":6699,"code":6700,"##hib":6701,"stand":6702,"seq":6703,"cla":6704,"bin":6705,"again":6706,"sha":6707,"thereby":6708,"would":6709,"speed":6710,"##gre":6711,"hum":6712,"cut":6713,"##ties":6714,"array":6715,"web":6716,"characteristic":6717,"request":6718,"##astic":6719,"cd":6720,"results":6721,"instruction":6722,"##ences":6723,"clos":6724,"nor":6725,"they":6726,"##idth":6727,"typically":6728,"##ons":6729,"cam":6730,"substit":6731,"##ank":6732,".)":6733,"##ines":6734,"##asing":6735,"alkyl":6736,"either":6737,"##cer":6738,"drawings":6739,"ampl":6740,"digital":6741,"techni":6742,"beam":6743,"##tor":6744,"cr":6745,"##ends":6746,"available":6747,"##ument":6748,"claim":6749,"test":6750,"##arch":6751,"layers":6752,"hig":6753,"even":6754,"prim":6755,"pres":6756,"py":6757,"patient":6758,"comple":6759,"skill":6760,"card":6761,"gr":6762,"mot":6763,"lt":6764,"integr":6765,"nec":6766,"because":6767,"software":6768,"##vir":6769,"extern":6770,"edge":6771,"##enz":6772,"mixture":6773,"located":6774,"gt":6775,"##omer":6776,"ring":6777,"##idual":6778,"pul":6779,"operating":6780,"##velop":6781,"chem":6782,"monitor":6783,"tra":6784,"gly":6785,"##ermine":6786,"##cept":6787,"##elect":6788,"force":6789,"##ets":6790,"est":6791,"pot":6792,"##osph":6793,"respect":6794,"determine":6795,"##ia":6796,"convention":6797,"lines":6798,"##faces":6799,"##ma":6800,"greater":6801,"formul":6802,"applications":6803,"features":6804,"rati":6805,"##arb":6806,"adap":6807,"shaft":6808,"develop":6809,"##izing":6810,"indiv":6811,"solid":6812,"station":6813,"batter":6814,"##utes":6815,"does":6816,"oxide":6817,"##co":6818,"rotation":6819,"turn":6820,"fact":6821,"##ety":6822,"arranged":6823,"fluor":6824,"empl":6825,"##ume":6826,"enti":6827,"expl":6828,"seg":6829,"list":6830,"cool":6831,"##eters":6832,"opp":6833,"tak":6834,"subject":6835,"actu":6836,"sectional":6837,"space":6838,"##ities":6839,"##fficient":6840,"perm":6841,"angle":6842,"required":6843,"external":6844,"disp":6845,"##arm":6846,"lock":6847,"bus":6848,"##ish":6849,"item":6850,"machine":6851,"conditions":6852,"tissue":6853,"particularly":6854,"client":6855,"##resh":6856,"attached":6857,"patent":6858,"could":6859,"##roduc":6860,"lead":6861,"distance":6862,"##entioned":6863,"yl":6864,"##oid":6865,"alternatively":6866,"mark":6867,"sal":6868,"band":6869,"given":6870,"##con":6871,"pair":6872,"motor":6873,"caus":6874,"doc":6875,"model":6876,"##sequ":6877,"tube":6878,"scan":6879,"large":6880,"##sion":6881,"suppor":6882,"jo":6883,"##pend":6884,"pe":6885,"##pping":6886,"depic":6887,"ep":6888,"guide":6889,"schematic":6890,");":6891,"dimension":6892,"coun":6893,"referring":6894,"providing":6895,"steps":6896,"diameter":6897,"##ole":6898,"##ins":6899,"functional":6900,"cyl":6901,"##ether":6902,"##tif":6903,"##ling":6904,"ev":6905,"datab":6906,"disclosed":6907,"##ching":6908,"autom":6909,"file":6910,"##lay":6911,"##ensity":6912,"common":6913,"##gt":6914,"conventional":6915,"receive":6916,"##mn":6917,"employ":6918,"##rie":6919,"chip":6920,"atom":6921,"see":6922,"nit":6923,"##isting":6924,"ethyl":6925,"transistor":6926,"next":6927,"higher":6928,"ratio":6929,"coating":6930,"parts":6931,"##tr":6932,"deri":6933,"ach":6934,"underst":6935,"center":6936,"tool":6937,"##ote":6938,"bas":6939,"uni":6940,"illustrating":6941,"##electric":6942,"accordingly":6943,"due":6944,"pip":6945,"person":6946,"inv":6947,"##umer":6948,"##aining":6949,"previ":6950,"groups":6951,"##sed":6952,"purpos":6953,"##viron":6954,"##its":6955,"##iting":6956,"##ology":6957,"achie":6958,"oppos":6959,"environ":6960,"continu":6961,"arrange":6962,"encod":6963,"stream":6964,"aud":6965,"wind":6966,"battery":6967,"##ropri":6968,"%,":6969,"wave":6970,"admin":6971,"poin":6972,"human":6973,"buffer":6974,"individual":6975,"reduced":6976,"##acent":6977,"maintain":6978,"prof":6979,"##omp":6980,"necess":6981,"general":6982,"silicon":6983,"##ler":6984,"hal":6985,"appropri":6986,"##ryl":6987,"fuel":6988,"##yn":6989,"##ysis":6990,"most":6991,"entire":6992,"before":6993,"fixed":6994,"cycl":6995,"adhes":6996,"cop":6997,"##ser":6998,"##wise":6999,"##ants":7000,"effic":7001,"crystal":7002,"##though":7003,"although":7004,"hydrox":7005,"ste":7006,"##ful":7007,"pump":7008,"compounds":7009,"organic":7010,"specifically":7011,"word":7012,"##ps":7013,"depos":7014,"##itu":7015,"flex":7016,"##ified":7017,"##istr":7018,"##iec":7019,"adjacent":7020,"members":7021,"resistance":7022,"management":7023,"ii":7024,"recep":7025,"carrier":7026,"left":7027,"many":7028,"repl":7029,"impl":7030,"incorporated":7031,"standard":7032,"##oly":7033,"particles":7034,"colu":7035,"proced":7036,"volume":7037,"database":7038,"width":7039,"detailed":7040,"##ale":7041,"##eptide":7042,"record":7043,"approxim":7044,"hole":7045,"right":7046,"recor":7047,"column":7048,"##alle":7049,"align":7050,"positioned":7051,"mounted":7052,"event":7053,"scope":7054,"images":7055,"core":7056,"synt":7057,"internal":7058,"command":7059,"wr":7060,"face":7061,"formula":7062,"##alk":7063,"regions":7064,"##ha":7065,"understood":7066,"las":7067,"rear":7068,"displayed":7069,"phosph":7070,"free":7071,"total":7072,"movement":7073,"thresh":7074,"later":7075,"##ications":7076,"selec":7077,"##pher":7078,"enter":7079,"activity":7080,"increase":7081,"oil":7082,"##medi":7083,"effective":7084,"threshold":7085,"types":7086,"spring":7087,"expression":7088,"##pond":7089,"included":7090,"chlor":7091,"search":7092,"equal":7093,"reso":7094,"paralle":7095,"degre":7096,"##ually":7097,"##ily":7098,"units":7099,"##sc":7100,"surfaces":7101,"fill":7102,"recording":7103,"tog":7104,"host":7105,"together":7106,"##essed":7107,"computing":7108,"environment":7109,"track":7110,"##pped":7111,"##ulator":7112,"##gc":7113,"virt":7114,"parallel":7115,"claims":7116,"bro":7117,"analysis":7118,"container":7119,"communic":7120,"local":7121,"central":7122,"##ameters":7123,"pad":7124,"che":7125,"electrodes":7126,"inhib":7127,"measured":7128,"selection":7129,"##urces":7130,"minim":7131,"##ior":7132,"proxim":7133,"removed":7134,"##aps":7135,"functions":7136,"induc":7137,"sever":7138,"##ash":7139,"##ink":7140,"discus":7141,"camer":7142,"place":7143,"transmitted":7144,"##cle":7145,"maxim":7146,"absor":7147,"consid":7148,"now":7149,"dom":7150,"nan":7151,"touch":7152,"med":7153,"lab":7154,"implemented":7155,"toward":7156,"##ck":7157,"fin":7158,"μm":7159,"pc":7160,"shaped":7161,"prec":7162,"fast":7163,"polym":7164,"disk":7165,"setting":7166,"correspond":7167,"anten":7168,"hour":7169,"appropriate":7170,"analy":7171,"board":7172,"allows":7173,"laser":7174,"prevent":7175,"detected":7176,"cm":7177,"directly":7178,"##amic":7179,"##ocy":7180,"mak":7181,"##me":7182,"audio":7183,"##pective":7184,"detect":7185,"referred":7186,"suc":7187,"##ches":7188,"fab":7189,"advantage":7190,"##ific":7191,"changes":7192,"capable":7193,"disch":7194,"placed":7195,"ul":7196,"primary":7197,"##more":7198,"mentioned":7199,"pub":7200,"##ables":7201,"##ished":7202,"##aring":7203,"emitting":7204,"real":7205,"arrangement":7206,"##verse":7207,"##ath":7208,"insulating":7209,"##ited":7210,"physical":7211,"concentration":7212,"driving":7213,"hz":7214,"measurement":7215,"furthermore":7216,"remote":7217,"err":7218,"hor":7219,"still":7220,"##aly":7221,"operations":7222,"##ert":7223,"##ques":7224,"run":7225,"##gr":7226,"performance":7227,"##ogen":7228,"optionally":7229,"eas":7230,"parameters":7231,"chain":7232,"##ogn":7233,"polyp":7234,"led":7235,"return":7236,"##oth":7237,"ink":7238,"sulf":7239,"decre":7240,"glass":7241,"cust":7242,"binding":7243,"mol":7244,"div":7245,"intended":7246,"publ":7247,"document":7248,"amplif":7249,"recogn":7250,"rest":7251,"##onic":7252,"enh":7253,"arm":7254,"acet":7255,"coil":7256,"upd":7257,"proble":7258,"pin":7259,"name":7260,"programm":7261,"window":7262,"integrated":7263,"increased":7264,"receiver":7265,"plane":7266,"vertical":7267,"against":7268,"characteristics":7269,"dna":7270,"approximately":7271,"coll":7272,"produced":7273,"##ense":7274,"grow":7275,"instructions":7276,"graph":7277,"formation":7278,"class":7279,"normal":7280,"slot":7281,"distal":7282,"##verage":7283,"virtual":7284,"connector":7285,"charg":7286,"perspective":7287,"##ocol":7288,"##amin":7289,"structures":7290,"orient":7291,"techniques":7292,"relates":7293,"controlled":7294,"extr":7295,"##ched":7296,"mass":7297,"aff":7298,"##bo":7299,"attach":7300,"antibody":7301,"phenyl":7302,"driver":7303,"##ering":7304,"logic":7305,"gro":7306,"subsequ":7307,"stage":7308,"##ained":7309,"cp":7310,"delivery":7311,"##ax":7312,"sufficient":7313,"protocol":7314,"indicated":7315,"ann":7316,"##ground":7317,"conve":7318,"mir":7319,"distribution":7320,"skilled":7321,"site":7322,"post":7323,"##tides":7324,"neg":7325,"gene":7326,"motion":7327,"times":7328,"require":7329,"dem":7330,"action":7331,"page":7332,"suppl":7333,"tele":7334,"wir":7335,"camera":7336,"domain":7337,"peripher":7338,"clock":7339,"bre":7340,"rf":7341,"intermedi":7342,"##inyl":7343,"introduc":7344,"around":7345,"thin":7346,"immun":7347,"parti":7348,"em":7349,"therap":7350,"##side":7351,"index":7352,"background":7353,"game":7354,"fiber":7355,"vac":7356,"##carb":7357,"##back":7358,"benz":7359,"prepared":7360,"generate":7361,"install":7362,"processes":7363,"regist":7364,"alternative":7365,"##omes":7366,"day":7367,"switching":7368,"sup":7369,"##ceed":7370,"##tically":7371,"##ging":7372,"signific":7373,"ball":7374,"resulting":7375,"nucleic":7376,"difference":7377,"butt":7378,"users":7379,"modified":7380,"onto":7381,"substituted":7382,"ra":7383,"determining":7384,"chemical":7385,"short":7386,"necessary":7387,"cataly":7388,"spect":7389,"potential":7390,"several":7391,"inside":7392,"summ":7393,"maximum":7394,"charge":7395,"taken":7396,"coupling":7397,"segment":7398,"extending":7399,"star":7400,"compared":7401,"forms":7402,"secondary":7403,"complete":7404,"packet":7405,"hydrogen":7406,"piec":7407,"initial":7408,"##ca":7409,"isol":7410,"gear":7411,"automatic":7412,"##oss":7413,"##ush":7414,"agents":7415,"radio":7416,"blood":7417,"##ber":7418,"##ograph":7419,"properties":7420,"antenna":7421,"otherwise":7422,"relatively":7423,"shif":7424,"communications":7425,"linear":7426,"fit":7427,"##yb":7428,"stack":7429,"positive":7430,"##uble":7431,"##odes":7432,"independ":7433,"thermal":7434,"discussed":7435,"orig":7436,"##raphic":7437,"once":7438,"profile":7439,"##ersion":7440,"feature":7441,"significant":7442,"tes":7443,"cost":7444,"##aged":7445,"groo":7446,"optim":7447,"additionally":7448,"##itud":7449,"found":7450,"numer":7451,"longitud":7452,"##eries":7453,"points":7454,"electrically":7455,"adhesive":7456,"near":7457,"thread":7458,"instance":7459,"check":7460,"repe":7461,"##after":7462,"larg":7463,"plas":7464,"generating":7465,"production":7466,"##ost":7467,"objects":7468,"##hydro":7469,"ends":7470,"##ery":7471,"average":7472,"combin":7473,"##gor":7474,"facil":7475,"sle":7476,"tap":7477,"ol":7478,"fourth":7479,"##als":7480,"quan":7481,"intermediate":7482,"diss":7483,"complex":7484,"heter":7485,"stri":7486,"separate":7487,"bond":7488,"contac":7489,"broad":7490,"store":7491,"mask":7492,"dise":7493,"imaging":7494,"membran":7495,"##izon":7496,"##lation":7497,"horizon":7498,"receives":7499,"connect":7500,"##flu":7501,"”,":7502,"carried":7503,"acqu":7504,"##vable":7505,"lum":7506,"##entially":7507,"variety":7508,"connecting":7509,"wafer":7510,"##ga":7511,"const":7512,"aspects":7513,"ent":7514,"--":7515,"procedure":7516,"##anol":7517,"diff":7518,"##ially":7519,"##otide":7520,"##omm":7521,"wheel":7522,"error":7523,"##lying":7524,"mounting":7525,"##tivity":7526,"##hip":7527,"ge":7528,"##rix":7529,"polar":7530,"lat":7531,"row":7532,"##ridge":7533,"##ival":7534,"opposite":7535,"cav":7536,"tag":7537,"##velength":7538,"employed":7539,"##reci":7540,"rat":7541,"qual":7542,"wavelength":7543,"##jected":7544,"assign":7545,"mean":7546,"appreci":7547,"##tity":7548,"reduce":7549,"therm":7550,"reflect":7551,"sus":7552,"outside":7553,"lif":7554,"sensors":7555,"glyc":7556,"##erv":7557,"text":7558,"resid":7559,"##odies":7560,"##ological":7561,"estim":7562,"exch":7563,"pharm":7564,"heating":7565,"##lo":7566,"reques":7567,"frag":7568,"filed":7569,"##apor":7570,"generator":7571,"##amine":7572,"solvent":7573,"moreover":7574,"##line":7575,"##anc":7576,"flexible":7577,"presence":7578,"pulse":7579,"foc":7580,"acids":7581,"##zz":7582,"matrix":7583,"clean":7584,",”":7585,"equip":7586,"collect":7587,"##urity":7588,"dielectric":7589,"compositions":7590,"constant":7591,"depending":7592,"previously":7593,"inserted":7594,"levels":7595,"constit":7596,"transaction":7597,"determines":7598,"identified":7599,"terms":7600,"make":7601,"oxy":7602,"moving":7603,"among":7604,"sequences":7605,"variable":7606,"rod":7607,"cause":7608,"larger":7609,"##istration":7610,"##enting":7611,"##lumin":7612,"ms":7613,"dry":7614,"conj":7615,"release":7616,"combined":7617,"produce":7618,"expos":7619,"pd":7620,"pap":7621,"##ters":7622,"contains":7623,"hardware":7624,"##abil":7625,"loop":7626,"forward":7627,"cooling":7628,"hours":7629,"negative":7630,"##port":7631,"nat":7632,"##atis":7633,"until":7634,"very":7635,"facilit":7636,"##phone":7637,"closed":7638,"##ulate":7639,"##rief":7640,"##________________":7641,"brief":7642,"density":7643,"delay":7644,"##yr":7645,"drain":7646,"noted":7647,"tit":7648,"vector":7649,"equipment":7650,"tet":7651,"##valu":7652,"implant":7653,"desir":7654,"reac":7655,"acce":7656,"experi":7657,"obser":7658,"##abl":7659,"##read":7660,"artic":7661,"roller":7662,"screw":7663,"injection":7664,"products":7665,"##ared":7666,"represents":7667,"evalu":7668,"useful":7669,"##odium":7670,"cable":7671,"must":7672,"generation":7673,"passage":7674,"blocks":7675,"symb":7676,"##set":7677,"invol":7678,"label":7679,"##inder":7680,"simp":7681,"longitudinal":7682,"prom":7683,"ear":7684,"manufacturing":7685,"player":7686,"supplied":7687,"predic":7688,"##omet":7689,"piv":7690,"##alkyl":7691,"##arily":7692,"circum":7693,"mold":7694,"ion":7695,"smaller":7696,"##ference":7697,"fabric":7698,"percent":7699,"symbol":7700,"represented":7701,"##oxyl":7702,"wide":7703,"analog":7704,"positions":7705,"format":7706,"hel":7707,"printing":7708,"##ung":7709,"holes":7710,"mmol":7711,"series":7712,"ground":7713,"establ":7714,"detecting":7715,"conversion":7716,"##amide":7717,"radiation":7718,"sn":7719,"start":7720,"conte":7721,"##fluor":7722,"ip":7723,"##ists":7724,"##ye":7725,"bet":7726,"drop":7727,"flo":7728,"##iding":7729,"contr":7730,"##ropyl":7731,"cycle":7732,"pay":7733,"catalyst":7734,"improved":7735,"dc":7736,"alumin":7737,"synthes":7738,"##zy":7739,"box":7740,"fasten":7741,"##ided":7742,"tip":7743,"cart":7744,"membrane":7745,"fail":7746,"”)":7747,"nozz":7748,"improve":7749,"transport":7750,"##oing":7751,"modules":7752,"minutes":7753,"plat":7754,"##chron":7755,"##stream":7756,"channels":7757,"print":7758,"##iency":7759,"extends":7760,"detector":7761,"spac":7762,"button":7763,"summary":7764,"determination":7765,"becomes":7766,"horizontal":7767,"designed":7768,"##anced":7769,"actuator":7770,"bene":7771,"bound":7772,"calculated":7773,"capacitor":7774,"drug":7775,"##ibr":7776,"chrom":7777,"relations":7778,"decod":7779,"##mbers":7780,"##zed":7781,"gam":7782,"projection":7783,"purpose":7784,"monitoring":7785,"handle":7786,"plant":7787,"controlling":7788,"vo":7789,"instr":7790,"sodium":7791,"tor":7792,"##vers":7793,"equival":7794,"particle":7795,"dyn":7796,"la":7797,"specified":7798,"cylind":7799,"##izes":7800,"acryl":7801,"quality":7802,"concentr":7803,"areas":7804,"vacu":7805,"discharge":7806,"##olution":7807,"##ones":7808,"plastic":7809,"factor":7810,"counter":7811,"##ead":7812,"strength":7813,"##ites":7814,"pow":7815,"across":7816,"##essel":7817,"yet":7818,"extend":7819,"paper":7820,"room":7821,"##ru":7822,"indicates":7823,"modifications":7824,"carry":7825,"molecular":7826,"interval":7827,"identification":7828,"constr":7829,"##eu":7830,"stop":7831,"adapted":7832,"parameter":7833,"sent":7834,"##queous":7835,"operator":7836,"services":7837,"vessel":7838,"fing":7839,"ca":7840,"##ride":7841,"transpar":7842,"##ee":7843,"mechanical":7844,"##conn":7845,"cavity":7846,"cancer":7847,"##oph":7848,"absorb":7849,"##lf":7850,"depend":7851,"performing":7852,"buil":7853,"context":7854,"relationship":7855,"##use":7856,"ic":7857,"similarly":7858,"cann":7859,"prac":7860,"vary":7861,"pic":7862,"exc":7863,"able":7864,"timing":7865,"plu":7866,"seen":7867,"##racted":7868,"flat":7869,"sensing":7870,"##ybrid":7871,"stim":7872,"close":7873,"##urb":7874,"##tively":7875,"peripheral":7876,"slee":7877,"utilized":7878,"lip":7879,"interconn":7880,"hybrid":7881,"package":7882,"illum":7883,"cases":7884,"):":7885,"easily":7886,"-[":7887,"coord":7888,"′-":7889,"gel":7890,"nitro":7891,"trig":7892,"circuitry":7893,"aqueous":7894,"uses":7895,"internet":7896,"den":7897,"noise":7898,"transform":7899,"##load":7900,"remain":7901,"status":7902,"cylinder":7903,"partially":7904,"pivot":7905,"##gorith":7906,"##verti":7907,"algorith":7908,"oxygen":7909,"clear":7910,"##zation":7911,"wt":7912,"enable":7913,"cpu":7914,"##hentic":7915,"##erc":7916,"##att":7917,"resource":7918,"accept":7919,"growth":7920,"samples":7921,"adverti":7922,"transition":7923,"refers":7924,"##carbon":7925,"height":7926,"susp":7927,"##ibration":7928,"personal":7929,"authentic":7930,"them":7931,"leg":7932,"depicted":7933,"defin":7934,"illustrative":7935,"sealing":7936,"##onal":7937,"##inate":7938,"pp":7939,"##anes":7940,"##ification":7941,"words":7942,"##aceu":7943,"##ores":7944,"pipe":7945,"appear":7946,"seat":7947,"become":7948,"hom":7949,"restric":7950,"accur":7951,"pixels":7952,"account":7953,"implementation":7954,"cutting":7955,"synchron":7956,"mel":7957,"transmitting":7958,"##sp":7959,"bearing":7960,"readable":7961,"ray":7962,"medical":7963,"zone":7964,"platform":7965,"blade":7966,"cac":7967,"full":7968,"sections":7969,"note":7970,"sound":7971,"write":7972,"attrib":7973,"instead":7974,"hyd":7975,"pharmaceu":7976,"reduction":7977,"assay":7978,"efficiency":7979,"deriv":7980,"appreciated":7981,"circuits":7982,"mac":7983,"desirable":7984,"degree":7985,"##ne":7986,"map":7987,"technology":7988,"executed":7989,"achieved":7990,"atoms":7991,"dimensional":7992,"cathe":7993,"sources":7994,"focus":7995,"limiting":7996,"iss":7997,"##andom":7998,"treated":7999,"amp":8000,"items":8001,"molecule":8002,"transparent":8003,"probe":8004,"proximal":8005,"directed":8006,"problem":8007,"benef":8008,"vacuum":8009,"enzy":8010,"##hol":8011,"sleeve":8012,"bon":8013,"inlet":8014,"attachment":8015,"))":8016,"##vant":8017,"locking":8018,"indicating":8019,"##ethylene":8020,"disease":8021,"##fl":8022,"increasing":8023,"leu":8024,"random":8025,"dop":8026,"consisting":8027,"##ager":8028,"derived":8029,"regard":8030,"making":8031,"exposed":8032,"sides":8033,"security":8034,"stud":8035,"##ble":8036,"##ances":8037,"copoly":8038,"construc":8039,"trigg":8040,"##ryp":8041,"contained":8042,"therein":8043,"bran":8044,"antibodies":8045,"mut":8046,"indicate":8047,"gap":8048,"combinations":8049,"purposes":8050,"polypeptide":8051,"controls":8052,"plasma":8053,"##orph":8054,"elong":8055,"mirr":8056,"bone":8057,"##cell":8058,"acceler":8059,"##hz":8060,"##ump":8061,"hex":8062,"##wardly":8063,"outlet":8064,"apparent":8065,"ue":8066,"anim":8067,"ris":8068,"##cg":8069,"com":8070,"hydroxy":8071,"loss":8072,"piece":8073,"##ational":8074,"##haust":8075,"exhaust":8076,"oxid":8077,"encoding":8078,"correction":8079,"phone":8080,"notif":8081,"##ender":8082,"interior":8083,"##atory":8084,"##ison":8085,"##itude":8086,"ether":8087,"skin":8088,"reducing":8089,"nodes":8090,"hyp":8091,"##board":8092,"uniform":8093,"called":8094,"secure":8095,"identifier":8096,"plug":8097,"depth":8098,"arch":8099,"##ta":8100,"photo":8101,"situ":8102,"##bs":8103,"##acy":8104,"stir":8105,"ton":8106,"extension":8107,"react":8108,"composite":8109,"measuring":8110,"create":8111,"advantages":8112,"technique":8113,"forth":8114,"##inary":8115,"visual":8116,"##ata":8117,"holding":8118,"ord":8119,"molecules":8120,"clu":8121,"olig":8122,"dimethyl":8123,"effects":8124,"preparation":8125,"away":8126,"##ks":8127,"moved":8128,"capt":8129,"applic":8130,"##ography":8131,"recess":8132,"groove":8133,"automatically":8134,"abs":8135,"mixed":8136,"cylindrical":8137,"orientation":8138,"expand":8139,"##rier":8140,"coe":8141,"peptide":8142,"peak":8143,"presented":8144,"powder":8145,"wiring":8146,"portable":8147,"##icy":8148,"clamp":8149,"customer":8150,"increases":8151,"proteins":8152,"##ultane":8153,"##ires":8154,"simultane":8155,"construction":8156,"nozzle":8157,"ful":8158,"ir":8159,"corresponds":8160,"import":8161,"alignment":8162,"butyl":8163,"cyclo":8164,"catheter":8165,"ele":8166,"mid":8167,"supporting":8168,"yield":8169,"pull":8170,"ens":8171,"administ":8172,"pen":8173,"compression":8174,"inver":8175,"basis":8176,"sets":8177,"identify":8178,"compress":8179,"half":8180,"##hetic":8181,"considered":8182,"correct":8183,"ow":8184,"locations":8185,"intensity":8186,"hold":8187,"##dd":8188,"task":8189,"capacity":8190,"##here":8191,"processed":8192,"reson":8193,"changed":8194,"phen":8195,"respons":8196,"##oxide":8197,"query":8198,"sched":8199,"interest":8200,"##ompan":8201,"accompan":8202,"die":8203,"##pec":8204,"retrie":8205,"flowch":8206,"therapeu":8207,"good":8208,"often":8209,"uns":8210,"illustrate":8211,"scanning":8212,"rather":8213,"execution":8214,"##agg":8215,"##atile":8216,"separated":8217,"positioning":8218,"ps":8219,"entry":8220,"salt":8221,"sho":8222,"tun":8223,"elastic":8224,"created":8225,"convey":8226,"##ero":8227,"flash":8228,"exposure":8229,"anch":8230,"##mos":8231,"pist":8232,"causes":8233,"##ishing":8234,"coated":8235,"overl":8236,"interaction":8237,"reflec":8238,"##mid":8239,"terminals":8240,"repor":8241,"blu":8242,"##elf":8243,"amplifier":8244,"cartridge":8245,"spl":8246,"tum":8247,"compens":8248,"##acement":8249,"ligh":8250,"lc":8251,"##ident":8252,"session":8253,"fully":8254,"take":8255,"independently":8256,"lateral":8257,"plates":8258,"alloc":8259,"insertion":8260,"##cop":8261,"aluminum":8262,"converter":8263,"adjustment":8264,"continuous":8265,"travel":8266,"six":8267,"##rol":8268,"##hor":8269,"##ortion":8270,"occurs":8271,"conductor":8272,"aper":8273,"aperture":8274,"belt":8275,"fluores":8276,"partial":8277,"foreg":8278,"patterns":8279,"bits":8280,"##arged":8281,"surg":8282,"printed":8283,"string":8284,"fold":8285,"##ographic":8286,"configur":8287,"##ave":8288,"cc":8289,"variations":8290,"wo":8291,"feedback":8292,"enab":8293,"##ian":8294,"##cohol":8295,"##ibility":8296,"tank":8297,"dil":8298,"]-":8299,"needed":8300,"##aph":8301,"toner":8302,"barrier":8303,"axial":8304,"adjusted":8305,"er":8306,"##link":8307,"subsequent":8308,"provider":8309,"##arding":8310,"final":8311,"indicator":8312,"contents":8313,"storing":8314,"his":8315,"##ceeds":8316,"avoid":8317,"finger":8318,"operate":8319,"outputs":8320,"implementations":8321,"nh":8322,"original":8323,"grad":8324,"flowchart":8325,"priority":8326,"turb":8327,"capacit":8328,"joint":8329,"rib":8330,"degrees":8331,"diffic":8332,"##ised":8333,"##izer":8334,"dispens":8335,"##vd":8336,"subscri":8337,"hist":8338,"mus":8339,"specification":8340,"dam":8341,"comparison":8342,"beg":8343,"##gu":8344,"lys":8345,"##omers":8346,"minimum":8347,"mirror":8348,"##enu":8349,"deposition":8350,"provision":8351,"ess":8352,"pyrid":8353,"held":8354,"voice":8355,"dynamic":8356,"ever":8357,"aryl":8358,"generates":8359,"recover":8360,"success":8361,"achieve":8362,"##aster":8363,"etching":8364,"##agnetic":8365,"torque":8366,"actual":8367,"driven":8368,"##methyl":8369,"holder":8370,"messages":8371,"depar":8372,"allowing":8373,"segments":8374,"spir":8375,"alcohol":8376,"instrument":8377,"resources":8378,"sense":8379,"illustration":8380,"broadc":8381,"ability":8382,"performs":8383,"follows":8384,"reading":8385,"elev":8386,"%)":8387,"cleaning":8388,"zero":8389,"fibers":8390,"views":8391,"reserv":8392,"administration":8393,"##raft":8394,"mill":8395,"structural":8396,"glycol":8397,"distributed":8398,"##cin":8399,"##oh":8400,"cache":8401,"##atur":8402,"strip":8403,"contacts":8404,"piston":8405,"infl":8406,"##tine":8407,"accompanying":8408,"assigned":8409,"polymeri":8410,"activated":8411,"win":8412,"go":8413,"arg":8414,"shift":8415,"self":8416,"dos":8417,"needle":8418,"##amino":8419,"emission":8420,"irr":8421,"drill":8422,"destin":8423,"separation":8424,"transferred":8425,"##enyl":8426,"##erif":8427,"##eration":8428,"##ret":8429,"arrow":8430,"nitrogen":8431,"foregoing":8432,"white":8433,"anchor":8434,"bal":8435,"rotating":8436,"fer":8437,"supported":8438,"collection":8439,"##gn":8440,"incl":8441,"removal":8442,"##otides":8443,"##osis":8444,"applying":8445,"details":8446,"overall":8447,"stress":8448,"ur":8449,"dm":8450,"double":8451,"cf":8452,"rig":8453,"thereto":8454,"cellular":8455,"protection":8456,"offset":8457,"##ili":8458,"installed":8459,"register":8460,"diagn":8461,"eye":8462,"pop":8463,"espec":8464,"rotor":8465,"efficient":8466,"heated":8467,"##eptides":8468,"rail":8469,"fif":8470,"au":8471,"especially":8472,"communicate":8473,"movable":8474,"lamin":8475,"networks":8476,"iden":8477,"functionality":8478,"##ss":8479,"hereinafter":8480,"rub":8481,"assist":8482,"approach":8483,"##azol":8484,"itself":8485,"##acryl":8486,"algorithm":8487,"ct":8488,"##po":8489,"facilitate":8490,"saf":8491,"cannot":8492,"authentication":8493,"mes":8494,"extended":8495,"rang":8496,"stabil":8497,"walls":8498,"bonding":8499,"##icular":8500,"remaining":8501,"openings":8502,"##iness":8503,"engagement":8504,"##vity":8505,"lang":8506,"dissol":8507,"unique":8508,"##tes":8509,"##tics":8510,"##atives":8511,"electrom":8512,"rect":8513,"polymers":8514,"tubular":8515,"##inity":8516,"elim":8517,"tempor":8518,"brow":8519,"##acing":8520,"mp":8521,"manager":8522,"offer":8523,"tab":8524,"typical":8525,"lig":8526,"break":8527,"##ounts":8528,"existing":8529,"numbers":8530,"circular":8531,"bis":8532,"rna":8533,"permit":8534,"sto":8535,"simpl":8536,"super":8537,"caused":8538,"door":8539,"##itation":8540,"##ild":8541,"acetate":8542,"depicts":8543,"glu":8544,"dried":8545,"##ocket":8546,"magnet":8547,"##cag":8548,"##organ":8549,"interp":8550,"conduit":8551,"##stances":8552,"development":8553,"traffic":8554,"important":8555,"every":8556,"charging":8557,"##elding":8558,"##onium":8559,"identical":8560,"simultaneously":8561,"fragment":8562,"introduced":8563,"##dle":8564,"copper":8565,"##tle":8566,"matter":8567,"consist":8568,"##active":8569,"scale":8570,"fall":8571,"verif":8572,"ga":8573,"##ots":8574,"cho":8575,"producing":8576,"##tice":8577,"##ld":8578,"spaced":8579,"displays":8580,"##ening":8581,"transistors":8582,"lit":8583,"sensitive":8584,"osc":8585,"conc":8586,"edges":8587,"drawing":8588,"fat":8589,"phosphor":8590,"tetra":8591,"gain":8592,"##ilic":8593,"##ooth":8594,"##uck":8595,"##rate":8596,"strand":8597,"transmitter":8598,"might":8599,"##ients":8600,"##onucle":8601,"entity":8602,"langu":8603,"##ued":8604,"propyl":8605,"secured":8606,"carboxyl":8607,"##ploy":8608,"version":8609,"##greg":8610,"##uments":8611,"##our":8612,"gluc":8613,"constructed":8614,"##hex":8615,"insert":8616,"##ned":8617,"##pendicular":8618,"perpendicular":8619,"working":8620,"subsequently":8621,"stores":8622,"ce":8623,"resolution":8624,"files":8625,"(“":8626,"ram":8627,"deposited":8628,"ultr":8629,"maintained":8630,"##ommod":8631,"hot":8632,"heal":8633,"##aw":8634,"mixing":8635,"equivalent":8636,"accommod":8637,"manufactured":8638,"seed":8639,"contrast":8640,"deploy":8641,"annular":8642,"##angular":8643,"squ":8644,"followed":8645,"basic":8646,"selecting":8647,"##aste":8648,"destination":8649,"oscill":8650,"diode":8651,"reas":8652,"frames":8653,"alter":8654,"analyz":8655,"natural":8656,"combus":8657,"variation":8658,"author":8659,"##wall":8660,"therapeutic":8661,"preferable":8662,"capture":8663,"##adily":8664,"conjunction":8665,"rigid":8666,"exchange":8667,"##asc":8668,"##tures":8669,"configurations":8670,"synthesis":8671,"starting":8672,"iii":8673,"flange":8674,"much":8675,"metall":8676,"figures":8677,"satis":8678,"cate":8679,"ultras":8680,"picture":8681,"lith":8682,"makes":8683,"representation":8684,"inhibit":8685,"send":8686,"dose":8687,"observed":8688,"thr":8689,"linked":8690,"moves":8691,"her":8692,"il":8693,"na":8694,"archit":8695,"explained":8696,"expressed":8697,"shell":8698,"special":8699,"readily":8700,"encryp":8701,"fem":8702,"vapor":8703,"suppress":8704,"what":8705,"remove":8706,"previous":8707,"##oir":8708,"architect":8709,"cul":8710,"##acket":8711,"usually":8712,"telephone":8713,"exhib":8714,"define":8715,"lea":8716,"longer":8717,"activation":8718,"##umption":8719,"factors":8720,"chloride":8721,"aligned":8722,"##ds":8723,"##erior":8724,"reservoir":8725,"nmr":8726,"selectively":8727,"black":8728,"gri":8729,"hydra":8730,"expans":8731,"##gf":8732,"electroly":8733,"templ":8734,"##ctt":8735,"##word":8736,"coding":8737,"promot":8738,"##bit":8739,"receptor":8740,"planar":8741,"fixing":8742,"clust":8743,"bul":8744,"partition":8745,"##icial":8746,"lamp":8747,"events":8748,"thi":8749,"enables":8750,"printer":8751,"reli":8752,"purch":8753,"##amm":8754,"designated":8755,"##utter":8756,"##ex":8757,"simple":8758,"except":8759,"complement":8760,"best":8761,"##rum":8762,"cour":8763,"cand":8764,"article":8765,"bor":8766,"combustion":8767,"acceptable":8768,"recorded":8769,"accum":8770,"protective":8771,"reverse":8772,"antigen":8773,"dispers":8774,"figure":8775,"valid":8776,"##atin":8777,"##terior":8778,"ester":8779,"##inated":8780,"programs":8781,"immedi":8782,"modification":8783,"wor":8784,"##unding":8785,"reproduc":8786,"logical":8787,"##vents":8788,"repeated":8789,"refr":8790,"transmits":8791,"mhz":8792,"transduc":8793,"vel":8794,"##stance":8795,"embed":8796,"oh":8797,"update":8798,"ordinary":8799,"property":8800,"##rel":8801,"mer":8802,"nitride":8803,"chart":8804,"protr":8805,"expansion":8806,"##ider":8807,"identifying":8808,"##osity":8809,"cath":8810,"equation":8811,"##ometric":8812,"cs":8813,"##inc":8814,"had":8815,"extracted":8816,"##rocess":8817,"foot":8818,"tape":8819,"express":8820,"aggreg":8821,"##lets":8822,"project":8823,"##rif":8824,"visc":8825,"##ester":8826,"carrying":8827,"bacter":8828,"##oma":8829,"isolated":8830,"##ways":8831,"ala":8832,"##usting":8833,"crystall":8834,"##ns":8835,"interference":8836,"problems":8837,"bore":8838,"##irm":8839,"oct":8840,"foam":8841,"##ectors":8842,"heart":8843,"spray":8844,"difficult":8845,"measurements":8846,"broadcast":8847,"##ators":8848,"ta":8849,"candid":8850,"##ects":8851,"manip":8852,"days":8853,"nucleotide":8854,"changing":8855,"recip":8856,"##ault":8857,"##cei":8858,"appended":8859,"bur":8860,"##aturated":8861,"differential":8862,"casing":8863,"##air":8864,"mouse":8865,"##tors":8866,"collected":8867,"enhance":8868,"reception":8869,"##omb":8870,"hetero":8871,"tumor":8872,"rotational":8873,"##vision":8874,"last":8875,"better":8876,"consequ":8877,"illumination":8878,"virus":8879,"packets":8880,"rap":8881,"##lock":8882,"cu":8883,"##arrow":8884,"home":8885,"irradi":8886,"my":8887,"gaming":8888,"master":8889,"business":8890,"switches":8891,"##acc":8892,"##width":8893,"life":8894,"suspension":8895,"adjusting":8896,"##encies":8897,"steel":8898,"rad":8899,"nav":8900,"green":8901,"count":8902,"operated":8903,"departing":8904,"rein":8905,"decision":8906,"strain":8907,"administered":8908,"enclos":8909,"substance":8910,"running":8911,"pick":8912,"##aag":8913,"slide":8914,"crit":8915,"wear":8916,"matching":8917,"##--":8918,"course":8919,"assum":8920,"comparative":8921,"##vo":8922,"exchang":8923,"turned":8924,"programming":8925,"dele":8926,"fraction":8927,"kg":8928,"cred":8929,"nature":8930,"encoded":8931,"hydroph":8932,"##anium":8933,"biological":8934,"##hing":8935,"##ano":8936,"##ulose":8937,"evapor":8938,"passes":8939,"states":8940,"route":8941,"divided":8942,"##mitted":8943,"pharmaceutical":8944,"curve":8945,"relation":8946,"enhanced":8947,"##thal":8948,"limitation":8949,"##ulates":8950,"trad":8951,"acco":8952,"clip":8953,"##inant":8954,"accompl":8955,"bag":8956,"whereby":8957,"epit":8958,"lik":8959,"##opropyl":8960,"spectrum":8961,"towards":8962,"cri":8963,"##ractive":8964,"##roll":8965,"highly":8966,"##icated":8967,"stra":8968,"stem":8969,"##zo":8970,"hydraul":8971,"excess":8972,"quantity":8973,"vinyl":8974,"##atch":8975,"rubber":8976,"veloc":8977,"language":8978,"enl":8979,"requests":8980,"identity":8981,"genes":8982,"##ench":8983,"directions":8984,"decrease":8985,"weigh":8986,"##bor":8987,"allowed":8988,"recognition":8989,"##rete":8990,"ethylene":8991,"currently":8992,"protrusion":8993,"surgical":8994,"flows":8995,"##ready":8996,"imped":8997,"dependent":8998,"filled":8999,"tray":9000,"bol":9001,"residue":9002,"navig":9003,"failure":9004,"##view":9005,"hollow":9006,"fields":9007,"completely":9008,"##riction":9009,"mr":9010,"til":9011,"films":9012,"already":9013,"match":9014,"ec":9015,"lighting":9016,"synthetic":9017,"bandwidth":9018,"few":9019,"spati":9020,"ports":9021,"advantageous":9022,"regarding":9023,"microp":9024,"indication":9025,"##ystem":9026,"##sm":9027,"dispersion":9028,"friction":9029,"beha":9030,"food":9031,"chloro":9032,"contempl":9033,"”.":9034,"who":9035,"turbine":9036,"alloy":9037,"##aker":9038,"waveform":9039,"advertise":9040,"lever":9041,"recomb":9042,"##romatic":9043,"##ulin":9044,"circumfer":9045,"hing":9046,"writ":9047,"cathode":9048,"volatile":9049,"maj":9050,"significantly":9051,"reinfor":9052,"requires":9053,"hence":9054,"pit":9055,"particip":9056,"trigger":9057,"##part":9058,"purified":9059,"##layer":9060,"solar":9061,"reag":9062,"straight":9063,"whole":9064,"blad":9065,"atmos":9066,"ingr":9067,"ingredi":9068,"spirit":9069,"servers":9070,"major":9071,"health":9072,"retain":9073,"render":9074,"relevant":9075,"afor":9076,"ly":9077,"stirred":9078,"stability":9079,"fifth":9080,"rom":9081,"tracking":9082,"slight":9083,"causing":9084,"scheme":9085,"connections":9086,"nut":9087,"##iers":9088,"compressed":9089,"confirm":9090,"patients":9091,"tc":9092,"radial":9093,"whose":9094,"##head":9095,"##oming":9096,"fine":9097,"silica":9098,"consumption":9099,"tension":9100,"pig":9101,"bind":9102,"sidewall":9103,"electromagnetic":9104,"##ining":9105,"hydraulic":9106,"composed":9107,"representative":9108,"amb":9109,"##uture":9110,".).":9111,"blue":9112,"incident":9113,"clin":9114,"pcr":9115,"micros":9116,"five":9117,"##cence":9118,"needs":9119,"transcri":9120,"iv":9121,"##mmet":9122,"leak":9123,"bias":9124,"##ses":9125,"grid":9126,"solder":9127,"throughout":9128,"anode":9129,"testing":9130,"displaying":9131,"washed":9132,"loaded":9133,"push":9134,"replaced":9135,"denot":9136,"salts":9137,"drum":9138,"af":9139,"condens":9140,"##nas":9141,"amounts":9142,"##atable":9143,"expected":9144,"aux":9145,"satisf":9146,"shared":9147,"visible":9148,"reflected":9149,"##vol":9150,"##osen":9151,"though":9152,"##grad":9153,"monomer":9154,"soci":9155,"sci":9156,"nos":9157,"surro":9158,"therapy":9159,"##ii":9160,"influ":9161,"dimensions":9162,"vibration":9163,"copolymer":9164,"downstream":9165,"adding":9166,"removing":9167,"bio":9168,"operational":9169,"give":9170,"polyn":9171,"##jecting":9172,"preven":9173,"rectangular":9174,"progress":9175,"rules":9176,"##ml":9177,"velocity":9178,"calculation":9179,"latch":9180,"independent":9181,"consumer":9182,"requirements":9183,"##inates":9184,"μl":9185,"delivered":9186,"programmable":9187,"diffusion":9188,"kind":9189,"culture":9190,"procedures":9191,"ter":9192,"##ensive":9193,"evaluation":9194,"sites":9195,"instances":9196,"##iliary":9197,"facing":9198,"impact":9199,"bank":9200,"##ctg":9201,"split":9202,"##ries":9203,"ni":9204,"wires":9205,"neut":9206,"commonly":9207,"repres":9208,"date":9209,"representing":9210,"experiment":9211,"schedul":9212,"precur":9213,"molding":9214,"arc":9215,"rapid":9216,"rotated":9217,"temperatures":9218,"modulation":9219,"##onstr":9220,"spacer":9221,"mos":9222,"behavi":9223,"coefficient":9224,"substrates":9225,"male":9226,"##ken":9227,"embedded":9228,"ceramic":9229,"enzyme":9230,"duration":9231,"##opl":9232,"hem":9233,"know":9234,"upl":9235,"penet":9236,"##uent":9237,"interfaces":9238,"middle":9239,"##phenyl":9240,"keep":9241,"##hyd":9242,"viewing":9243,"formulation":9244,"##onyl":9245,"job":9246,"##tac":9247,"polyethylene":9248,"public":9249,"mail":9250,"look":9251,"##flow":9252,"curved":9253,"score":9254,"engage":9255,"alph":9256,"##eria":9257,"entit":9258,"amm":9259,"vit":9260,"filtered":9261,"##ples":9262,"usage":9263,"technical":9264,"template":9265,"surfact":9266,"benefit":9267,"sends":9268,"converted":9269,"developed":9270,"apply":9271,"effectively":9272,"stable":9273,"%.":9274,"har":9275,"surrounding":9276,"threaded":9277,"mal":9278,"reflection":9279,"rob":9280,"shield":9281,"prost":9282,"subjected":9283,"proportion":9284,"hub":9285,"compart":9286,"engaging":9287,"rou":9288,"insulation":9289,"passing":9290,"##anted":9291,"conjug":9292,"##rob":9293,"wri":9294,"completed":9295,"architecture":9296,"charged":9297,"preventing":9298,"facility":9299,"captured":9300,"risk":9301,"##ipped":9302,"wee":9303,"dissolved":9304,"multiplex":9305,"inputs":9306,"glob":9307,"relay":9308,"sor":9309,"inven":9310,"nd":9311,"impedance":9312,"##tis":9313,"′,":9314,"exist":9315,"auxiliary":9316,"pads":9317,"panels":9318,"capacitance":9319,"wet":9320,"custom":9321,"smart":9322,"diagnos":9323,"concer":9324,"graphic":9325,"transl":9326,"libr":9327,"narrow":9328,"plants":9329,"orth":9330,"help":9331,"established":9332,"definition":9333,"sheets":9334,"oligonucle":9335,"ensure":9336,"jap":9337,"thereafter":9338,"inventive":9339,".),":9340,"##atg":9341,"fed":9342,"utilizing":9343,"immediately":9344,"just":9345,"entirety":9346,"invent":9347,"emitted":9348,"arms":9349,"chromat":9350,"##raz":9351,"spread":9352,"strong":9353,"trifluor":9354,".”":9355,"##azole":9356,"pie":9357,"methoxy":9358,"notification":9359,"conven":9360,"seconds":9361,"rs":9362,"parent":9363,"lumin":9364,"alternate":9365,"transcei":9366,"mice":9367,"amplitude":9368,"hep":9369,"polymerization":9370,"##cope":9371,"acous":9372,"bracket":9373,"solutions":9374,"##aking":9375,"##tc":9376,"publication":9377,"##ologies":9378,"bonded":9379,"consum":9380,"symbols":9381,"hs":9382,"dic":9383,"entitled":9384,"serial":9385,"simply":9386,"pieces":9387,"lid":9388,"##hy":9389,"reflective":9390,"##temp":9391,"emul":9392,"soluble":9393,"reactor":9394,"hook":9395,"ult":9396,"resistor":9397,"##osens":9398,"rotary":9399,"computers":9400,"party":9401,"square":9402,"round":9403,"caps":9404,"loading":9405,"porous":9406,"aa":9407,"derivatives":9408,"quick":9409,"optional":9410,"##ementioned":9411,"pain":9412,"aforementioned":9413,"concept":9414,"graphical":9415,"amine":9416,"##cip":9417,"brom":9418,"links":9419,"priv":9420,"payment":9421,"##ocyan":9422,"species":9423,"vent":9424,"##cep":9425,"##ars":9426,"marker":9427,"chosen":9428,"report":9429,"slots":9430,"alone":9431,"##point":9432,"winding":9433,"proceeds":9434,"absorption":9435,"##iring":9436,"forces":9437,"##top":9438,"incub":9439,"subscriber":9440,"inters":9441,"extraction":9442,"treating":9443,"mapping":9444,"oriented":9445,"##ycl":9446,"induced":9447,"fusion":9448,"norm":9449,"gran":9450,"brake":9451,"done":9452,"demonstr":9453,"##band":9454,"conductivity":9455,"##organic":9456,"reset":9457,"subsystem":9458,"##estion":9459,"passed":9460,"##bed":9461,"social":9462,"interfer":9463,"written":9464,"rotate":9465,"elongated":9466,"viscosity":9467,"aromatic":9468,"rp":9469,"floor":9470,"unless":9471,"reader":9472,"infr":9473,"animal":9474,"updated":9475,"encaps":9476,"displacement":9477,"header":9478,"stent":9479,"intra":9480,"vectors":9481,"sliding":9482,"lumen":9483,"micron":9484,"defines":9485,"polynucle":9486,"television":9487,"oc":9488,"db":9489,"degrad":9490,"collec":9491,"building":9492,"serve":9493,"gra":9494,"isolation":9495,"infrared":9496,"documents":9497,"others":9498,"concentrated":9499,"fan":9500,"compan":9501,"attribute":9502,"##ament":9503,"##uth":9504,"download":9505,"insp":9506,"##used":9507,"inorganic":9508,"characterized":9509,"titanium":9510,"##omethyl":9511,"radially":9512,"##ulus":9513,"attemp":9514,"shapes":9515,"pent":9516,"stimulation":9517,"prep":9518,"schematically":9519,"supports":9520,"smooth":9521,"pairs":9522,"##omy":9523,"commer":9524,"heater":9525,"damage":9526,"##adata":9527,"da":9528,"begin":9529,"flag":9530,"mechanisms":9531,"regulator":9532,"advantageously":9533,"az":9534,"ppm":9535,"candidate":9536,"polymeric":9537,"apart":9538,"own":9539,"enlarged":9540,"metadata":9541,"commands":9542,"essentially":9543,"phosphate":9544,"perme":9545,"menu":9546,"refrig":9547,"sheath":9548,"##mic":9549,"sensiti":9550,"##eti":9551,"metallic":9552,"##och":9553,"propag":9554,"microprocess":9555,"piezo":9556,"criteria":9557,"dd":9558,"##ette":9559,"contemplated":9560,"safety":9561,"processors":9562,"neigh":9563,"nr":9564,"doped":9565,"sufficiently":9566,"##ichlor":9567,"bed":9568,"##aff":9569,"scal":9570,"reason":9571,"dihydro":9572,"manufacture":9573,"leading":9574,"consequently":9575,"pyr":9576,"und":9577,"##lyl":9578,"##lies":9579,"clo":9580,"##mph":9581,"retaining":9582,"continuously":9583,"mc":9584,"spin":9585,"transverse":9586,"##ened":9587,"##eline":9588,"vers":9589,"princi":9590,"spatial":9591,"grooves":9592,"principles":9593,"capability":9594,"routing":9595,"execute":9596,"comprised":9597,"uv":9598,"prediction":9599,"##ef":9600,"alkal":9601,"ballo":9602,"thereon":9603,"fragments":9604,"circumferential":9605,"bead":9606,"aid":9607,"reach":9608,"hr":9609,"fam":9610,"##enced":9611,"applicable":9612,"remains":9613,"engaged":9614,"##sing":9615,"##cles":9616,"demand":9617,"bright":9618,"too":9619,"exterior":9620,"##onate":9621,"##oyl":9622,"care":9623,"##kn":9624,"leads":9625,"hydrocarbon":9626,"proximity":9627,"pages":9628,"ultra":9629,"statis":9630,"acoustic":9631,"clut":9632,"paths":9633,"ways":9634,"lan":9635,"acquired":9636,"##standing":9637,"fatty":9638,"likely":9639,"occup":9640,"pins":9641,"##struct":9642,"transpor":9643,"layout":9644,"policy":9645,"heterocy":9646,"##aryl":9647,"μg":9648,"##rimid":9649,"normally":9650,"explan":9651,"lithium":9652,"##ancing":9653,"extent":9654,"pt":9655,"let":9656,"##uter":9657,"registration":9658,"coordinate":9659,"##icity":9660,"pressing":9661,"extract":9662,"refractive":9663,"far":9664,"assembled":9665,"fitting":9666,"appli":9667,"obj":9668,"boundary":9669,"sugg":9670,"##mers":9671,"ligand":9672,"wavegu":9673,"perman":9674,"##ometer":9675,"fc":9676,"origin":9677,"calibration":9678,"##ude":9679,"static":9680,"que":9681,"wound":9682,"junction":9683,"mixtures":9684,"consider":9685,"adapter":9686,"omitted":9687,"neu":9688,"mar":9689,"obtaining":9690,"cn":9691,"retr":9692,"##avy":9693,"accomplished":9694,"##king":9695,"translation":9696,"behavior":9697,"cooled":9698,"##rial":9699,"ions":9700,"enough":9701,"os":9702,"ambient":9703,"detects":9704,"browser":9705,"flowing":9706,"residues":9707,"##phere":9708,"##be":9709,"turning":9710,"creating":9711,"protru":9712,"fluorescent":9713,"filters":9714,"executing":9715,"recovery":9716,"##iece":9717,"defining":9718,"accuracy":9719,"sending":9720,"slow":9721,"##amination":9722,"varying":9723,"devi":9724,"slightly":9725,"jud":9726,"pus":9727,"##yle":9728,"installation":9729,"glucose":9730,"serves":9731,"provisional":9732,"electrolyte":9733,"##idin":9734,"necessarily":9735,"describes":9736,"suction":9737,"inches":9738,"modes":9739,"##agt":9740,"blocking":9741,"serving":9742,"bs":9743,"piper":9744,"association":9745,"acrylate":9746,"princip":9747,"##iles":9748,"keyboard":9749,"##tial":9750,"removable":9751,"operates":9752,"upstream":9753,"cas":9754,"##tile":9755,"calcium":9756,"pitch":9757,"##atc":9758,"tight":9759,"developing":9760,"handling":9761,"precursor":9762,"synchronization":9763,"cellulose":9764,"copy":9765,"released":9766,"labeled":9767,"decoding":9768,"decoder":9769,"reactive":9770,"##atible":9771,"drying":9772,"nanop":9773,"##enes":9774,"##ively":9775,"mount":9776,"polys":9777,"##roc":9778,"rt":9779,"##ather":9780,"##dr":9781,"instant":9782,"##________________________________":9783,"tubes":9784,"##fram":9785,"##yrene":9786,"rule":9787,"neutral":9788,"voltages":9789,"assemblies":9790,"complementary":9791,"viewed":9792,"##cing":9793,"records":9794,"recon":9795,"sealed":9796,"promoter":9797,"##xy":9798,"title":9799,"##ellow":9800,"discon":9801,"enzym":9802,"prevented":9803,"##benz":9804,"opened":9805,"transceiver":9806,"halogen":9807,"deform":9808,"covered":9809,"presentation":9810,"rates":9811,"epoxy":9812,"transducer":9813,"heavy":9814,"mesh":9815,"sizes":9816,"firm":9817,"year":9818,"ded":9819,"takes":9820,"stacked":9821,"##gs":9822,"balloon":9823,"##oper":9824,"ped":9825,"estimated":9826,"bridge":9827,"reduces":9828,"chips":9829,"hinge":9830,"tools":9831,"navigation":9832,"acts":9833,"relating":9834,"requested":9835,"war":9836,"##acrylate":9837,"conducted":9838,"##ggt":9839,"separately":9840,"maintaining":9841,"##anese":9842,"consists":9843,"contacting":9844,"signaling":9845,"utilize":9846,"ranges":9847,"sized":9848,"##fort":9849,"radius":9850,"fluoro":9851,"downward":9852,"clutch":9853,"receptac":9854,"adhesion":9855,"chromatography":9856,"##aches":9857,"gateway":9858,"piezoelectric":9859,"enabled":9860,"shi":9861,"molded":9862,"selects":9863,"yellow":9864,"great":9865,"global":9866,"compartment":9867,"routine":9868,"jet":9869,"recombinant":9870,"##ze":9871,"dual":9872,"##ls":9873,"moist":9874,"physi":9875,"alpha":9876,"amplification":9877,"covering":9878,"##br":9879,"stations":9880,"japanese":9881,"tested":9882,"sr":9883,"division":9884,"scatter":9885,"mono":9886,"##tituted":9887,"abut":9888,"cluster":9889,"exists":9890,"email":9891,"##ubs":9892,"sampling":9893,"lub":9894,"expanded":9895,"##sis":9896,"dot":9897,"##abilities":9898,"tables":9899,"photosens":9900,"beams":9901,"sac":9902,"fastener":9903,"manif":9904,"etch":9905,"returns":9906,"upward":9907,"switched":9908,"finally":9909,"##ibly":9910,"cold":9911,"settings":9912,"faces":9913,"webs":9914,"##otyp":9915,"advance":9916,"attributes":9917,"steering":9918,"compressor":9919,"critical":9920,"##ener":9921,"##menting":9922,"##light":9923,"ss":9924,"frequencies":9925,"thro":9926,"neighbor":9927,"##ophenyl":9928,"elast":9929,"branch":9930,"quanti":9931,"fire":9932,"valves":9933,"alkoxy":9934,"ds":9935,"fol":9936,"tert":9937,"damp":9938,"refriger":9939,"##dm":9940,"mere":9941,"put":9942,"transformation":9943,"##atell":9944,"analyzed":9945,"teeth":9946,"##gl":9947,"carbonate":9948,"decreased":9949,"##cially":9950,"acceleration":9951,"rank":9952,"pet":9953,"novel":9954,"##encing":9955,"intake":9956,"ethanol":9957,"phe":9958,"overla":9959,"##oting":9960,"filtering":9961,"dial":9962,"angular":9963,"bioc":9964,"commercially":9965,"##axial":9966,"##aries":9967,"##rication":9968,"radical":9969,"practice":9970,"dioxide":9971,"establish":9972,"periphery":9973,"machines":9974,"exit":9975,"del":9976,"nam":9977,"speech":9978,"actions":9979,"##da":9980,"microprocessor":9981,"extre":9982,"resistant":9983,"##agc":9984,"##acet":9985,"enabling":9986,"dosage":9987,"fet":9988,"programmed":9989,"##ledge":9990,"yes":9991,"initially":9992,"vehicles":9993,"teach":9994,"protocols":9995,"extrac":9996,"##chlor":9997,"##oplastic":9998,"tox":9999,"##copic":10000,"primer":10001,"##iety":10002,"pulses":10003,"##ising":10004,"rows":10005,"easy":10006,"placement":10007,"##pass":10008,"closing":10009,"substitution":10010,"##isition":10011,"keys":10012,"continues":10013,"iron":10014,"precise":10015,"contrib":10016,"encomp":10017,"pm":10018,"operable":10019,"encompass":10020,"writing":10021,"concentrations":10022,"##artic":10023,"retention":10024,"atmosphere":10025,"sensitivity":10026,"##idence":10027,"##ested":10028,"##ascular":10029,"gram":10030,"dispensing":10031,"advertisement":10032,"icon":10033,"numerous":10034,"variant":10035,"dl":10036,"##fet":10037,"carboxylic":10038,"stret":10039,"##omic":10040,"addresses":10041,"mn":10042,"##roph":10043,"depr":10044,"inhibitor":10045,"history":10046,"toler":10047,"##esium":10048,"registered":10049,"recomm":10050,"gps":10051,"ster":10052,"##ple":10053,"##utable":10054,"feeding":10055,"whereas":10056,"bump":10057,"aug":10058,"dispos":10059,"discover":10060,"stap":10061,".;":10062,"occurr":10063,"##rup":10064,"ure":10065,"biom":10066,"namely":10067,"acquisition":10068,"compensation":10069,"conducting":10070,"derivative":10071,"road":10072,"gest":10073,"click":10074,"##ewise":10075,"pharmaceutically":10076,"get":10077,"book":10078,"child":10079,"##pc":10080,"pyrimid":10081,"apert":10082,"ultrasonic":10083,"recognize":10084,"raw":10085,"merely":10086,"hereby":10087,"genetic":10088,"vs":10089,"##ercial":10090,"commercial":10091,"##man":10092,"benzyl":10093,"welding":10094,"nanopartic":10095,"recognized":10096,"supplement":10097,"surround":10098,"semi":10099,"##utyl":10100,"ts":10101,"conca":10102,"intr":10103,"crosslink":10104,"peg":10105,"peptides":10106,"emer":10107,"geomet":10108,"manual":10109,"##ubstituted":10110,"closure":10111,"lear":10112,"library":10113,"likewise":10114,"fluids":10115,"asn":10116,"##oys":10117,"injected":10118,"##gory":10119,"equipped":10120,"acrylic":10121,"occurring":10122,"sand":10123,"sd":10124,"##avor":10125,"sum":10126,"nick":10127,"##hest":10128,"magnitude":10129,"waveguide":10130,"vertically":10131,"cloud":10132,"##ulations":10133,"bulk":10134,"sulfate":10135,"advanced":10136,"##itory":10137,"##piece":10138,"##ners":10139,"correlation":10140,"inject":10141,"percentage":10142,"sequentially":10143,"adher":10144,"filling":10145,"collector":10146,"discloses":10147,"##umb":10148,"flux":10149,"merch":10150,"silicone":10151,"pole":10152,"residual":10153,"cup":10154,"moiety":10155,"drawn":10156,"##ttt":10157,"diagrams":10158,"intervals":10159,"rack":10160,"dichlor":10161,"drives":10162,"concave":10163,"lcd":10164,"##clic":10165,"restriction":10166,"##uents":10167,"ten":10168,"pal":10169,"zinc":10170,"speaker":10171,"leds":10172,"##carbonyl":10173,"situation":10174,"apertures":10175,"##tenance":10176,"convex":10177,"optimal":10178,"tetrahydro":10179,"satell":10180,"symmet":10181,"steam":10182,"nucleotides":10183,"multipl":10184,"calculating":10185,"bill":10186,"mil":10187,"blank":10188,"vibr":10189,"interconnect":10190,"maintenance":10191,"##rile":10192,"##rag":10193,"##els":10194,"##ste":10195,"##cs":10196,"binder":10197,"embodied":10198,"past":10199,"##aac":10200,"oxidation":10201,"precip":10202,"infection":10203,"inflamm":10204,"rollers":10205,"pool":10206,"adjustable":10207,"##idine":10208,"models":10209,"tend":10210,"balance":10211,"eu":10212,"involves":10213,"excell":10214,"##iph":10215,"##time":10216,"tree":10217,"completion":10218,"ti":10219,"spher":10220,"discrete":10221,"company":10222,"technologies":10223,"category":10224,"pressed":10225,"communicating":10226,"tex":10227,"issued":10228,")(":10229,"moisture":10230,"##gcc":10231,"carriers":10232,"##hexyl":10233,"columns":10234,"waste":10235,"rh":10236,"airc":10237,"minute":10238,"serum":10239,"##valent":10240,"iso":10241,"numerals":10242,"root":10243,"reagent":10244,"comparing":10245,"cardi":10246,"uplink":10247,"accessed":10248,"##ats":10249,"net":10250,"##hal":10251,"artif":10252,"cards":10253,"decomp":10254,"##urally":10255,"review":10256,"trench":10257,"pv":10258,"receptacle":10259,"##thane":10260,"listed":10261,"##imeter":10262,"##olic":10263,"methanol":10264,"taking":10265,"selective":10266,"vivo":10267,"inverter":10268,"##tration":10269,"##ctc":10270,"successful":10271,"ole":10272,"raised":10273,"arrays":10274,"##ories":10275,"vic":10276,"##static":10277,"codes":10278,"##ometh":10279,"distin":10280,"##reg":10281,"polarization":10282,"replacement":10283,"opposing":10284,"##versal":10285,"spacing":10286,"aircraft":10287,"polypeptides":10288,"angles":10289,"find":10290,"stro":10291,"mam":10292,"excellent":10293,"adsor":10294,"resis":10295,"shor":10296,"absence":10297,"ide":10298,"##oxyp":10299,"##eric":10300,"coordinates":10301,"understanding":10302,"patterned":10303,"simplified":10304,"cycles":10305,"socket":10306,"exceed":10307,"##icate":10308,"curr":10309,"monitored":10310,"cass":10311,"equivalents":10312,"##till":10313,"du":10314,"##erve":10315,"microphone":10316,"differences":10317,"imid":10318,"compact":10319,"hydroxyl":10320,"stages":10321,"assess":10322,"describe":10323,"arter":10324,"##ashion":10325,"fashion":10326,"morph":10327,"##anding":10328,"brain":10329,"ile":10330,"lubric":10331,"kin":10332,"probability":10333,"indicative":10334,"diagnostic":10335,"connects":10336,"rfid":10337,"integral":10338,"magnesium":10339,"credit":10340,"##fin":10341,"unsubstituted":10342,"decreases":10343,"##ogene":10344,"correl":10345,"arbit":10346,"trail":10347,"assumed":10348,"gradient":10349,"integer":10350,"cult":10351,"thermoplastic":10352,"verte":10353,"consistent":10354,"##obic":10355,"##hel":10356,"aer":10357,"##ints":10358,"pil":10359,"supplying":10360,"respond":10361,"pb":10362,"##come":10363,"ign":10364,"silver":10365,"amorph":10366,"opposed":10367,"stationary":10368,"##ggc":10369,"involved":10370,"sixth":10371,"##sulf":10372,"##lementing":10373,"##eral":10374,"always":10375,"objective":10376,"kit":10377,"##vinyl":10378,"nickel":10379,"##ae":10380,"automated":10381,"overlap":10382,"developer":10383,"tail":10384,"occurrence":10385,"tooth":10386,"##xx":10387,"##ept":10388,"fabrication":10389,"plung":10390,"##order":10391,"pun":10392,"don":10393,"formulations":10394,"pressur":10395,"floating":10396,"tin":10397,"tunnel":10398,"purchase":10399,"mammal":10400,"blades":10401,"corner":10402,"wl":10403,"##cement":10404,"##den":10405,"liner":10406,"##oxane":10407,"connectors":10408,"diseases":10409,"options":10410,"phr":10411,"constrain":10412,"washing":10413,"##ley":10414,"##urrent":10415,"crystalline":10416,"centrif":10417,"resil":10418,"realized":10419,"##lier":10420,"colors":10421,"playback":10422,"##oded":10423,"##nor":10424,"photosensitive":10425,"appliance":10426,"stator":10427,"securing":10428,"produces":10429,"##uu":10430,"emulsion":10431,"streams":10432,"##ony":10433,"packaging":10434,"probes":10435,"##iling":10436,"fabricated":10437,"chambers":10438,"amorphous":10439,"prevents":10440,"bending":10441,"meaning":10442,"mig":10443,"##pa":10444,"implementing":10445,"jaw":10446,"metric":10447,"##azine":10448,"encoder":10449,"##rin":10450,"bey":10451,"##icit":10452,"melting":10453,"question":10454,"dye":10455,"elastomer":10456,"##olar":10457,"brightness":10458,"tissues":10459,"true":10460,"beyond":10461,"amin":10462,"##ogenic":10463,"manually":10464,"acetyl":10465,"##agon":10466,"melt":10467,"joined":10468,"allocated":10469,"administr":10470,"affinity":10471,"##frame":10472,"transcription":10473,"sulfur":10474,"saturated":10475,"differenti":10476,"axially":10477,"lipid":10478,"##ocl":10479,")+":10480,"##ierarch":10481,"##ights":10482,"capabilities":10483,"activities":10484,"##ophen":10485,"study":10486,"zo":10487,"cycloalkyl":10488,"executable":10489,"##assium":10490,"reaches":10491,"##ula":10492,"inch":10493,"medic":10494,"polyester":10495,"barrel":10496,"market":10497,"tubing":10498,"hierarch":10499,"gases":10500,"luminance":10501,"##fe":10502,"organism":10503,"hair":10504,"queue":10505,"propylene":10506,"##ronic":10507,"default":10508,"##fp":10509,"training":10510,"lap":10511,"##eal":10512,"##activ":10513,"##cting":10514,"##hesis":10515,"curv":10516,"wired":10517,"land":10518,"signature":10519,"sch":10520,"fluorescence":10521,"usb":10522,"plunger":10523,"##ean":10524,"##tance":10525,"belong":10526,"enclosure":10527,"modulator":10528,"shut":10529,"proposed":10530,"compli":10531,"tt":10532,"online":10533,"drilling":10534,"##ecti":10535,"exchanger":10536,"cab":10537,"month":10538,"enters":10539,"naph":10540,"resins":10541,"alarm":10542,"##oresist":10543,"##ionic":10544,"##most":10545,"clinical":10546,"pigment":10547,"slur":10548,"fastening":10549,"##ogl":10550,"ht":10551,"accessible":10552,"##wer":10553,"##ras":10554,"separator":10555,")=":10556,"highest":10557,"##dehy":10558,"polynucleotide":10559,"ammonium":10560,"construct":10561,"reported":10562,"targeted":10563,"timer":10564,"convenient":10565,"spot":10566,"categor":10567,"##tingu":10568,"rd":10569,"##alt":10570,"protected":10571,"price":10572,"##itrile":10573,"mis":10574,"manufactur":10575,"##ancy":10576,"clamping":10577,"properly":10578,"indust":10579,"##aneous":10580,"extreme":10581,"pill":10582,"dedicated":10583,"regular":10584,"subset":10585,"downlink":10586,"locked":10587,"##net":10588,"##ou":10589,"elongate":10590,"mrna":10591,"references":10592,"lymph":10593,"shall":10594,"scen":10595,"tablet":10596,"potassium":10597,"##char":10598,"##hemical":10599,"female":10600,"##fs":10601,"integration":10602,"immune":10603,"pel":10604,"##zing":10605,"tradition":10606,"bolt":10607,"esters":10608,"identifies":10609,"sun":10610,"resilient":10611,"profiles":10612,"affect":10613,"manifold":10614,"ant":10615,"containers":10616,"cran":10617,"windows":10618,"stated":10619,"inspection":10620,"curing":10621,"bear":10622,"converting":10623,"population":10624,"pyridin":10625,"directional":10626,"permanent":10627,"graphics":10628,"preced":10629,"neck":10630,"absol":10631,"pure":10632,"bent":10633,"weld":10634,"entered":10635,"##otrop":10636,"jp":10637,"appearance":10638,"absolute":10639,"tyr":10640,"conductors":10641,"peer":10642,"ice":10643,"leakage":10644,"metals":10645,"errors":10646,"exceeds":10647,"-{":10648,"pyraz":10649,"entering":10650,"undes":10651,"conform":10652,"##olet":10653,"tasks":10654,"electronics":10655,"periods":10656,"incoming":10657,"denotes":10658,"syring":10659,"##off":10660,"bip":10661,"branched":10662,"eight":10663,"##media":10664,"strap":10665,"emp":10666,"inclined":10667,"##fts":10668,"reliability":10669,"animals":10670,"reached":10671,"deformation":10672,"cyclic":10673,"rings":10674,"insulator":10675,"individ":10676,"varied":10677,"stain":10678,"beta":10679,"improvement":10680,"##asp":10681,"individually":10682,"lact":10683,"allocation":10684,")—":10685,"arrangements":10686,"scenari":10687,"analyte":10688,"purification":10689,"lenses":10690,"attenu":10691,"filler":10692,"shar":10693,"##fc":10694,"inhibitors":10695,"##ctgg":10696,"recipient":10697,"oligonucleotide":10698,"family":10699,"tft":10700,"covers":10701,"optic":10702,"dmso":10703,"gol":10704,"bypass":10705,"##arging":10706,"surfactant":10707,"duct":10708,"music":10709,"##imide":10710,"quickly":10711,"##istry":10712,"multimedia":10713,"auto":10714,"##itives":10715,"world":10716,"responsive":10717,"improving":10718,"grain":10719,"accommodate":10720,"combining":10721,"rough":10722,"orthog":10723,"endos":10724,"thereb":10725,"robot":10726,"polishing":10727,"evaluated":10728,"##iphatic":10729,"fitted":10730,"environmental":10731,"supplies":10732,"efficiently":10733,"bid":10734,"underlying":10735,"gln":10736,"abnor":10737,"discussion":10738,"conveyor":10739,"glycer":10740,"actuation":10741,"stiff":10742,"plating":10743,"dip":10744,"router":10745,"wheels":10746,"private":10747,"interactive":10748,"calculate":10749,"encryption":10750,"little":10751,"],":10752,"monomers":10753,"oral":10754,"apparatuses":10755,"tens":10756,"solvents":10757,"begins":10758,"irradiation":10759,"spectral":10760,"hyper":10761,"##go":10762,"heteroaryl":10763,"##uty":10764,"reactions":10765,"implanted":10766,"cation":10767,"##rog":10768,"starts":10769,"leaf":10770,"continue":10771,"##inol":10772,"accurate":10773,"ey":10774,"##ices":10775,"diaph":10776,"clearly":10777,"stere":10778,"photoresist":10779,"discharged":10780,"resonance":10781,"deep":10782,"sink":10783,"pse":10784,"##attt":10785,"##aaa":10786,"substances":10787,"##rought":10788,"mim":10789,"mb":10790,"applies":10791,"##ov":10792,"##gtt":10793,"therebetween":10794,"##structure":10795,"slurry":10796,")).":10797,"folded":10798,"copolymers":10799,"plasmid":10800,"stroke":10801,"repair":10802,"##cut":10803,"vl":10804,"##times":10805,"##ik":10806,"meter":10807,"collar":10808,"satellite":10809,"capturing":10810,"-,":10811,"##function":10812,"exploded":10813,"predicted":10814,"focal":10815,"ranging":10816,"numeral":10817,"deployed":10818,"diaphrag":10819,"waves":10820,"microns":10821,"##inating":10822,"##lifer":10823,"laminated":10824,"photograph":10825,"markers":10826,"##orders":10827,"employing":10828,"cord":10829,"labor":10830,"observ":10831,"polyvinyl":10832,"entities":10833,"metab":10834,"##ician":10835,"interact":10836,"plot":10837,"##ocyanate":10838,"rotates":10839,"arri":10840,"estimate":10841,"spherical":10842,"spo":10843,"involve":10844,"restricted":10845,"characters":10846,"degradation":10847,"foil":10848,"actually":10849,"prescri":10850,"powered":10851,"describing":10852,"rev":10853,"integrally":10854,"##dehyde":10855,"coils":10856,"cys":10857,"returned":10858,"articles":10859,"requiring":10860,"domains":10861,"interpre":10862,"verification":10863,"scanner":10864,"assays":10865,"sug":10866,"##gag":10867,"permits":10868,"antennas":10869,"slid":10870,"zn":10871,"dispersed":10872,"substantial":10873,"costs":10874,"threads":10875,"suitably":10876,"##opent":10877,"tv":10878,"fund":10879,"alkenyl":10880,"nano":10881,"##ropylene":10882,"tapered":10883,"clar":10884,"##rs":10885,"additive":10886,"hydrochlor":10887,"##raction":10888,"buck":10889,"buttons":10890,"latter":10891,"binary":10892,"future":10893,"claimed":10894,"exact":10895,")}":10896,"excitation":10897,"minimize":10898,"compatible":10899,"responses":10900,"germ":10901,"guiding":10902,"##usive":10903,"introduction":10904,"practic":10905,"tn":10906,"pilot":10907,"linking":10908,"legs":10909,"sio":10910,"vitro":10911,"ingredients":10912,"distingu":10913,"##ifying":10914,"poll":10915,"##fluoro":10916,"##agen":10917,"shutter":10918,"gold":10919,"stre":10920,"sputter":10921,"##ises":10922,"abnormal":10923,"cyt":10924,"##clo":10925,"teachings":10926,"##ics":10927,"##equ":10928,"sole":10929,"##rome":10930,"##osed":10931,"lift":10932,"defect":10933,"##ions":10934,"creates":10935,"scri":10936,"##ience":10937,"wells":10938,"cooper":10939,"measures":10940,"lic":10941,"##irect":10942,"gesture":10943,"##sh":10944,"hydroxide":10945,"outward":10946,"##phosph":10947,"pseud":10948,"tags":10949,"##efined":10950,"cardiac":10951,"veg":10952,"dissip":10953,"firmware":10954,"resear":10955,"influence":10956,"alert":10957,"ingredient":10958,"od":10959,"distinct":10960,"##ulder":10961,"separating":10962,"cyto":10963,"executes":10964,"symp":10965,"curvature":10966,"sometimes":10967,"implantation":10968,"vicinity":10969,"certif":10970,"tests":10971,"comparator":10972,"algorithms":10973,"##thyl":10974,"##tid":10975,"orthogonal":10976,"ef":10977,")/":10978,"built":10979,"##rot":10980,"cassette":10981,"arbitr":10982,"share":10983,"regardless":10984,"emerg":10985,"diam":10986,"cb":10987,"polyure":10988,"##imen":10989,"kept":10990,"lung":10991,"native":10992,"htt":10993,"##otub":10994,"backup":10995,"hydroly":10996,"bund":10997,"diaphragm":10998,"naturally":10999,"earth":11000,"ans":11001,"shoulder":11002,"synthesized":11003,"predefined":11004,"specify":11005,"##onia":11006,"tire":11007,"excl":11008,"##ury":11009,"ld":11010,"essential":11011,"wat":11012,"absorbing":11013,"ultrasound":11014,"##etary":11015,"utility":11016,"circumference":11017,"continuation":11018,"shielding":11019,"##meth":11020,"accep":11021,"scene":11022,"transactions":11023,"computed":11024,"password":11025,"exhibit":11026,"##bi":11027,"redund":11028,"come":11029,"schedule":11030,"##ception":11031,"exerc":11032,"distortion":11033,"shorter":11034,"transformed":11035,"communicates":11036,"rating":11037,"shock":11038,"brought":11039,"microm":11040,"insulin":11041,"deviation":11042,"##rupt":11043,"knowledge":11044,"pathway":11045,"##ilized":11046,"inhibition":11047,"##hole":11048,"##**":11049,"##tig":11050,"oscillator":11051,"impurity":11052,"rpm":11053,"coeffic":11054,"dark":11055,"resultant":11056,"electrostatic":11057,"coefficients":11058,"humid":11059,"gal":11060,"##ccc":11061,"benzo":11062,"stirring":11063,"flexibility":11064,"modify":11065,"reflector":11066,"lack":11067,"limits":11068,"sleep":11069,"rotatable":11070,"outwardly":11071,"conveying":11072,"##advant":11073,"encrypted":11074,"ren":11075,"##ancial":11076,"placing":11077,"appropriately":11078,"disadvant":11079,"syringe":11080,"bub":11081,"trace":11082,"adapt":11083,"electroc":11084,"approaches":11085,"rim":11086,"transf":11087,"volum":11088,"tm":11089,"passive":11090,"##omen":11091,"website":11092,"financial":11093,"clon":11094,"geometry":11095,"rb":11096,"emitter":11097,"weak":11098,"keyword":11099,"projecting":11100,"absorbent":11101,"gui":11102,"##cont":11103,"modulated":11104,"anneal":11105,"repos":11106,"variants":11107,"##met":11108,"oxo":11109,"hydrophobic":11110,"solub":11111,"detach":11112,"role":11113,"reflecting":11114,"zones":11115,"appreciate":11116,"##au":11117,"explanation":11118,"registers":11119,"cit":11120,"##ework":11121,"estimation":11122,"##hood":11123,"##down":11124,"filtration":11125,"corpor":11126,"projections":11127,"bands":11128,"hydrophilic":11129,"##gac":11130,"suture":11131,"indirect":11132,"pickup":11133,"microw":11134,"##oprop":11135,"traditional":11136,"##ynyl":11137,"bodies":11138,"-[(":11139,"disconn":11140,"preparing":11141,"##illary":11142,"deployment":11143,"calls":11144,"##my":11145,"halo":11146,"##olyl":11147,"fract":11148,"##otic":11149,"ker":11150,"sig":11151,"coverage":11152,"merchant":11153,"pointer":11154,"elevation":11155,"##ishes":11156,"batteries":11157,"##":11158,"##ogram":11159,"consideration":11160,"viral":11161,"##py":11162,"carbonyl":11163,"gc":11164,"managing":11165,"prolifer":11166,"stock":11167,"classification":11168,"attaching":11169,"##ols":11170,"dram":11171,"dy":11172,"unsaturated":11173,"aliphatic":11174,"##iper":11175,"diluted":11176,"week":11177,"disorders":11178,"disorder":11179,"physiological":11180,"mt":11181,"framework":11182,"igg":11183,"artificial":11184,"depends":11185,"interconnection":11186,"ket":11187,"quad":11188,"max":11189,"##onitrile":11190,"deterior":11191,"saving":11192,"bars":11193,"##ilane":11194,"sharing":11195,"acyl":11196,"##opoly":11197,"overlapping":11198,"variables":11199,"electroph":11200,"ls":11201,"##tally":11202,"antis":11203,"##),":11204,"initiated":11205,"grown":11206,"grip":11207,"beads":11208,"replace":11209,"##oglob":11210,"##with":11211,"nanotub":11212,"guid":11213,"amplified":11214,"##ref":11215,"muscle":11216,"pw":11217,"years":11218,"sb":11219,"etched":11220,"glut":11221,"disks":11222,"td":11223,"url":11224,"pocket":11225,"temporary":11226,"sensed":11227,"entries":11228,"furn":11229,"zoom":11230,"perimeter":11231,"trifluoromethyl":11232,"refrigerant":11233,"experience":11234,"##oidal":11235,"md":11236,"receip":11237,"multic":11238,"biol":11239,"nanoparticles":11240,"drugs":11241,"##comp":11242,"axes":11243,"viewer":11244,"cdna":11245,"dp":11246,"protruding":11247,"incubated":11248,"synd":11249,"##rystall":11250,"liter":11251,"dynam":11252,"##book":11253,"##ople":11254,"##asting":11255,"beginning":11256,"rn":11257,"##violet":11258,"creation":11259,"simulation":11260,"convert":11261,"ultraviolet":11262,"flip":11263,"http":11264,"age":11265,"universal":11266,"token":11267,"possibly":11268,"##ustry":11269,"poor":11270,"advertising":11271,"scheduling":11272,"antagon":11273,"industry":11274,"##ermost":11275,"rid":11276,"hydrocarb":11277,"interlayer":11278,"vacc":11279,"capacitors":11280,"cod":11281,"thermally":11282,"iod":11283,"turns":11284,"##tered":11285,"alle":11286,"plus":11287,"pyrrol":11288,"cured":11289,"##ixed":11290,"possibility":11291,"affected":11292,"##venth":11293,"fingers":11294,"proceed":11295,"cook":11296,"collecting":11297,"retrieved":11298,"international":11299,"fault":11300,"enzymes":11301,"infra":11302,"projected":11303,"rays":11304,"ng":11305,"coded":11306,"##eting":11307,"standards":11308,"appears":11309,"##ker":11310,"fore":11311,"organization":11312,"ramp":11313,"additives":11314,"retainer":11315,"##oke":11316,"coolant":11317,"interac":11318,"preceding":11319,"bp":11320,"wash":11321,"relie":11322,"proxy":11323,"stic":11324,"phases":11325,"vh":11326,"patch":11327,"antisense":11328,"transferring":11329,"bow":11330,"—,":11331,"ltd":11332,"tolu":11333,"##neum":11334,"mand":11335,"mating":11336,"graft":11337,"##from":11338,"##____________________________________":11339,"circle":11340,"retained":11341,"fixation":11342,"##draw":11343,"couple":11344,"shad":11345,"accurately":11346,"proximate":11347,"brush":11348,"bacteria":11349,"precipit":11350,"cush":11351,"restor":11352,"wavelengths":11353,"hy":11354,"recent":11355,"capacitive":11356,"engages":11357,"networking":11358,"dur":11359,"mw":11360,"train":11361,"mouth":11362,"structured":11363,"##ression":11364,"stopped":11365,"requirement":11366,"##ateg":11367,"##erved":11368,"hp":11369,"adop":11370,"##rose":11371,"coupler":11372,"verteb":11373,"tick":11374,"bath":11375,"names":11376,"moment":11377,"##land":11378,"kinase":11379,"++":11380,"modem":11381,"dvd":11382,"perfor":11383,"reproduction":11384,"hydroxyp":11385,"rapidly":11386,"##mon":11387,"##atom":11388,"weeks":11389,"##aaag":11390,"hybridization":11391,"scroll":11392,"lengths":11393,"strateg":11394,"paste":11395,"updates":11396,"##ifier":11397,"cannula":11398,"protect":11399,"desk":11400,"sir":11401,"acting":11402,"withdraw":11403,"people":11404,"wild":11405,"breast":11406,"beh":11407,"rendering":11408,"##sole":11409,"##actor":11410,"studies":11411,"research":11412,"nt":11413,"hd":11414,"##rous":11415,"slit":11416,"descriptions":11417,"##through":11418,"polarity":11419,"##vs":11420,"dt":11421,"##oxid":11422,"kinds":11423,"rise":11424,"practical":11425,"clients":11426,"inputted":11427,"##ify":11428,"##----":11429,"hos":11430,"receipt":11431,"##veness":11432,"solids":11433,"corrected":11434,"swe":11435,"eq":11436,"promp":11437,"occurred":11438,"screws":11439,"inductor":11440,"abras":11441,"increment":11442,"conduction":11443,"diver":11444,"almost":11445,"relate":11446,"inj":11447,"crack":11448,"-((":11449,"construed":11450,"nozzles":11451,"hc":11452,"scr":11453,"distill":11454,"recessed":11455,"##lim":11456,"published":11457,"exclu":11458,"gp":11459,"##ologous":11460,"ns":11461,"##etric":11462,"##atgg":11463,"##wh":11464,"tac":11465,"protrusions":11466,"transformer":11467,"##occ":11468,"##ental":11469,"chains":11470,"calculates":11471,"selector":11472,"mu":11473,"tg":11474,"obvi":11475,"”),":11476,"emergency":11477,"golf":11478,"chall":11479,"contamin":11480,"presently":11481,"closer":11482,"belie":11483,"laminate":11484,"##imid":11485,"interactions":11486,"experiments":11487,"tang":11488,"started":11489,"optimized":11490,"recesses":11491,"inserting":11492,"workpiece":11493,"did":11494,"cameras":11495,"blow":11496,"##rect":11497,"cables":11498,"linkage":11499,"earlier":11500,"prism":11501,"bacterial":11502,"thumb":11503,"environments":11504,"styrene":11505,"spon":11506,"players":11507,"dynamically":11508,"strips":11509,"##opro":11510,"##ocytes":11511,"denoted":11512,"—(":11513,"biasing":11514,"##la":11515,"carries":11516,"fa":11517,"boost":11518,"compl":11519,"matches":11520,"multilayer":11521,"##tible":11522,"##otype":11523,"vp":11524,"primers":11525,"gravity":11526,"therefrom":11527,"##print":11528,"particulate":11529,"suspended":11530,"resonator":11531,"initiate":11532,"##itors":11533,"perf":11534,"dispenser":11535,"grating":11536,"pct":11537,"swing":11538,"iter":11539,"loads":11540,"vc":11541,"rectif":11542,"primarily":11543,"trimethyl":11544,"ui":11545,"##cepts":11546,"ba":11547,"som":11548,"xml":11549,"enterpr":11550,"aw":11551,"behind":11552,"trap":11553,"tris":11554,"unn":11555,"mobility":11556,"##inally":11557,"build":11558,"versus":11559,"##ogenous":11560,"esc":11561,"##elling":11562,"induction":11563,"##oney":11564,"carriage":11565,"broken":11566,"sharp":11567,"##plc":11568,"screening":11569,"pbs":11570,"showed":11571,"photoc":11572,"polypropylene":11573,"converts":11574,"##code":11575,"stainless":11576,"##aturation":11577,"safe":11578,"##tre":11579,"bring":11580,"tone":11581,"fp":11582,"messaging":11583,"prem":11584,"accessing":11585,"screens":11586,"##ored":11587,"##enth":11588,"pneum":11589,"hcl":11590,"##fa":11591,"##obenz":11592,"administering":11593,"checks":11594,"##arboxyl":11595,"alkali":11596,"##aque":11597,"##rosion":11598,"void":11599,"alternating":11600,"alternately":11601,"inflammatory":11602,"cdcl":11603,"##like":11604,"laterally":11605,"reads":11606,"penetr":11607,"##fo":11608,"manage":11609,"slider":11610,"##gb":11611,"isopropyl":11612,"tabs":11613,"ribs":11614,"##acchar":11615,"expandable":11616,"stranded":11617,"analyzing":11618,"lac":11619,"lowered":11620,"listing":11621,"duty":11622,"gray":11623,"numerical":11624,"substituent":11625,"prepare":11626,"tilt":11627,"cushion":11628,"##ohyd":11629,"ble":11630,"tl":11631,"polyg":11632,"sear":11633,"potentially":11634,"requesting":11635,"decreasing":11636,"designs":11637,"marg":11638,"physically":11639,"##ney":11640,"none":11641,"##lyc":11642,"##olith":11643,"operative":11644,"deflect":11645,"monocl":11646,"tensile":11647,"api":11648,"say":11649,"sputtering":11650,"harm":11651,"guard":11652,"trade":11653,"amide":11654,"fasteners":11655,"##enoid":11656,"usa":11657,"##esis":11658,"concurrent":11659,"stamp":11660,"outputted":11661,"meet":11662,"alb":11663,"diodes":11664,"substituents":11665,"##uge":11666,"diffraction":11667,"mit":11668,"dum":11669,"varies":11670,"interpol":11671,"##acell":11672,"inert":11673,"reinforcing":11674,"ib":11675,"activate":11676,"camp":11677,"pharmac":11678,"tb":11679,"gall":11680,"modifying":11681,"constituting":11682,"asset":11683,"adaptive":11684,"pulled":11685,"decryp":11686,"##argeting":11687,"office":11688,"setup":11689,"laid":11690,"rolling":11691,"cast":11692,"diffus":11693,"constituted":11694,"telec":11695,"ratios":11696,"capsule":11697,"##ster":11698,"adequ":11699,"bluet":11700,"fri":11701,"}-":11702,"altered":11703,"learning":11704,"shifted":11705,"chass":11706,"interch":11707,"industrial":11708,"minimal":11709,"bluetooth":11710,"else":11711,"constitute":11712,"##ops":11713,"entirely":11714,"introducing":11715,"##helial":11716,"temporarily":11717,"chassis":11718,"periodic":11719,"proportional":11720,"managed":11721,"electrons":11722,"magnets":11723,"house":11724,"bottle":11725,"symptom":11726,"pcb":11727,"sell":11728,"preset":11729,"facilitates":11730,"microwave":11731,"demod":11732,"surge":11733,"hplc":11734,"polyurethane":11735,"##amined":11736,"shear":11737,"observation":11738,"trun":11739,"gb":11740,"##copy":11741,"coatings":11742,"monoclonal":11743,"optically":11744,"hash":11745,"##otion":11746,"gates":11747,"sector":11748,"polyc":11749,"starch":11750,"resol":11751,"methacrylate":11752,"ready":11753,"mixer":11754,"attain":11755,"inventors":11756,"dummy":11757,"inverse":11758,"frequently":11759,"precision":11760,"interle":11761,"rr":11762,"immob":11763,"optimization":11764,"wax":11765,"roof":11766,"periodically":11767,"magneti":11768,"jun":11769,"##ologically":11770,"manufacturer":11771,"wid":11772,"targeting":11773,"##ren":11774,"cyano":11775,"##max":11776,"wed":11777,"manipulation":11778,"aden":11779,"live":11780,"##iration":11781,"favor":11782,"matched":11783,"controllers":11784,"diab":11785,"##acellular":11786,"contour":11787,"affor":11788,"].":11789,"##itis":11790,"defects":11791,"##amid":11792,"##genic":11793,"##eee":11794,"##umin":11795,"tracks":11796,"proc":11797,"##going":11798,"inher":11799,"bend":11800,"experimental":11801,"cg":11802,"batch":11803,"modular":11804,"##uran":11805,"databases":11806,"coli":11807,"##ton":11808,"′.":11809,"lb":11810,"directory":11811,"sequential":11812,"rock":11813,"mag":11814,"crude":11815,"recommend":11816,"early":11817,"termination":11818,"discharging":11819,"##bore":11820,"##lic":11821,"pg":11822,"trip":11823,"bases":11824,"prevention":11825,"linker":11826,"communicated":11827,"enterprise":11828,"targets":11829,"extremely":11830,"orif":11831,"concepts":11832,"neighboring":11833,"surfactants":11834,"##atably":11835,"##ket":11836,"braking":11837,"undesir":11838,"propagation":11839,"orifice":11840,"##rest":11841,"twice":11842,"pore":11843,"tp":11844,"cdr":11845,"actuated":11846,"ieee":11847,"inform":11848,"##last":11849,"spaces":11850,"expressing":11851,"enb":11852,"meant":11853,"holds":11854,"individuals":11855,"superior":11856,"fluorine":11857,"reports":11858,"presents":11859,"incorporating":11860,"scenario":11861,"##controll":11862,"tx":11863,"compare":11864,"centrifug":11865,"instruments":11866,"elu":11867,"benefits":11868,"sugar":11869,"nerve":11870,"macro":11871,"aber":11872,"subt":11873,"backlight":11874,"mediated":11875,"principle":11876,"bonds":11877,"cos":11878,"relationships":11879,"gradually":11880,"##).":11881,"span":11882,"subjects":11883,"##oxys":11884,"dust":11885,"##where":11886,"inverted":11887,"infusion":11888,"reagents":11889,"repeat":11890,"##virus":11891,"mainly":11892,"##onduc":11893,"##oad":11894,"slave":11895,"notch":11896,"reve":11897,"tolerance":11898,"resonant":11899,"mechanically":11900,"pn":11901,"vascular":11902,"expensive":11903,"issues":11904,"##ecyl":11905,"##amb":11906,"springs":11907,"rich":11908,"##rad":11909,"ri":11910,"##abor":11911,"flight":11912,"cleav":11913,"wra":11914,"carboxy":11915,"moder":11916,"understand":11917,"polymerase":11918,"preference":11919,"##opy":11920,"##ominal":11921,"##bing":11922,"explaining":11923,"##ecess":11924,"utilizes":11925,"##anth":11926,"layered":11927,"intell":11928,"ih":11929,"marked":11930,"fused":11931,"cabin":11932,"choice":11933,"diethyl":11934,"neur":11935,"protecting":11936,"np":11937,"ejection":11938,"collagen":11939,"ones":11940,"rotatably":11941,"rech":11942,"saw":11943,"##cttt":11944,"enhancement":11945,"##erted":11946,"concrete":11947,"ionic":11948,"##eli":11949,"comes":11950,"pi":11951,"dies":11952,"miss":11953,"resistive":11954,"pressurized":11955,"games":11956,"infer":11957,"elevated":11958,"statistical":11959,"retracted":11960,"shr":11961,"diagnosis":11962,"wood":11963,"##itic":11964,"playing":11965,"oxides":11966,"gamma":11967,"heads":11968,"currents":11969,"categories":11970,"authorization":11971,"intersection":11972,"clarity":11973,"pushed":11974,"analyzer":11975,"intellig":11976,"administrator":11977,"##tinal":11978,"##osyl":11979,"##wr":11980,"##sten":11981,"interconnected":11982,"confirmed":11983,"clad":11984,"tung":11985,"##izers":11986,"burst":11987,"mpa":11988,"operatively":11989,"unlike":11990,"hit":11991,"burn":11992,"anhyd":11993,"ethernet":11994,"ye":11995,"interpreted":11996,"gar":11997,"byte":11998,"scattering":11999,"optimum":12000,"##apsed":12001,"identifiers":12002,"focusing":12003,"dro":12004,"ease":12005,"retrieval":12006,"cutter":12007,"issue":12008,"deflection":12009,"catalytic":12010,"buy":12011,"joining":12012,"nmos":12013,"rc":12014,"nonvol":12015,"guided":12016,"slope":12017,"fus":12018,"geographic":12019,"staple":12020,"cyan":12021,"diis":12022,"acad":12023,"sacrif":12024,"pyrimidin":12025,"grams":12026,"referenced":12027,"##eller":12028,"##enger":12029,"exercise":12030,"nonvolatile":12031,"##utive":12032,"limitations":12033,"upwardly":12034,"quant":12035,"boot":12036,"spinal":12037,"coat":12038,"axle":12039,"##nt":12040,"slip":12041,"##ilicon":12042,"rods":12043,"folding":12044,"##gtc":12045,"(═":12046,"##itol":12047,"peel":12048,"implantable":12049,"##otox":12050,"entr":12051,"actuating":12052,"sep":12053,"##hthal":12054,"seventh":12055,"temporal":12056,"retrieve":12057,";&":12058,"empty":12059,"diseng":12060,"bicy":12061,"eliminate":12062,"corporation":12063,"drag":12064,"cvd":12065,"stear":12066,"goes":12067,"bios":12068,"regulation":12069,"specimen":12070,"##osome":12071,"##ogeneous":12072,"##pro":12073,"uniformly":12074,"leaving":12075,"dividing":12076,"pyridine":12077,"corn":12078,"##app":12079,"nutri":12080,"ecc":12081,"fixture":12082,"decoded":12083,"##night":12084,"chol":12085,"availability":12086,"unnecess":12087,"warm":12088,"attack":12089,"vend":12090,"overlay":12091,"##acl":12092,"flap":12093,"activating":12094,"locally":12095,"donor":12096,"vdd":12097,"solenoid":12098,"explicit":12099,"utilization":12100,"##erile":12101,"finished":12102,"trust":12103,"nas":12104,"lte":12105,"electricity":12106,"injector":12107,"lost":12108,"##..":12109,"pertain":12110,"##obutyl":12111,"strut":12112,"continued":12113,"lumines":12114,"flush":12115,"shifting":12116,"##illus":12117,"ell":12118,"sandw":12119,"##ulph":12120,"evaporation":12121,"=“":12122,"providers":12123,"##ulative":12124,"firing":12125,"diamond":12126,"tungsten":12127,"cement":12128,"ut":12129,"mole":12130,"teleph":12131,"acetic":12132,"syndrome":12133,"greatly":12134,"cone":12135,"membranes":12136,"san":12137,"sterile":12138,"sidewalls":12139,"seam":12140,"conditioning":12141,"believed":12142,"deletion":12143,"depicting":12144,"eg":12145,"buffers":12146,"discovery":12147,"passageway":12148,"widely":12149,"##ypt":12150,"ast":12151,"extracts":12152,"retard":12153,"horizontally":12154,"enfor":12155,"dimeth":12156,"##rystalline":12157,"##ugg":12158,"retail":12159,"angled":12160,"##zable":12161,"releasing":12162,"##exp":12163,"oligonucleotides":12164,"##vably":12165,"preferences":12166,"mh":12167,"snap":12168,"##held":12169,"persons":12170,"desktop":12171,"situations":12172,"integrity":12173,"wellbore":12174,"longitudinally":12175,"updating":12176,"bladder":12177,"tel":12178,"lowest":12179,"##adium":12180,"econ":12181,"##ommun":12182,"therethrough":12183,"overnight":12184,"toluene":12185,"stopper":12186,"attempt":12187,"sap":12188,"eliminated":12189,"droplet":12190,"laun":12191,"(%":12192,"##ove":12193,"shot":12194,"weights":12195,"maintains":12196,"bromo":12197,"humidity":12198,"ple":12199,"conveyance":12200,"cmos":12201,"receptors":12202,"interchange":12203,"men":12204,"##//":12205,"hydrocarbons":12206,"aggregation":12207,"##matic":12208,"arrows":12209,"accumulated":12210,"##get":12211,"engines":12212,"cores":12213,"owner":12214,"surgery":12215,"pumping":12216,"tcp":12217,"##aldehyde":12218,"##nn":12219,"jack":12220,"alkaline":12221,"clearance":12222,"reliable":12223,"wearer":12224,"arbitrary":12225,"passages":12226,"delivering":12227,"suppressed":12228,"cursor":12229,"##velope":12230,"##while":12231,"binds":12232,"##pe":12233,"##ids":12234,"rx":12235,"transporting":12236,"quantum":12237,"flask":12238,"envelope":12239,"handheld":12240,"bytes":12241,"enhancing":12242,"##otropic":12243,"guidance":12244,"##vert":12245,"##elves":12246,"downwardly":12247,"fresh":12248,"##clusion":12249,"##rist":12250,"”).":12251,"detectable":12252,"mapped":12253,"reasons":12254,"atomic":12255,"thems":12256,"##ious":12257,"effector":12258,"spind":12259,"initiator":12260,"##know":12261,"capillary":12262,"themselves":12263,"recently":12264,"actuators":12265,"foreign":12266,"infrastructure":12267,"fal":12268,"journ":12269,"nov":12270,"##acag":12271,"fewer":12272,"merc":12273,"conjugated":12274,"antic":12275,"volumes":12276,"trp":12277,"conference":12278,"##rium":12279,"computation":12280,"concerning":12281,"affixed":12282,"packages":12283,"lane":12284,"venti":12285,"ai":12286,"spacers":12287,"migration":12288,"rails":12289,"distances":12290,"phrase":12291,"##othi":12292,"instruc":12293,"ze":12294,"charges":12295,"accessory":12296,"##ives":12297,"das":12298,"prescribed":12299,"soyb":12300,"acknow":12301,"chemically":12302,"therewith":12303,"##ato":12304,"zirc":12305,"##ctcc":12306,"dopant":12307,"selectable":12308,"revers":12309,"idle":12310,"usable":12311,"##azolyl":12312,"shelf":12313,"blend":12314,"microc":12315,"droplets":12316,"quantit":12317,"reporting":12318,"asy":12319,"stops":12320,"gan":12321,"science":12322,"excessive":12323,"meanwhile":12324,"offers":12325,"gather":12326,"polysilicon":12327,"##ree":12328,"saline":12329,"curves":12330,"flang":12331,"ethoxy":12332,"demonstrated":12333,"deb":12334,"les":12335,"##aaaa":12336,"##fig":12337,"thor":12338,"platin":12339,"ty":12340,"mini":12341,"inhibiting":12342,"unlock":12343,"detectors":12344,"##ql":12345,"laptop":12346,"shoe":12347,"cloth":12348,"practiced":12349,"traveling":12350,"endoscope":12351,"extra":12352,"secre":12353,"collision":12354,"throughput":12355,"passiv":12356,"penetration":12357,"oils":12358,"liver":12359,"colored":12360,"jav":12361,"circulation":12362,"constraints":12363,"##ders":12364,"outputting":12365,"daily":12366,"subframe":12367,"pf":12368,"##inding":12369,"assume":12370,"alkylene":12371,"##we":12372,"anis":12373,"regener":12374,"ventric":12375,"##organism":12376,"monitors":12377,"terminated":12378,"##oside":12379,"customers":12380,"undesirable":12381,"polarized":12382,"patterning":12383,"restr":12384,"responsible":12385,"##ctgc":12386,"aim":12387,"participant":12388,"anterior":12389,"##oxyphenyl":12390,"immunoglob":12391,"gives":12392,"beac":12393,"genome":12394,"yeast":12395,"telecommun":12396,"prosthesis":12397,"memories":12398,"inves":12399,"baseline":12400,"##asis":12401,"gaps":12402,"vessels":12403,"queries":12404,"microscope":12405,"chim":12406,"laboratory":12407,"tong":12408,"##irt":12409,"inward":12410,"deposit":12411,"microorganism":12412,"biased":12413,"bac":12414,"dock":12415,"spool":12416,"aggregate":12417,"similarity":12418,"agon":12419,"sust":12420,"##angle":12421,"##di":12422,"authorized":12423,"hardness":12424,"cub":12425,"##elihood":12426,"positional":12427,"thermo":12428,"thrott":12429,"microb":12430,"##anedi":12431,"deactiv":12432,"irradiated":12433,"platinum":12434,"complexity":12435,"likelihood":12436,"##otherap":12437,"repeating":12438,";/":12439,"cob":12440,"interrupt":12441,"##urities":12442,"collectively":12443,"microcontroll":12444,"runs":12445,"club":12446,"proliferation":12447,"oscillation":12448,"ov":12449,"exception":12450,"##uded":12451,"##mark":12452,"hydrochloride":12453,"fro":12454,"hang":12455,"scanned":12456,"##omal":12457,"##racting":12458,"inwardly":12459,"grade":12460,"instit":12461,"involving":12462,"##ky":12463,"gm":12464,"amyl":12465,"constituent":12466,"exhibits":12467,"breath":12468,"lights":12469,"gripping":12470,"##oor":12471,"##uation":12472,"conveyed":12473,"##uate":12474,"principal":12475,"posterior":12476,"spindle":12477,"pending":12478,"reel":12479,"payload":12480,"depression":12481,"sip":12482,"alloys":12483,"##wl":12484,"alumina":12485,"verify":12486,"nand":12487,"ft":12488,"##zer":12489,"##bles":12490,"extrusion":12491,"##gens":12492,"reciproc":12493,"recovered":12494,"##bility":12495,"##assemb":12496,"returning":12497,"convenience":12498,"cylinders":12499,"cleavage":12500,"bc":12501,"##kin":12502,"unc":12503,"regulating":12504,"##vis":12505,"quantities":12506,"feet":12507,"beneficial":12508,"accumulation":12509,"relief":12510,"persist":12511,"##cel":12512,"molar":12513,"adverse":12514,"complexes":12515,"handover":12516,"muc":12517,"##fr":12518,"suffer":12519,"backing":12520,"motors":12521,"##phen":12522,"transfers":12523,"assuming":12524,"hap":12525,"corrosion":12526,"ellip":12527,"mandrel":12528,"drivers":12529,"knob":12530,"bes":12531,"pipeline":12532,"vm":12533,"photovol":12534,"##bar":12535,"gum":12536,"##aca":12537,"spiral":12538,"thy":12539,"neural":12540,"classified":12541,"mv":12542,"bundle":12543,"soc":12544,"closely":12545,"faster":12546,"##box":12547,"esi":12548,"late":12549,"paras":12550,"consec":12551,"atmospher":12552,"labels":12553,")]":12554,"genomic":12555,"wing":12556,"helical":12557,"cyclohex":12558,"leuk":12559,"photovolta":12560,"cyclohexyl":12561,"transgenic":12562,"acute":12563,"aver":12564,"##oline":12565,"##uction":12566,"metabol":12567,"circumstances":12568,"cationic":12569,"##emia":12570,"solubility":12571,"deal":12572,"formats":12573,"##list":12574,"blocked":12575,"ablation":12576,"conjugate":12577,"replication":12578,"incorporate":12579,"##ectivity":12580,"satisfied":12581,"##hn":12582,"gover":12583,"absorbed":12584,"##isc":12585,"colon":12586,"investig":12587,"##ocarb":12588,"styl":12589,"transm":12590,"ci":12591,"##styrene":12592,"substitutions":12593,"discri":12594,"coinc":12595,"unw":12596,"insulated":12597,"harves":12598,"insu":12599,"##amate":12600,"oven":12601,"pedal":12602,"##osition":12603,"biometric":12604,"pointing":12605,"hb":12606,"calif":12607,"vd":12608,"]+":12609,"crystals":12610,"multiplexer":12611,"searching":12612,"##tition":12613,"falling":12614,"cavities":12615,"topology":12616,"saturation":12617,"##anine":12618,"geometric":12619,"classes":12620,"##omethane":12621,"newly":12622,"loops":12623,"applicator":12624,"flame":12625,"conventionally":12626,"assignment":12627,"asymmet":12628,"evaporated":12629,"old":12630,"tumors":12631,"modulus":12632,"pmos":12633,"places":12634,"photovoltaic":12635,"false":12636,"##adiene":12637,"dup":12638,"##orb":12639,"checking":12640,"##ortun":12641,")),":12642,"soybean":12643,"##hot":12644,"crosslinking":12645,"rendered":12646,"sender":12647,"pressures":12648,"##ctgt":12649,"##agraph":12650,"conical":12651,"sales":12652,"annot":12653,"peroxide":12654,"%).":12655,"alcohols":12656,"indicia":12657,"lifting":12658,"establishing":12659,"tends":12660,"advertisements":12661,"calibr":12662,"opportun":12663,"focused":12664,"##opes":12665,"dupl":12666,"gd":12667,"slice":12668,"nc":12669,"##wire":12670,"dead":12671,"releas":12672,"doping":12673,"difficul":12674,"cytok":12675,"coaxial":12676,"peaks":12677,"##oac":12678,"interrup":12679,"nic":12680,"reinforcement":12681,"planes":12682,"regulated":12683,"photoelectric":12684,"award":12685,"epitaxial":12686,"surve":12687,"rever":12688,"##ests":12689,"ideal":12690,"ru":12691,"issu":12692,"weather":12693,"gn":12694,"##oring":12695,"symptoms":12696,"induce":12697,"##cycl":12698,"angi":12699,"##ieties":12700,"xyl":12701,"editing":12702,"configure":12703,"scheduled":12704,"##bound":12705,"beverage":12706,"′)":12707,"##issive":12708,"extracting":12709,"ali":12710,"partly":12711,"simultaneous":12712,"##arboxylic":12713,"satisfy":12714,"paragraph":12715,"photodi":12716,"##vil":12717,"months":12718,"moieties":12719,"oste":12720,"nm_":12721,"initiation":12722,"anhydride":12723,"artery":12724,"streaming":12725,"yar":12726,"forw":12727,"embry":12728,"soil":12729,"_____________________________________":12730,"______________________________________":12731,"falls":12732,"suited":12733,"differs":12734,"formulated":12735,"interposed":12736,"weighted":12737,"tuning":12738,"successive":12739,"inventory":12740,"molten":12741,"##ometers":12742,"html":12743,"obtains":12744,"lists":12745,"certificate":12746,"interlock":12747,"##gaag":12748,"reveal":12749,"repository":12750,"played":12751,"indicators":12752,"aeros":12753,"##azin":12754,"walk":12755,"compares":12756,"##olec":12757,"##icing":12758,"permeability":12759,"phenomen":12760,"carbide":12761,"relax":12762,"ven":12763,"hu":12764,"operably":12765,"warning":12766,"##zen":12767,"passenger":12768,"##oprote":12769,"presenting":12770,"lattice":12771,"##isation":12772,"##ese":12773,"dental":12774,"multicast":12775,"optics":12776,"somew":12777,"marks":12778,"grasp":12779,"conti":12780,"hose":12781,"fluct":12782,"securely":12783,"hf":12784,"ccd":12785,"##oxamide":12786,"seals":12787,"heterocyclic":12788,"meeting":12789,"delta":12790,"displaced":12791,"##trans":12792,"ack":12793,"sf":12794,"texture":12795,"endot":12796,"synchronous":12797,"thromb":12798,"##erts":12799,"boron":12800,"//":12801,"situated":12802,"mammalian":12803,"cere":12804,"chronic":12805,"ignition":12806,"lu":12807,"depositing":12808,"transmissions":12809,"elastomeric":12810,"acquiring":12811,"damping":12812,"homo":12813,"um":12814,"ig":12815,"successfully":12816,"##iratory":12817,"twist":12818,"enclosed":12819,"microcontroller":12820,"purity":12821,"duplex":12822,"brid":12823,"drops":12824,"assessment":12825,"tetram":12826,"injury":12827,"symmetric":12828,"hypot":12829,"annealing":12830,"boards":12831,"sequencing":12832,"nuclear":12833,"treatments":12834,"##gment":12835,"fabricating":12836,"##osomes":12837,"volts":12838,"permission":12839,"psi":12840,"passivation":12841,"employs":12842,"equally":12843,"##oral":12844,"##ruption":12845,"pyrro":12846,"overcome":12847,"possess":12848,"backward":12849,"fi":12850,"hexane":12851,"##af":12852,"tablets":12853,"fd":12854,"quantif":12855,"tile":12856,"damaged":12857,"wedge":12858,"van":12859,"##atcc":12860,"##ilization":12861,"journal":12862,"pumps":12863,"portal":12864,"horm":12865,"servo":12866,"clone":12867,"vias":12868,"disposable":12869,"phy":12870,"mineral":12871,"pwm":12872,"refresh":12873,"defic":12874,"contigu":12875,"join":12876,"trailing":12877,"methylene":12878,"forwarding":12879,"##isher":12880,"transported":12881,"##bag":12882,"receivers":12883,"shrink":12884,"upload":12885,"specifying":12886,"acquire":12887,"fm":12888,"remotely":12889,"hsa":12890,"##mentation":12891,"concurrently":12892,"exposing":12893,"##versity":12894,"balls":12895,"fingerprint":12896,"traces":12897,"fins":12898,"pores":12899,"curable":12900,"##scre":12901,"decor":12902,"##imm":12903,"pulling":12904,"growing":12905,"##ught":12906,"ammonia":12907,"posts":12908,"encoun":12909,"abstr":12910,"##etry":12911,"chemicals":12912,"pictures":12913,"hund":12914,"atmospheric":12915,"projector":12916,"correcting":12917,"minor":12918,"flanges":12919,"movements":12920,"alkynyl":12921,"hundred":12922,"suscep":12923,"electrochemical":12924,"attempts":12925,"fung":12926,"forced":12927,"living":12928,"dsp":12929,"scores":12930,"outcome":12931,"pulley":12932,"mosfet":12933,"overhead":12934,"lot":12935,"normalized":12936,"thrust":12937,"##titude":12938,"paint":12939,"##cinoma":12940,"unnecessary":12941,"impurities":12942,"mutant":12943,"##het":12944,"##anyl":12945,"medication":12946,"equations":12947,"hm":12948,"urea":12949,"speeds":12950,"cancell":12951,"polycarbon":12952,"descript":12953,"furnace":12954,"rearward":12955,"specifies":12956,"finding":12957,"##ococc":12958,"literature":12959,"##olin":12960,"##ggg":12961,"rights":12962,"##known":12963,"delayed":12964,"clockwise":12965,"confer":12966,"pier":12967,"##grade":12968,"anchoring":12969,"lp":12970,"adequate":12971,"##oxysilane":12972,"##thio":12973,"dots":12974,"##irection":12975,"deleted":12976,"save":12977,"guides":12978,"dilution":12979,"deterg":12980,"copies":12981,"checked":12982,"guar":12983,"casting":12984,"histor":12985,"##bre":12986,"hept":12987,"##ighth":12988,"sold":12989,"crow":12990,"##idone":12991,"improves":12992,"compil":12993,"suggested":12994,"explain":12995,"##lux":12996,"##eding":12997,"lubricant":12998,"polyimide":12999,"efficacy":13000,"irreg":13001,"##ocation":13002,"tow":13003,"##ermal":13004,"anhydro":13005,"khz":13006,"membered":13007,"compute":13008,"pivotally":13009,"##hat":13010,"##ylon":13011,"),(":13012,"confirmation":13013,"disab":13014,"examined":13015,"condenser":13016,"keyp":13017,"irregular":13018,"fuse":13019,"##ycin":13020,"definitions":13021,"pk":13022,"inclusion":13023,"analyze":13024,"##osing":13025,"emuls":13026,"coupon":13027,"regulatory":13028,"console":13029,"connectivity":13030,"fly":13031,"strept":13032,"##iloxane":13033,"invas":13034,"style":13035,"precisely":13036,"welded":13037,"##alc":13038,"accesses":13039,"ticket":13040,"##table":13041,"pneumatic":13042,"nb":13043,"undergo":13044,"catalysts":13045,"spectra":13046,"indium":13047,"##oresis":13048,"eighth":13049,"erase":13050,"##ister":13051,"liquids":13052,"oled":13053,"resistors":13054,"insol":13055,"generic":13056,"adhered":13057,"antigens":13058,"marking":13059,"##atgt":13060,"spectrom":13061,"patents":13062,"downloaded":13063,"##econd":13064,"differentiation":13065,"##nat":13066,"##unt":13067,"##elled":13068,"dev":13069,"locus":13070,"##roid":13071,"unknown":13072,"##ype":13073,"encapsulated":13074,"permitted":13075,"##ocyte":13076,"backb":13077,"specificity":13078,"gun":13079,"cis":13080,"immunoglobulin":13081,"remainder":13082,"olefin":13083,"jan":13084,"##lycer":13085,"indirectly":13086,"spor":13087,"pipes":13088,"exemplified":13089,"wafers":13090,"##etes":13091,"combine":13092,"ing":13093,"cyclopent":13094,"saved":13095,"accounts":13096,"promote":13097,"contacted":13098,"une":13099,"transportation":13100,"surgeon":13101,"icons":13102,"impre":13103,"phenol":13104,"reacted":13105,"polarizing":13106,"effected":13107,"kb":13108,"bb":13109,"polynucleotides":13110,"visually":13111,"feb":13112,"thf":13113,"contiguous":13114,"beacon":13115,"doses":13116,"discontin":13117,"expose":13118,"pyrazol":13119,"ferr":13120,"solve":13121,"chemistry":13122,"comfort":13123,"vb":13124,"##vl":13125,"##acts":13126,"dyes":13127,"##urance":13128,"joints":13129,"recharge":13130,"compliance":13131,"transient":13132,"subun":13133,"gasket":13134,"elevational":13135,"##ai":13136,"statistics":13137,"meta":13138,"collim":13139,"interf":13140,"tom":13141,"stretch":13142,"##cutaneous":13143,"achieving":13144,"ultim":13145,"##romagnetic":13146,"ww":13147,"cobalt":13148,"rl":13149,"surrounded":13150,"standby":13151,"coron":13152,"unders":13153,"airflow":13154,"cultured":13155,"choose":13156,"graphite":13157,"tax":13158,"regen":13159,"brine":13160,"dh":13161,"summar":13162,"briefly":13163,"leaves":13164,"##ape":13165,"latency":13166,"##certain":13167,"anhydrous":13168,"physician":13169,"wi":13170,"redundant":13171,"divider":13172,"##osine":13173,"versions":13174,"etoac":13175,"lowering":13176,"##sulfonyl":13177,"methacryl":13178,"hierarchy":13179,"strings":13180,"airbag":13181,"##ift":13182,"##amoyl":13183,"disturb":13184,"triggered":13185,"##ife":13186,"kernel":13187,"##ockets":13188,"##ensities":13189,"surv":13190,"ofdm":13191,"inserts":13192,"traject":13193,"°,":13194,"tors":13195,"synchronized":13196,"throttle":13197,"hydrog":13198,"corners":13199,"answer":13200,"nin":13201,"##vt":13202,"dashed":13203,"##lined":13204,"pdc":13205,"##plate":13206,"maps":13207,"vaccine":13208,"orders":13209,"regeneration":13210,"inclination":13211,"mems":13212,"engineering":13213,"excip":13214,"facilitating":13215,"org":13216,"epitope":13217,"examination":13218,"nearly":13219,"tongue":13220,"easier":13221,"jacket":13222,"freely":13223,"catal":13224,"ensures":13225,"sirna":13226,"pseudo":13227,"beneath":13228,"license":13229,"metrics":13230,"##arc":13231,"##rogen":13232,"##idene":13233,"##enty":13234,"pda":13235,"nanoc":13236,"somewhat":13237,"##enches":13238,"##ger":13239,"cage":13240,"abrasive":13241,"##plas":13242,"absorber":13243,"cad":13244,"packaged":13245,"ecu":13246,"explanatory":13247,"incubation":13248,"##oic":13249,"keeping":13250,"och":13251,"diphenyl":13252,"sacrificial":13253,"##vr":13254,"crossing":13255,"gag":13256,"interpret":13257,"progen":13258,"filament":13259,"uneven":13260,"keypad":13261,"desirably":13262,"workst":13263,"consecutive":13264,"preform":13265,"##cher":13266,"fluoride":13267,"participants":13268,"hands":13269,"##kk":13270,"##son":13271,"transitions":13272,"(%)":13273,"caller":13274,"torsion":13275,"##gi":13276,"gears":13277,"promotion":13278,"boxes":13279,"wlan":13280,"constructs":13281,"spi":13282,"deck":13283,"woven":13284,"specifications":13285,"strands":13286,"##ectin":13287,"##jet":13288,"advances":13289,"diameters":13290,"##car":13291,"law":13292,"schemes":13293,"vin":13294,"ki":13295,"inn":13296,"analys":13297,"slides":13298,"credential":13299,"silane":13300,"phones":13301,"stiffness":13302,"##actt":13303,"bic":13304,"locating":13305,"compensate":13306,"mutually":13307,"seven":13308,"methylp":13309,"##aments":13310,"customized":13311,"collabor":13312,"distinguish":13313,"approximate":13314,"attention":13315,"deformed":13316,"depict":13317,"bd":13318,"edit":13319,"odd":13320,"locate":13321,"impregn":13322,"glycerol":13323,"®,":13324,"routes":13325,"gase":13326,"automob":13327,"twenty":13328,"scaff":13329,"crank":13330,"cosm":13331,"##meri":13332,"sigma":13333,"##haft":13334,"besides":13335,"transmittance":13336,"reconfig":13337,"magnification":13338,"constitutes":13339,"##tex":13340,"##cy":13341,"redi":13342,"coher":13343,"##ays":13344,"gaseous":13345,"##anesulf":13346,"calend":13347,"boundaries":13348,"##partic":13349,"opens":13350,"permeable":13351,"upr":13352,"polic":13353,"goal":13354,"border":13355,"nox":13356,"concentric":13357,"tnf":13358,"margin":13359,"strategy":13360,"##izations":13361,"plated":13362,"nylon":13363,"fastened":13364,"clusters":13365,"##ball":13366,"our":13367,"unf":13368,"ech":13369,"asc":13370,"slowly":13371,"equil":13372,"##atest":13373,"bearings":13374,"repeatedly":13375,"encode":13376,"reflux":13377,"grinding":13378,"replic":13379,"##kelet":13380,"pall":13381,"consumed":13382,"broadcasting":13383,"##clyl":13384,"##ritis":13385,"##close":13386,"correlated":13387,"washer":13388,"pivoting":13389,"adds":13390,"supernat":13391,"##oles":13392,"clk":13393,"script":13394,"retro":13395,"acidic":13396,"baseband":13397,"##fn":13398,"contract":13399,"vendor":13400,"apr":13401,"severe":13402,"##aching":13403,"evaluate":13404,"deple":13405,"diagrammatic":13406,"##rill":13407,"folder":13408,"trifluoro":13409,"vul":13410,"mpeg":13411,"inhal":13412,"bonus":13413,"punct":13414,"avoided":13415,"representations":13416,"parking":13417,"triangular":13418,"##enic":13419,"cry":13420,"wider":13421,"##irectional":13422,"frozen":13423,"feeder":13424,"snaps":13425,"feel":13426,"scaling":13427,"##cre":13428,"##ella":13429,"##dy":13430,"terminus":13431,"validation":13432,"cladding":13433,"impar":13434,"recycl":13435,"workflow":13436,"routed":13437,"inactive":13438,"stacking":13439,"'-":13440,"biot":13441,"obli":13442,"electronically":13443,"insufficient":13444,"##oses":13445,"bipolar":13446,"##aved":13447,"##enesulf":13448,"##esting":13449,"bt":13450,"cash":13451,"correspondence":13452,"digit":13453,"purchased":13454,"shafts":13455,"gauge":13456,"##ancer":13457,"attenuation":13458,"kid":13459,"bumps":13460,"afford":13461,"stabilizing":13462,"obvious":13463,"condensation":13464,"weighting":13465,"##ferase":13466,"tib":13467,"drawback":13468,"##aaac":13469,"alternatives":13470,"modeling":13471,"mutations":13472,"calling":13473,"standing":13474,"cloning":13475,"stereo":13476,"pref":13477,"trenches":13478,"##gcag":13479,"tier":13480,"policies":13481,"##akes":13482,"differently":13483,"##oped":13484,"sv":13485,"##akers":13486,"hierarchical":13487,"##ithm":13488,"oblique":13489,"##enge":13490,"##obacter":13491,"accommodating":13492,"##ompatible":13493,"endpoint":13494,"cag":13495,"dichloromethane":13496,"fs":13497,"##ogenesis":13498,"benzene":13499,"team":13500,"##tri":13501,"pushing":13502,"discard":13503,"gy":13504,"##sely":13505,"diox":13506,"disadvantage":13507,"sms":13508,"antioxid":13509,"united":13510,"recited":13511,"bolts":13512,"entrance":13513,"vr":13514,"polycarbonate":13515,"bra":13516,"sulph":13517,"vision":13518,"recommended":13519,"you":13520,"cabinet":13521,"crypt":13522,"phthal":13523,"failed":13524,"simulated":13525,"tur":13526,"gsm":13527,"assistant":13528,"secret":13529,"reacting":13530,"splitter":13531,"##wo":13532,"fibrous":13533,"grap":13534,"indeed":13535,"##insic":13536,"ham":13537,"assistance":13538,"##uous":13539,"initialization":13540,"interpolation":13541,"##ococcus":13542,"##cellulose":13543,"ln":13544,"rare":13545,"##hene":13546,"enzymatic":13547,"##actic":13548,"carbohyd":13549,"clips":13550,"explicitly":13551,"backbone":13552,"viewpoint":13553,"deterioration":13554,"challenge":13555,"tie":13556,"foll":13557,"##ayer":13558,"expressly":13559,"strains":13560,"insoluble":13561,"nominal":13562,"java":13563,"wan":13564,"reaching":13565,"imidazol":13566,"illuminated":13567,"tower":13568,"rounded":13569,"realize":13570,"accelerator":13571,"contamination":13572,"##page":13573,"therapeutically":13574,"cosmetic":13575,"stick":13576,"reproducing":13577,"works":13578,"egf":13579,"prostate":13580,"promoters":13581,"expanding":13582,"##iens":13583,"##gtg":13584,"##ady":13585,"correctly":13586,"##enedi":13587,"##heless":13588,")-(":13589,"externally":13590,"incorporation":13591,"introduce":13592,"projects":13593,"##isa":13594,"robust":13595,"reside":13596,"consumers":13597,"arcuate":13598,"replacing":13599,"lies":13600,"disin":13601,"removably":13602,"respiratory":13603,"modulating":13604,"##_s":13605,"diabetes":13606,"##otive":13607,"oligomer":13608,"abutment":13609,"packing":13610,"natl":13611,"configuring":13612,"analogous":13613,"apop":13614,"trim":13615,"ferromagnetic":13616,"agree":13617,"hearing":13618,"stopping":13619,"encodes":13620,"##oxycarbonyl":13621,"##furan":13622,"=(":13623,"amplifiers":13624,"##long":13625,"ended":13626,"arth":13627,"suppression":13628,"carboxamide":13629,"dod":13630,"damper":13631,"thicknesses":13632,"sinus":13633,"sale":13634,"toxic":13635,"seri":13636,"pillar":13637,"ju":13638,"##lr":13639,"majority":13640,"nose":13641,"localized":13642,"printhead":13643,"statement":13644,"adhesives":13645,"##ccag":13646,"randomly":13647,"##caag":13648,"vt":13649,"##estinal":13650,"billing":13651,"superi":13652,"teles":13653,"thio":13654,"regarded":13655,"inflation":13656,"uniformity":13657,"##oti":13658,"##ophosph":13659,"eliminating":13660,"wag":13661,"superimp":13662,"(+":13663,"adju":13664,"goods":13665,"reliably":13666,"mutation":13667,"enforcement":13668,"chimeric":13669,"rab":13670,"prelim":13671,"dissipation":13672,"##oscopic":13673,"adip":13674,"tether":13675,"##tosis":13676,"upright":13677,"buried":13678,"minimized":13679,"decode":13680,"##day":13681,"polymerizable":13682,"correspondingly":13683,"sampled":13684,"##ands":13685,"iner":13686,"carboxylate":13687,"immediate":13688,"##ont":13689,"argon":13690,"##tering":13691,"overview":13692,"retin":13693,"optimize":13694,"stabilizer":13695,"##aat":13696,"ttt":13697,"radicals":13698,"cyclopropyl":13699,"intervention":13700,"bask":13701,"aberration":13702,"milk":13703,"##anone":13704,"nip":13705,"##anediol":13706,"ridge":13707,"directing":13708,"improvements":13709,"incidence":13710,"wrap":13711,"worn":13712,"polyole":13713,"##ylethyl":13714,"##omach":13715,"##ectiveness":13716,"adsorption":13717,"##idic":13718,"staining":13719,"##factory":13720,"balancing":13721,"linearly":13722,"harmonic":13723,"##onductive":13724,"encompasses":13725,"rigidity":13726,"effort":13727,"hv":13728,"##valid":13729,"holog":13730,"##cm":13731,"biotin":13732,"scaffold":13733,"hiv":13734,"fracture":13735,"##iline":13736,"compressive":13737,"assembling":13738,"jul":13739,"branches":13740,"ligands":13741,"magnetization":13742,"subscription":13743,"polyamide":13744,"libraries":13745,"fundament":13746,"retic":13747,"preserv":13748,"eyes":13749,"##but":13750,"quin":13751,"inflatable":13752,"quinol":13753,"freed":13754,"slidably":13755,"confidence":13756,"##vascular":13757,"protease":13758,"mann":13759,"nanow":13760,"##ephthal":13761,"guarant":13762,"##atibility":13763,"biod":13764,"spine":13765,"calculations":13766,"mism":13767,"tips":13768,"nanotubes":13769,"convers":13770,"aag":13771,"##ipping":13772,"##tip":13773,"effectiveness":13774,"permanently":13775,"phenomenon":13776,"brack":13777,"losses":13778,"exerted":13779,"disadvantages":13780,"compliant":13781,"sta":13782,"##ovirus":13783,"##bers":13784,"vertebra":13785,"hexa":13786,"closest":13787,"phosphoryl":13788,"##rated":13789,"abbre":13790,"vitamin":13791,"##ulsion":13792,"fractions":13793,"reinforced":13794,"photographing":13795,"polystyrene":13796,"dispensed":13797,"##utor":13798,"##urg":13799,"humans":13800,"facilities":13801,"##ked":13802,"consuming":13803,"parity":13804,"##ucc":13805,"acetone":13806,"touc":13807,"triggering":13808,"former":13809,"belonging":13810,"chlorine":13811,"mur":13812,"americ":13813,"deformable":13814,"seman":13815,"contrary":13816,"##izable":13817,"(−":13818,"counting":13819,"hydrolysis":13820,"transpl":13821,"parasitic":13822,"going":13823,"methodology":13824,"photodiode":13825,"intelligent":13826,"anionic":13827,"defective":13828,"abbrevi":13829,"##eed":13830,"knee":13831,"yz":13832,"drift":13833,"##si":13834,"planetary":13835,"stabilized":13836,"immobilized":13837,"##len":13838,"permitting":13839,"incision":13840,"nail":13841,"##ynchron":13842,"conversely":13843,"##monary":13844,"nanotube":13845,"antagonist":13846,"##acac":13847,"evaporator":13848,"blind":13849,"ito":13850,"historical":13851,"##urable":13852,"##kary":13853,"offered":13854,"masking":13855,"reform":13856,"adc":13857,"##ggag":13858,"breakdown":13859,"adopted":13860,"atm":13861,"wait":13862,"##thi":13863,"dn":13864,"aerosol":13865,"##odyn":13866,"inducing":13867,"##stric":13868,"nacl":13869,"mirrors":13870,"mathem":13871,"stimulus":13872,"accepted":13873,"highl":13874,"resistivity":13875,"palladium":13876,"va":13877,"##gd":13878,"reversed":13879,"inkjet":13880,"##ilyl":13881,"posture":13882,"##arse":13883,"charger":13884,"deoxy":13885,"antibio":13886,"stit":13887,"##egrad":13888,"ine":13889,"multiplexing":13890,"\",":13891,"sync":13892,"micrometers":13893,"cdma":13894,"acquires":13895,"powders":13896,"popular":13897,"race":13898,"##ki":13899,"gelatin":13900,"sic":13901,"viruses":13902,"machining":13903,"helps":13904,"ribb":13905,"shaping":13906,"seeds":13907,"occupant":13908,"##orted":13909,"chromium":13910,"##acted":13911,"##_d":13912,"waveforms":13913,"dialog":13914,"annulus":13915,"cholester":13916,"imag":13917,"##accharide":13918,"##bris":13919,"ordered":13920,"resulted":13921,"zirconium":13922,"latching":13923,"complicated":13924,"##quinol":13925,"##azo":13926,"##ulant":13927,"dog":13928,"giving":13929,"trajectory":13930,"controllable":13931,"crimp":13932,"oz":13933,"debris":13934,"wrist":13935,"##mented":13936,"carcinoma":13937,"phosphorus":13938,"##bent":13939,"exclusive":13940,"##osa":13941,"encapsulation":13942,"aaa":13943,"decomposition":13944,"ids":13945,"rins":13946,"addressed":13947,"null":13948,"vacuo":13949,"intraven":13950,"polyol":13951,"shank":13952,"importance":13953,"lookup":13954,"xi":13955,"chuck":13956,"cultures":13957,"##ho":13958,"continuing":13959,"##vie":13960,"thorough":13961,"interfere":13962,"photolith":13963,"considering":13964,"elsewhere":13965,"functioning":13966,"calendar":13967,"coal":13968,"kill":13969,"##then":13970,"waiting":13971,"illustrations":13972,"progressive":13973,"brackets":13974,"meters":13975,"##obut":13976,"##cp":13977,"fulf":13978,"mother":13979,"bulb":13980,"personnel":13981,"##olip":13982,"deg":13983,"polymorph":13984,"##ithmetic":13985,"##ethanol":13986,"knife":13987,"dimm":13988,"rising":13989,"conv":13990,"##acetic":13991,"arithmetic":13992,"cmp":13993,"coming":13994,"criter":13995,"tetr":13996,"var":13997,"homolog":13998,"accumulator":13999,"inductive":14000,"isometric":14001,"stabilization":14002,"housed":14003,"##ality":14004,"flavor":14005,"##sive":14006,"terephthal":14007,"quit":14008,"limb":14009,"cited":14010,"implants":14011,"##aur":14012,"theory":14013,"lamps":14014,"pointed":14015,"reward":14016,"transmissive":14017,"°.":14018,"microflu":14019,"asic":14020,"##nail":14021,"ranking":14022,"conduct":14023,"pep":14024,"associate":14025,"biodegrad":14026,"pigments":14027,"pulsed":14028,"quantitative":14029,"configurable":14030,"piperidin":14031,"criterion":14032,"looking":14033,"bm":14034,"agit":14035,"sorting":14036,"delete":14037,"##oids":14038,"fixedly":14039,"fails":14040,"rechargeable":14041,"latent":14042,"estimates":14043,"medicament":14044,"##iter":14045,"buffered":14046,"implements":14047,"baff":14048,"veget":14049,"eb":14050,"boss":14051,"dissolution":14052,"polyether":14053,"basket":14054,"pancre":14055,"circulating":14056,"##rosis":14057,"##ologic":14058,"demonstrate":14059,"coag":14060,"emits":14061,"retract":14062,"cum":14063,"cuff":14064,"denote":14065,"##woven":14066,"preview":14067,"##fic":14068,"preparations":14069,"moveable":14070,"##uff":14071,"durability":14072,"bud":14073,"eep":14074,"quar":14075,"ventilation":14076,"bubbles":14077,"sided":14078,"##haus":14079,"retrans":14080,"bad":14081,"endothelial":14082,"templates":14083,"handler":14084,"extensions":14085,"versa":14086,"##oprotein":14087,"penetrating":14088,"injecting":14089,"community":14090,"##comes":14091,"hall":14092,"pouch":14093,"centers":14094,"spots":14095,"dest":14096,"hid":14097,"guidewire":14098,"anth":14099,"competi":14100,"orf":14101,"gg":14102,"##ws":14103,"translated":14104,"engineered":14105,"contribute":14106,"##riers":14107,"electrolytic":14108,"lug":14109,"hydroxyethyl":14110,"largest":14111,"intention":14112,"conflic":14113,"constraint":14114,"renal":14115,"##idal":14116,"ketone":14117,"cytotox":14118,"death":14119,"metering":14120,"##tines":14121,"boiling":14122,"robo":14123,"letter":14124,"##comb":14125,"albumin":14126,"quart":14127,"granular":14128,"gs":14129,"##omycin":14130,"corp":14131,"cure":14132,"biochem":14133,"##butyl":14134,"##ophil":14135,"agg":14136,"evident":14137,"anvil":14138,"trial":14139,"vice":14140,"neither":14141,"rgb":14142,"barcode":14143,"##itter":14144,"theore":14145,"acetonitrile":14146,"heterocyclyl":14147,"pup":14148,"outline":14149,"##phones":14150,"atcc":14151,"antimic":14152,"vial":14153,"##electronic":14154,"yoke":14155,"national":14156,"##dp":14157,"polyoxy":14158,"detergent":14159,"qos":14160,"virtually":14161,"oxidized":14162,"reserved":14163,"dys":14164,"isocyanate":14165,"extru":14166,"##name":14167,"ghz":14168,"photod":14169,"biomass":14170,"##emark":14171,"institution":14172,"wirelessly":14173,"judgment":14174,"bir":14175,"simplicity":14176,"antimicrob":14177,"tetramethyl":14178,"##ridine":14179,"susceptible":14180,"exactly":14181,"phage":14182,"ceiling":14183,"invalid":14184,"conce":14185,"govern":14186,"+)":14187,"visualization":14188,"crop":14189,"vegf":14190,"##otri":14191,"movie":14192,"ak":14193,"eeprom":14194,"##screen":14195,"float":14196,"proof":14197,"initiating":14198,"inventions":14199,"isolate":14200,"dmf":14201,"invok":14202,"pod":14203,"hi":14204,"##acg":14205,"arrival":14206,"partner":14207,"trailer":14208,"tan":14209,"comparable":14210,"couples":14211,"centi":14212,"island":14213,"##bac":14214,"mab":14215,"##arin":14216,"shopping":14217,"##va":14218,"handles":14219,"inflammation":14220,"yields":14221,"incorporates":14222,"wip":14223,"gallium":14224,"intrinsic":14225,"triethyl":14226,"evaluating":14227,"conges":14228,"redundancy":14229,"rhe":14230,"##role":14231,"##acetate":14232,"dext":14233,"emph":14234,"doing":14235,"conveniently":14236,"accommodated":14237,"downhole":14238,"interrog":14239,"prompt":14240,"centered":14241,"heel":14242,"alterations":14243,"##cr":14244,"##orec":14245,"truck":14246,"##osomal":14247,"rats":14248,"interacting":14249,"candidates":14250,"sorbit":14251,"##entric":14252,"counts":14253,"desp":14254,"((":14255,"transducers":14256,"propos":14257,"nf":14258,"metast":14259,"plastics":14260,"notice":14261,"prosthetic":14262,"inherent":14263,"transcript":14264,"tetrahydrofuran":14265,"##||":14266,"roughness":14267,"sponsor":14268,"fun":14269,"homogeneous":14270,"elisa":14271,"generators":14272,"##dim":14273,"##soft":14274,"ery":14275,"##rosine":14276,"stomach":14277,"adaptor":14278,"##phenol":14279,"kd":14280,"spectros":14281,"##points":14282,"miti":14283,"opaque":14284,"removes":14285,"amines":14286,"persistent":14287,"quantization":14288,"internally":14289,"plugs":14290,"cooking":14291,"cleaner":14292,"lie":14293,"chun":14294,"automobile":14295,"song":14296,"stylus":14297,"extracellular":14298,"analogs":14299,"sintered":14300,"invest":14301,"dotted":14302,"##ridin":14303,"mitig":14304,"silicide":14305,"dish":14306,"kine":14307,"scattered":14308,"trademark":14309,"extruded":14310,"##aked":14311,"quite":14312,"dispersing":14313,"skelet":14314,"fulfill":14315,"blast":14316,"preamb":14317,"unwanted":14318,"numbered":14319,"lithography":14320,"paging":14321,"##atern":14322,"hdd":14323,"brand":14324,"##atag":14325,"acknowledge":14326,"##mitt":14327,"casc":14328,"##structed":14329,"filtr":14330,"characterization":14331,"differing":14332,"thumbnail":14333,"invasive":14334,"femto":14335,"##roblast":14336,"eras":14337,"blot":14338,"lysine":14339,"##keting":14340,"auton":14341,"##acle":14342,"ship":14343,"originating":14344,"flop":14345,"searches":14346,"##/−":14347,"##_p":14348,"exchanged":14349,"antimicrobial":14350,"assessed":14351,"accelerometer":14352,"medicine":14353,"contraction":14354,"precipitate":14355,"whenever":14356,"difficulty":14357,"transfected":14358,"shifts":14359,"inhibits":14360,"minimizing":14361,"catalog":14362,"reflectance":14363,"money":14364,"things":14365,"##kl":14366,"##weight":14367,"chel":14368,"keywords":14369,"capsules":14370,"presses":14371,"steady":14372,"##ocard":14373,"##quin":14374,"judged":14375,"survival":14376,"oxidizing":14377,"signs":14378,"echo":14379,"nonwoven":14380,"pulmonary":14381,"disabled":14382,"##cated":14383,"##hyth":14384,"##ammonium":14385,"##above":14386,"conduits":14387,"facial":14388,"##apse":14389,"mimo":14390,"workstation":14391,"##imer":14392,"inductance":14393,"graphs":14394,"conditional":14395,"friend":14396,"##she":14397,"kda":14398,"diction":14399,"buyer":14400,"ia":14401,"##stock":14402,"evac":14403,"nasal":14404,"sett":14405,"geograph":14406,"##aneously":14407,"discrimin":14408,"meoh":14409,"recommendation":14410,"cellul":14411,"becoming":14412,"_at":14413,"exhaus":14414,"analytical":14415,"sort":14416,"aggregated":14417,"quadr":14418,"##annel":14419,"contribution":14420,"pci":14421,"vein":14422,"assets":14423,"##oct":14424,"cyste":14425,"platforms":14426,"arab":14427,"##amer":14428,"watch":14429,"##immun":14430,"discovered":14431,"pathways":14432,"asymmetric":14433,"##anti":14434,"successively":14435,"bubble":14436,"unre":14437,"www":14438,"microsoft":14439,"gcc":14440,"depart":14441,"affecting":14442,"kidney":14443,"interven":14444,"thresholds":14445,"gpp":14446,"vag":14447,"operators":14448,"interfering":14449,"##ggcc":14450,"impeller":14451,"cleaned":14452,"myel":14453,"urethane":14454,"languages":14455,"homologous":14456,"spreading":14457,"##aper":14458,"platen":14459,"inhibited":14460,"catch":14461,"quartz":14462,"belongs":14463,"combust":14464,".:":14465,"preliminary":14466,"millim":14467,"transitory":14468,"##care":14469,"exiting":14470,"obst":14471,"##alty":14472,"vii":14473,"##otherapy":14474,"spraying":14475,"gast":14476,"accomplish":14477,"##ppy":14478,"widths":14479,"inputting":14480,"atp":14481,"inactiv":14482,"hosp":14483,"ifn":14484,"mature":14485,"photodet":14486,"handled":14487,"naphthal":14488,"##engthen":14489,"femoral":14490,"##idyl":14491,"thermos":14492,"##bral":14493,"dropped":14494,"reflects":14495,"tract":14496,"concentrate":14497,"dehydro":14498,"europ":14499,"drink":14500,"pyrimidine":14501,"##alum":14502,"palm":14503,"##lyb":14504,"##map":14505,"##qi":14506,"fibre":14507,"freedom":14508,"##eness":14509,"##cers":14510,"wearable":14511,"dosing":14512,"+,":14513,"broadly":14514,"hemat":14515,"telecommunications":14516,"endogenous":14517,"waterm":14518,"##wing":14519,"cros":14520,"##itized":14521,"mor":14522,"phenoxy":14523,"luc":14524,"immers":14525,"leave":14526,"heteroatom":14527,"infected":14528,"singular":14529,"##accc":14530,"dense":14531,"##treated":14532,"porosity":14533,"##etting":14534,"##isor":14535,"terminates":14536,"chloroform":14537,"jump":14538,"dac":14539,"##cript":14540,"indent":14541,"##yrrol":14542,"manipulated":14543,"garment":14544,"ck":14545,"##iable":14546,"##benzyl":14547,"lad":14548,"exhibited":14549,"imposs":14550,"isot":14551,"lamination":14552,"extensive":14553,"readout":14554,"brown":14555,"sram":14556,"hospital":14557,"oval":14558,"computational":14559,"molyb":14560,"brace":14561,"news":14562,"opportunity":14563,"fundamental":14564,"##ocal":14565,"verified":14566,"establishment":14567,"supernatant":14568,"medial":14569,"vane":14570,"revolution":14571,"grouping":14572,"orientations":14573,"bif":14574,"tant":14575,"subunit":14576,"frictional":14577,"histogram":14578,"##idinyl":14579,"symmetrical":14580,"distilled":14581,"vg":14582,"publications":14583,"constitution":14584,"interconnects":14585,"##qs":14586,"microfluidic":14587,"parties":14588,"facs":14589,"##omas":14590,"pinion":14591,"##aid":14592,"##odynamic":14593,"cultiv":14594,";(":14595,"penta":14596,"mercap":14597,"reporter":14598,"##aign":14599,"crosslinked":14600,"ll":14601,"bacillus":14602,"##emic":14603,"##drug":14604,"outd":14605,"advertiser":14606,"elapsed":14607,"fair":14608,"anticip":14609,"exits":14610,"##anoic":14611,"login":14612,"##sin":14613,"withdrawn":14614,"supra":14615,"solely":14616,"attained":14617,"big":14618,"##rp":14619,"pedest":14620,"discs":14621,"glycine":14622,"xy":14623,"sds":14624,"travels":14625,"eject":14626,"##emed":14627,"predictive":14628,"ratc":14629,"tamp":14630,"underside":14631,"##functional":14632,"flank":14633,"designation":14634,"ves":14635,"windings":14636,"precipitation":14637,"##ounding":14638,"adjustments":14639,"biodegradable":14640,"blended":14641,"tear":14642,"straps":14643,"campaign":14644,")”":14645,"biocompatible":14646,"diffuser":14647,"##sors":14648,"pupil":14649,"tracked":14650,"sulfon":14651,"sucrose":14652,"impossible":14653,"corr":14654,"##prop":14655,"abd":14656,"stepped":14657,"##avail":14658,"highligh":14659,"appliances":14660,"inexp":14661,"##ouse":14662,"intermitt":14663,"tactile":14664,"##ril":14665,"##escent":14666,"##ptive":14667,"shadow":14668,"mi":14669,"descriptor":14670,"accession":14671,"##eto":14672,"crc":14673,"##econds":14674,"diluent":14675,"avoiding":14676,"motif":14677,"networked":14678,"fluorophenyl":14679,"crystallization":14680,"displace":14681,"nanoparticle":14682,"audible":14683,"difluor":14684,"hydrogel":14685,"##arium":14686,"preamble":14687,"##pts":14688,"sweep":14689,"##cd":14690,"microcomp":14691,"polarizer":14692,"microl":14693,"cx":14694,"pacing":14695,"inversion":14696,"sulfonyl":14697,"hidden":14698,"fb":14699,"ventricular":14700,"docking":14701,"absent":14702,"hormone":14703,"epid":14704,"rolls":14705,"hexyl":14706,"##no":14707,"healing":14708,"sounds":14709,"stretching":14710,"shrou":14711,"unp":14712,"purge":14713,"estimating":14714,"stripe":14715,"ues":14716,"glasses":14717,"formulae":14718,"slits":14719,"ribbon":14720,"spatially":14721,"param":14722,"graphene":14723,"##karyotic":14724,"recur":14725,"isc":14726,"stably":14727,"##orous":14728,"hydroxypropyl":14729,"ultimately":14730,"dict":14731,"##atically":14732,"maize":14733,"imaged":14734,"cooler":14735,"ensuring":14736,"comprom":14737,"forwarded":14738,"progression":14739,"concerns":14740,"scrap":14741,"sweet":14742,"tack":14743,"feeds":14744,"chair":14745,"bushing":14746,"occlusion":14747,"shipping":14748,"specialized":14749,"alg":14750,"##aut":14751,"cutout":14752,"centrifugal":14753,"subp":14754,"existence":14755,"applicant":14756,"##rolog":14757,"immersion":14758,"##enta":14759,"adjusts":14760,"auction":14761,"eliminates":14762,"##rates":14763,"adaptation":14764,"pyridyl":14765,"aligning":14766,"asynchron":14767,"##avi":14768,"nfc":14769,"reconstruction":14770,"##athy":14771,"bromide":14772,"dcm":14773,"##letes":14774,"##gk":14775,"robotic":14776,"hereinabove":14777,"compartments":14778,"##aine":14779,"breaking":14780,"elongation":14781,"fermentation":14782,"neuro":14783,"##lines":14784,"desc":14785,"tyrosine":14786,"##valently":14787,"elasticity":14788,"##agonal":14789,"sque":14790,"harness":14791,"speakers":14792,"compensated":14793,"privacy":14794,"##field":14795,"balanced":14796,"##gggg":14797,"recombination":14798,"haz":14799,"##stand":14800,"sandwic":14801,"topical":14802,"capping":14803,"questions":14804,"considerable":14805,"ix":14806,"sports":14807,"insurance":14808,"emissions":14809,"recirc":14810,"despite":14811,"suppressing":14812,"supplemental":14813,"rectifier":14814,"named":14815,"csi":14816,"##atgc":14817,"delays":14818,"planning":14819,"writes":14820,"liposomes":14821,"##cttc":14822,"converters":14823,"jaws":14824,"##arbonate":14825,"marketing":14826,"cantile":14827,"restrictive":14828,"tagged":14829,"penetrate":14830,"octyl":14831,"##can":14832,"stay":14833,"largely":14834,"stearate":14835,"reproduced":14836,"healthy":14837,"##rone":14838,"biphenyl":14839,"toxin":14840,"mast":14841,"eccentric":14842,"dma":14843,"submit":14844,"decel":14845,"terminating":14846,"nevert":14847,"nevertheless":14848,"pyrrolo":14849,"luminescent":14850,"eventually":14851,"unload":14852,"tantalum":14853,"quatern":14854,"circumferentially":14855,"submitted":14856,"tf":14857,"exceeding":14858,"inexpensive":14859,"][":14860,"distally":14861,"spr":14862,"radiating":14863,"healthcare":14864,"germanium":14865,"dress":14866,"naphthyl":14867,"##orecep":14868,"##idase":14869,"allyl":14870,"corne":14871,"coloring":14872,"segmented":14873,"vref":14874,"topic":14875,"loose":14876,"satisfies":14877,"biologically":14878,"laur":14879,"broadband":14880,"silicate":14881,"biomark":14882,"citrate":14883,"##bel":14884,"##aving":14885,"relev":14886,"phrases":14887,"dw":14888,"scheduler":14889,"##ern":14890,"##assembly":14891,"##--------":14892,"##vk":14893,"designate":14894,"sut":14895,"pusher":14896,"labeling":14897,"termed":14898,"colour":14899,"wrapped":14900,"prolong":14901,"surrounds":14902,"precursors":14903,"cartil":14904,"sealant":14905,"##ull":14906,"disulf":14907,"reactant":14908,"##ifies":14909,"cv":14910,"./":14911,"taper":14912,"depressed":14913,"##rh":14914,"german":14915,"tendency":14916,"activates":14917,"corrug":14918,"contaminants":14919,"vibrations":14920,"##hold":14921,"duc":14922,"poles":14923,"##atitis":14924,"degen":14925,"tread":14926,"##cular":14927,"##bl":14928,"##echanical":14929,"dissolving":14930,"agonist":14931,"clones":14932,"profession":14933,"##icin":14934,"watermark":14935,"honey":14936,"terti":14937,"publisher":14938,"butadiene":14939,"satisfactory":14940,"dependence":14941,"##ortic":14942,"hereafter":14943,"##uters":14944,"melan":14945,"fits":14946,"son":14947,"multiplexed":14948,"yarn":14949,"altering":14950,"children":14951,"blur":14952,"milling":14953,"prodrug":14954,"##opolymer":14955,"microcomputer":14956,"rolled":14957,"mri":14958,"coronary":14959,"##rene":14960,"din":14961,"xx":14962,"outermost":14963,"gels":14964,"anatom":14965,"##ctive":14966,"sg":14967,"##rally":14968,"##denum":14969,"granules":14970,"##rine":14971,"aware":14972,"evolution":14973,"igf":14974,"landing":14975,"entertain":14976,"regulate":14977,"covalent":14978,"tio":14979,"organisms":14980,"##accharides":14981,"haptic":14982,"depress":14983,"##bal":14984,"obsc":14985,"punch":14986,"glycosyl":14987,"notes":14988,"intracellular":14989,"dropwise":14990,"blower":14991,"letters":14992,"##genase":14993,"sapiens":14994,"msc":14995,"sessions":14996,"authority":14997,"pac":14998,"collaps":14999,"tiles":15000,"covalently":15001,"inferior":15002,"sustained":15003,"evidence":15004,"coarse":15005,"##take":15006,"compatibility":15007,"molybdenum":15008,"methane":15009,"ethers":15010,"##hi":15011,"##roly":15012,"pellets":15013,"##haps":15014,"predict":15015,"dend":15016,"reply":15017,"pumped":15018,"tertiary":15019,"thinner":15020,"accoun":15021,"perhaps":15022,"loud":15023,"answ":15024,"transfection":15025,"gastro":15026,"sulfide":15027,"sept":15028,"ninth":15029,"anion":15030,"polyolefin":15031,"hereto":15032,"concerned":15033,"##icyclo":15034,"antagonists":15035,"partitions":15036,"##atical":15037,"##olytic":15038,"occupied":15039,"rm":15040,"anat":15041,"trusted":15042,"knock":15043,"chat":15044,"filtrate":15045,"-{[":15046,"challeng":15047,"maximize":15048,"sandwiched":15049,"##ults":15050,"strongly":15051,"grouped":15052,"diaz":15053,"selectivity":15054,"follower":15055,"fum":15056,"cholesterol":15057,"intact":15058,"##icle":15059,"trough":15060,"polyacryl":15061,"chromosome":15062,"missing":15063,"intervening":15064,"##iral":15065,"##amines":15066,"interpos":15067,"##gtgg":15068,"##cal":15069,"manages":15070,"employee":15071,"squee":15072,"ads":15073,"notify":15074,"nutrition":15075,"xaa":15076,"finish":15077,"sulfonic":15078,"##ilities":15079,"reservation":15080,"assisted":15081,"apoptosis":15082,"condensed":15083,"ccc":15084,"##ann":15085,"poured":15086,"copying":15087,"conversation":15088,"cin":15089,"##rices":15090,"##ming":15091,"microorganisms":15092,"releasably":15093,"##ramb":15094,"happ":15095,"##fv":15096,"##ceived":15097,"##fol":15098,"##atct":15099,"architectures":15100,"bicycle":15101,"fruit":15102,"stresses":15103,"selections":15104,"vcc":15105,"subcar":15106,"doub":15107,"homology":15108,"seating":15109,"##xxxx":15110,"terminology":15111,"hip":15112,"distributor":15113,"distribute":15114,"cancel":15115,"radar":15116,"consequence":15117,"dimethylamino":15118,"thicker":15119,"##_id":15120,"subcutaneous":15121,"##ifi":15122,"homogen":15123,"##oint":15124,"codon":15125,"ascertain":15126,"##ectives":15127,"##tia":15128,"aac":15129,"sit":15130,"stereoscopic":15131,"’,":15132,"retrieving":15133,"##ophene":15134,"cartilage":15135,"seated":15136,"biotechn":15137,"mangan":15138,"systemic":15139,"lifetime":15140,"gh":15141,"immunol":15142,"initiates":15143,"uniquely":15144,"dissoci":15145,"anisotropic":15146,"hazard":15147,"isolating":15148,"amplifying":15149,"sie":15150,"adult":15151,"repetition":15152,"hydrochloric":15153,"##amido":15154,"wast":15155,"routines":15156,"agc":15157,"partitioned":15158,"##omon":15159,"csf":15160,"aga":15161,"latex":15162,"fish":15163,"##gp":15164,"dv":15165,"##itin":15166,"illuminating":15167,"diisocyanate":15168,"bay":15169,"bil":15170,"propion":15171,"##tidine":15172,"pdcch":15173,"allerg":15174,"##ibrium":15175,"(=":15176,"cantilever":15177,"##teen":15178,"disclose":15179,"##axially":15180,"##estamp":15181,"##ridges":15182,"##ograp":15183,"ejected":15184,"considerably":15185,"unm":15186,"decorative":15187,"fgf":15188,"##ka":15189,"##vine":15190,"incon":15191,"scienti":15192,"fpga":15193,"heaters":15194,"galact":15195,"wiper":15196,"disclosures":15197,"solved":15198,"metabolic":15199,"##array":15200,"bevel":15201,"/(":15202,"burner":15203,"cds":15204,"expressions":15205,"inclusive":15206,"cloned":15207,"subtr":15208,"ylmethyl":15209,"sake":15210,"##****":15211,"thous":15212,"polycrystalline":15213,
[...]
